[PAD]
[UNK]
[CLS]
[SEP]
[MASK]
!
"
#
$
%
&
'
(
)
*
+
,
-
.
/
0
1
2
3
4
5
6
7
8
9
:
;
<
=
>
?
@
[
\
]
^
_
`
a
b
c
d
e
f
g
h
i
j
k
l
m
n
o
p
q
r
s
t
u
v
w
x
y
z
{
|
}
~
£
¥
§
¨
©
«
®
°
²
´
·
º
»
ß
æ
ø
đ
ı
ł
œ
ƙ
˜
α
β
γ
θ
ι
λ
μ
ν
ο
ρ
ς
а
б
в
г
д
е
ж
з
и
к
л
м
н
о
п
р
с
т
у
ф
х
ц
ч
ш
щ
ъ
ы
ь
э
ю
я
ա
ի
լ
կ
մ
ն
վ
տ
ր
؟
ء
ا
ب
ة
ت
ث
ج
ح
خ
د
ذ
ر
ز
س
ش
ص
ض
ط
ع
غ
ـ
ف
ق
ك
ل
م
ن
ه
و
ى
ي
ک
ی
۷
ܕ
ܝ
ܡ
ܢ
ܪ
ง
จ
ด
ต
ม
ย
ร
า
เ
ᄒ
ᅡ
ᅳ
ᆷ
ᆼ
ቡ
አ
ዳ
ጊ
–
—
‘
’
“
”
„
‟
•
…
›
※
€
™
←
↑
→
↵
−
√
∠
⏩
②
▷
►
◄
●
★
♂
♥
✅
✍
✛
➡
➢
、
。
《
》
「
」
あ
い
う
え
お
か
き
く
け
こ
さ
し
す
た
ち
っ
て
と
な
に
の
は
ふ
ほ
ま
も
よ
ら
り
る
れ
わ
を
ん
ゝ
ィ
イ
エ
ク
コ
ス
タ
チ
ッ
ツ
テ
ト
ナ
ニ
ノ
ハ
ヒ
ホ
ャ
ラ
リ
ル
レ
ワ
ン
ヶ
・
ー
ヽ
㎡
一
万
三
上
下
不
与
专
世
业
东
並
个
中
临
丸
为
主
久
么
之
乐
习
书
了
事
于
云
井
亚
亦
产
享
京
人
什
仅
今
从
他
代
以
们
件
价
任
份
企
休
众
会
传
但
佈
位
佐
体
何
作
你
供
俗
保
信
修
個
們
值
假
側
傳
僵
儿
元
先
光
克
免
入
內
全
公
六
共
关
具
典
内
再
冬
决
冷
几
出
分
切
刊
创
判
利
刪
到
制
刷
刻
前
力
办
加
动
助
劳
勝
勿
包
北
匙
区
千
华
协
单
卫
印
即
原
参
又
及
反
发
取
受
变
口
古
只
可
台
号
司
吃
各
合
同
名
后
向
吧
听
启
吹
员
呢
周
味
和
哇
响
員
唐
商
問
嘎
器
回
团
国
图
圆
在
地
场
坐
城
域
培
場
塩
墓
士
处
备
复
外
多
夜
大
天
奇
奖
姐
娱
婆
媒
子
字
学
孩
它
安
完
官
定
宝
实
家
容
密
富
寒
察
實
寫
对
寻
导
将
對
小
少
就
尸
尾
屋
展
屬
山
岐
岡
工
巧
己
币
市
师
希
带
帮
常
幌
平
年
广
庆
店
府
度
建
开
弊
式
当
录
形
彩
影
待
律
得
微
徽
心
必
忆
志
快
念
怎
思
性
总
恢
息
情
想
意
愛
應
戏
成
我
戒
或
战
戶
所
手
打
找
承
技
投
报
拟
拼
指
按
捕
换
据
提
損
搜
播
撰
擊
改
攻
放
政
故
效
敬
数
文
斗
新
斷
方
於
旗
无
日
时
明
映
是
显
時
暴
最
會
月
有
望
期
木
本
札
机
杂
来
极
析
果
枪
柏
染
查
栃
标
核
桃
梦
森
植
楽
權
次
歌
正
步
歸
殊
毛
水
永
汇
汽
沢
油
法
注
洁
洛
津
活
测
济
浏
浦
淘
清
港
渲
游
湖
湘
源
濃
灯
灵
点
為
無
爱
爷
片
版
物
特
狗
猫
王
现
現
理
生
用
田
由
电
画
界
畔
留
發
白
百
的
盒
盗
盘
監
目
相
省
看
真
着
瞬
矢
码
研
破
硬
示
社
神
福
种
科
称
程
穢
究
立
站
章
笔
等
筑
策
签
简
管
箱
米
类
粗
精
系
糾
紛
索
絡
網
縁
红
练
组
终
经
结
给
络
统
编
网
署
美
老
考
者
而
耳
职
联
聯
聲
肖
股
背
能
脑
自
至
致
舰
色
艺
节
芒
若
英
茂
获
萍
营
虚
虾
行
表
装
西
要
見
規
见
观
视
览
解
言
語
誹
調
請
論
謗
警
讀
计
订
让
训
议
记
论
访
评
询
说
读
谷
象
豪
負
責
賀
賴
贝
财
费
资
赛
赤
起
足
跃
踊
身
车
转
软
载
辅
辉
输
达
迅
过
这
进
违
连
速
造
運
過
遮
那
部
配
酬
采
里
重
野
金
鎌
针
钥
铺
键
镇
长
關
问
间
闻
阅
阜
际
陌
限
除
险
集
雷
青
静
非
面
音
須
題
顔
项
预
领
频
题
风
食
首
马
驱
驾
高
鬼
鱼
黒
龙
（
）
，
：
；
＼
｀
～
🌻
🍒
🏽
💖
🔹
😉
🙂
🙇
##u
##i
##l
##z
##a
##w
##e
##k
##h
##t
##p
##g
##n
##c
##m
##s
##j
##d
##r
##o
##b
##v
##f
##y
##3
##у
##в
##а
##л
##ь
##т
##о
##р
##д
##1
##7
##q
##5
##8
##0
##2
##4
##9
##6
##к
##и
##н
##е
##く
##に
##x
##м
##ж
##г
##я
##с
##ت
##ı
##п
##ل
##ح
##ر
##з
##ي
##ا
##ب
##ч
##ق
##х
##°
##ヒ
##ン
##ク
##の
##ハ
##ツ
##か
##´
##ف
##د
##و
##م
##غ
##ن
##ъ
##б
##ա
##ն
##ы
##ک
##ز
##ع
##ш
##ش
##ه
##س
##ء
##ص
##っ
##た
##れ
##ま
##す
##こ
##ち
##ら
##ـ
##э
##ャ
##ー
##ト
##テ
##タ
##を
##ى
##€
##ج
##イ
##ス
##ル
##ة
##ю
##ث
##ф
##🏽
##て
##ض
##º
##ր
##լ
##ի
##կ
##ц
##ß
##ط
##щ
##æ
##خ
##ᅡ
##ᆷ
##ᄒ
##ᅳ
##ᆼ
##ی
##も
##と
##ł
##տ
##²
##œ
##あ
##り
##ッ
##る
##し
##い
##な
##エ
##ラ
##ذ
##お
##™
##ん
##ホ
##ニ
##ك
##わ
##は
##ܪ
##ܕ
##ܝ
##ܢ
##よ
##う
##き
##ቡ
##ጊ
##ዳ
##～
##ィ
##リ
##ナ
##チ
##ด
##เ
##ร
##ย
##ง
##ต
##า
##ม
##💖
##®
##ふ
##→
##レ
##˜
##け
##α
##ρ
##θ
##ο
##λ
##μ
##ι
##ς
##♂
wa
##wa
ya
##ka
##li
ku
##an
##at
kwa
##ha
na
##ika
ma
##ku
##in
##en
##zi
##am
kat
##ia
##is
##ba
##hi
katika
##ji
##na
##ki
##ri
##yo
##to
##da
##ta
##za
##um
##ng
##ko
##ya
ki
##ra
##la
##di
##ye
##le
##si
mwa
hi
##ma
##ja
ha
##me
##fu
##ke
##ti
##hu
##fa
##mu
##we
##bu
hu
mku
##enye
##zo
##mba
za
ni
##sa
##ini
ba
##he
##ani
kuwa
kuto
ka
mi
la
mko
##oja
vi
##po
##ni
##sha
##wenye
##te
##go
mwaka
mkuu
ali
##kuwa
##ili
##fan
##tu
cha
mkoa
ta
##ga
##ata
##ch
##ele
sa
##ana
se
##mb
##ua
20
##ong
mu
ili
##ano
hiyo
##ing
amba
baa
kwenye
##gu
kutoka
##ina
##re
##rika
##ama
wi
##cha
##ru
##ung
##shi
wana
##se
##do
##sh
##chi
##dhi
##isha
si
##isi
aki
waka
##on
201
##ish
##pi
ame
##ifa
##ongo
wali
##lo
##ro
ina
baada
vya
##fanya
##amu
##dha
##pa
ju
##bwa
##su
##ati
##sema
##eo
##end
ra
##pan
##laya
um
uli
##vyo
wakati
##fun
##bi
##fi
##jili
##anda
##ami
##un
##kiwa
tan
mw
pam
kati
wilaya
huo
##ria
##tum
pamoja
##isa
##ingi
##mi
##idi
##gi
af
##rikali
##bo
##che
##ze
nchi
##ishi
serikali
watu
##fany
tu
mwenye
mia
uta
##endele
ajili
juu
##zaji
##vu
miaka
##uma
##uri
##sili
##mbo
kam
da
##ge
##liwa
huu
##ongozi
##be
mat
##riki
##de
##je
ch
yake
kuhu
##ote
##nza
zaidi
##kwa
##zwa
kazi
##mo
##limu
moja
ime
mji
##kuu
##chini
taa
maka
nchini
##ania
ny
##ngu
##anga
##tano
hii
##isho
##weza
maa
##zania
una
iliyo
##wan
kama
ti
##du
ji
##zung
##amii
##bali
mara
mwana
##jini
li
kup
wan
##ataifa
tanzania
kwanza
kutoa
kuhusu
##enda
##fanyika
ana
##cho
##and
##umi
##toa
##funzi
shu
rais
##guzi
##ine
##taa
##lia
wake
siku
taifa
hivyo
ume
##zungum
mwan
##chu
wazi
baadhi
mo
##uni
##enzi
##00
hali
ru
19
elimu
walio
##moja
fe
uj
mhe
mas
ambayo
mkutano
##atu
##mbe
zi
wame
##bari
of
##kea
ms
##umu
umoja
##jia
ulio
she
saba
bo
##shiriki
##taka
##onge
waki
kus
mmoja
##ishwa
kuu
kufanya
pia
##indi
##shauri
##eni
##anzi
wenye
##nga
pi
ucha
mt
habari
man
miko
##pango
uwe
kubwa
en
timu
kab
##oni
au
##wi
ida
ko
bi
##eng
##nge
waziri
ofisi
##ume
maji
##ne
shule
po
mbali
##rifa
viongozi
##toto
uchaguzi
kwamba
amesema
usa
jamii
map
##kia
me
hilo
fedha
##atua
##anchi
mwe
##mbi
##mia
jam
##kini
##kele
wanafunzi
uku
##kta
to
afrika
taarifa
##lu
##hemu
ho
##umo
##endeleo
##dani
es
##pita
##jibu
##sim
sasa
2018
kufu
sababu
in
##vi
##shwa
maendeleo
sala
##fasi
kui
##kiti
##ato
##gha
alisema
akiwa
wananchi
##lewa
dar
##radi
##sho
##yu
##duma
nafasi
ambao
##ang
hatua
leo
do
##kana
kim
up
##dili
kila
picha
muda
lu
huduma
##jwa
##engo
##zungumza
##tekele
huyo
asili
salaam
kili
##one
##tumia
##lamu
dk
kutokana
##lma
sehemu
##ene
hadi
mb
mpango
##wanja
mare
mwenyekiti
alikuwa
hayo
##amo
inayo
kuji
hizo
kut
mwisho
kuka
kum
chu
eneo
mwezi
##himu
200
##pata
halma
##anza
njia
zili
ndi
kia
mka
mataifa
halmashauri
pe
bara
##nda
hata
##no
pa
he
mkubwa
mp
##umba
mche
##mbali
##dia
##kubwa
##inga
mkoani
ambaye
upan
mujibu
ndani
##sisi
sheria
##endelea
##andao
kis
afya
##kani
shi
pili
ye
##huri
mjini
##eneo
##damu
maeneo
kuli
kabla
##ilia
lakini
mikoa
##ham
yao
jo
umri
kip
an
##fadhi
mbalimbali
yali
##kili
chini
##umbe
masha
##kio
zia
zina
chuo
sekta
ilikuwa
mada
##iasa
##hidi
##ndi
##ngo
##umla
akizungumza
katibu
##ondo
wanao
so
mungu
ambapo
fu
al
uha
##zuri
kupi
##shara
##ho
2017
kata
##gon
wao
fa
##ende
##cm
##tuo
ita
##wala
wakazi
##ambu
jamhuri
##st
##gonjwa
vyo
ut
kamp
wakiwa
kimataifa
##bia
sana
su
awa
jana
upande
uka
##ribu
##taji
us
##engi
kuwe
##ind
kusini
mafun
##ingine
##zara
je
uhu
##pe
wafanya
mfu
watoto
ziara
kamati
aliye
wizara
wote
maba
##faa
idadi
kij
ke
rukwa
##uli
asilimia
msingi
yana
uwanja
##mili
##fumo
mtu
sh
mpya
ja
ro
taasisi
marekani
vy
ccm
ujenzi
ikiwa
##chumi
##kazi
hao
##kua
kupata
am
##lisi
kuna
kika
lugha
bu
we
##atika
dkt
mafunzo
##wani
##ran
##isto
##fiti
##zu
##indu
##unia
##tia
##fau
wakuu
##uzi
re
msa
chama
##dogo
te
##mbu
muhimu
maha
kita
tatu
polisi
huku
##ezi
##atia
##fani
nje
muung
##andishi
##jiji
##wili
mambo
##bar
kan
hos
muungano
##atikana
ben
##el
##sia
ar
dunia
msi
10
ngu
##umizi
##onye
##lama
matumizi
dodo
dhidi
jijini
kikuu
dodoma
##so
##san
hospita
sha
uwezo
zilizo
##tumishi
##endo
##miwa
mfumo
##rati
##amuzi
mtandao
mit
haki
##uala
wafanyakazi
ga
##kisha
##labu
mchezo
nam
##jana
ai
000
hospitali
##zazi
##tolewa
vijana
##ida
##wenda
##ingia
pro
karibu
mwili
alipo
wasi
##idia
##ongeza
mwanam
umma
un
kas
be
##kwe
##enga
##wanda
##wasili
##fikia
maele
maj
utekele
maku
hicho
kiasi
##yan
ukumbi
kampuni
klabu
##dhaa
idara
kipindi
##weze
mradi
bora
##engine
##bara
namna
hasa
utekelezaji
zanzi
##keo
zanzibar
##rug
##hitaji
##hari
kijamii
##iwa
bina
miradi
utafiti
mbe
##futa
##amizi
##fsi
kuta
##shaji
bia
##wango
##shimiwa
##ratibu
yenye
vyombo
##ona
##paka
##goro
kutumia
##kati
##zeka
##konda
kusa
##rugenzi
##induzi
wata
##ungu
##amia
ri
##bunge
##ce
##rehe
kuj
##co
benki
ligi
##zingi
##oko
yaliyo
bung
##ada
##sika
##endaji
ak
maal
##enge
hai
##zingira
##jumbe
##pas
biashara
wengi
2016
uhuru
duni
mato
mheshimiwa
jumla
##enya
uchumi
makamu
wat
wiki
##nguzi
nguvu
ir
ufu
mazingira
kiongozi
kuku
##iny
kijiji
tume
tangu
##pokea
##twa
##fika
uongozi
maisha
mashariki
##fauti
##mali
waandishi
##kezaji
mili
simu
##ibu
kulia
##ribi
mwanamke
mtoto
ufa
##fo
kina
uki
##eno
##amba
hawa
de
##man
##dh
##onyesha
##ve
vita
kituo
##lla
kushiriki
matokeo
miongo
ulaya
##ena
##shirika
duniani
mn
##poti
ras
mgo
##th
##paa
##zini
bodi
mbili
hifadhi
kura
nga
2015
mh
##ango
mwanadamu
##aji
zao
maelezo
aidha
##zima
lili
mkurugenzi
##fisa
##fuata
kwenda
iki
kute
kupitia
iringa
yote
ge
##inge
##shind
mam
zote
##kari
ushiriki
##risha
mbeya
aina
##keza
kuha
##islamu
mg
awali
##laka
##simamizi
mahaka
##ispaa
mwalimu
zinazo
watumishi
##bora
usalama
mpaka
manispaa
##bidhi
hapa
rasmi
mali
maana
humo
yame
kitaifa
co
siasa
##bisha
yako
##pu
##mbea
wada
jimbo
18
##uaji
tofauti
kawa
ardhi
bunge
##lam
kiu
##gua
zake
mamlaka
##elea
##vuti
##eleza
tuzo
kuanzi
##reza
kaska
##jo
vyama
nia
##nzi
kaskazini
kiwango
##ema
##chang
ata
##shu
##wahi
kawaida
##shoto
##rd
nyumba
di
nne
##omba
##raji
##husu
walimu
##onekana
wadau
##taalamu
##va
##dala
tuna
mwanafunzi
15
kenya
utu
##rt
##rum
lengo
kushoto
mwanzo
##rua
##ramu
##atilia
viwanda
umeme
masuala
##shindi
##thi
kikubwa
##rusha
miongoni
##angi
sekonda
##chukua
msimu
sekondari
walikuwa
##rsa
##omo
##dhim
wajumbe
##zali
##rasa
##ter
vyu
hivi
ne
ngazi
jin
kua
mahakama
##fanywa
199
kun
shirika
##atizo
##ane
unao
##kee
mfuko
##taba
ambazo
##refu
kilimo
yo
haku
katiba
vyuo
kabisa
dha
masomo
uz
##mani
##lii
no
##diliko
msaada
##fiki
yanayo
hili
##elekea
fursa
mad
##umb
maja
mabadiliko
arusha
##gwa
##istoria
12
wak
kasi
wako
kuanza
huko
milioni
##lizi
kufikia
kwe
bila
##raka
##chama
uliofanyika
jeshi
##amb
##unga
akitoa
jumu
kikao
kuja
kuwasili
##chezaji
##ongezeka
nde
ura
naibu
##amani
mwanza
zime
##yari
##ingereza
tak
kuingia
##rani
jina
wachezaji
hapo
jambo
as
gha
simi
ugonjwa
makubwa
##weka
joh
kisa
amani
ushirikiano
simiyu
ndo
##mw
##kilishi
bw
iliyofanyika
##inu
miche
##mbelea
##lay
jum
##ck
kuongeza
haya
##huli
uchu
##hada
lina
##fano
##angaza
##amini
waku
makuu
##amilia
vituo
##kula
ulinzi
kwake
##mea
##ry
##ate
##toaji
maafisa
wenyewe
maalum
##risto
mbele
usimamizi
inaweza
john
##andi
ndio
uamuzi
##kika
##ngi
nyingine
ujumla
utoaji
##ph
kutekele
uwekezaji
mch
##yansi
##ghuli
##kumu
##saba
bei
mama
magha
kit
mnamo
umu
##atwa
bado
vifaa
usafi
kauli
waa
nyingi
prog
mpi
##engu
sita
##lima
##zea
kuondo
unaweza
moro
ndege
14
##iya
##saidia
##taafu
hewa
wengine
kusim
michezo
tanga
fi
go
kisiasa
##fla
umuhimu
ok
ste
##yi
##siano
mikopo
13
aka
vit
##ziki
##ongoza
kuz
##lojia
##rajiwa
mafuta
##paswa
rangi
##uliwa
##ca
##rusi
##jeshi
11
makao
kweli
wale
##rufu
mitandao
jumuiya
magharibi
familia
kanda
mba
##zia
##amoto
30
ab
mis
##zaliwa
##fung
utawala
##jeti
##ita
wilay
mfano
wilayani
vili
mkataba
bajeti
##hani
##toba
awamu
is
juni
chang
mchezaji
##wapo
tawala
##mwa
barabara
mazungum
##kezo
kai
##tisha
programu
##mini
katikati
ilivyo
##bore
chan
##ngeza
ndiyo
mazungumzo
tayari
baraza
aliyekuwa
sen
kutosha
##fanikio
##inda
mifu
vile
ulikuwa
##changia
##dhimisho
##hiti
kuru
tovuti
uko
##guliwa
le
16
##fe
##lea
ca
mafanikio
dawa
##mwengu
ngo
pwani
25
miezi
oktoba
ripoti
historia
mawasili
##piga
maadhimisho
binafsi
bidhaa
##patikana
matu
##yote
morogoro
##engene
uchunguzi
tano
usi
zamani
##dwa
ndu
hati
nya
zo
##ambo
changamoto
muziki
ulimwengu
mrefu
ule
moyo
uzinduzi
upo
kuba
kid
mipango
##engwa
che
tarehe
##undo
kikwe
##inyanga
##andisi
fo
##fanikiwa
kikwete
mao
utalii
##jerum
shinyanga
##jerumani
damu
##hudi
##ruki
wanawa
tukio
mawasiliano
mene
17
mawa
##kikisha
viwanja
##lozi
tabora
##dumu
bahari
kesi
##sisha
ujumbe
mtaka
magu
kilo
hafla
##umbani
##hisi
##kumbu
##chuano
mcha
nzuri
##zoe
jinsi
wanawake
mti
##heria
chakula
makala
##andaa
##anisha
hizi
lime
##geni
##angu
kwani
##teja
##unti
yeye
soka
kundi
kar
pekee
jan
##mp
##kosa
kuwepo
upatikana
##zani
2014
upatikanaji
##reje
has
mechi
matukio
singi
##hamu
##unda
##buni
mapinduzi
singida
##wemo
##chaguliwa
yetu
##ransa
dini
hau
##ambua
mtaa
##leta
afisa
lo
nu
michuano
itakuwa
mengi
kiko
vizuri
raia
##stani
makundi
makazi
kaimu
kilicho
yu
mwenyewe
ndugu
##wana
kupan
sera
mbunge
ua
wataalamu
##pokuwa
nyumbani
wetu
##atiba
china
binadamu
sensa
##enza
mitaa
simba
utaratibu
licha
kuhakikisha
ndoa
kin
niaba
shughuli
##shindwa
kutekeleza
vina
##disha
##ris
##fuli
2019
##matwa
##kato
sayansi
at
uja
kombe
mei
##tumiaji
kuweka
janua
kusi
mal
##hifadhi
mta
##sta
mala
mpira
##rodha
tena
##lingi
mahitaji
kadhaa
miku
202
##ingatia
mwand
magufuli
wafu
##kuru
##riwa
miwili
##isiwa
##dai
##wahili
soko
##milika
juma
##atiwa
##pewa
##kno
##chuku
kush
##amano
##zee
wito
shilingi
100
##athi
maga
##takiwa
kanisa
kujenga
kusimamia
##kra
##gera
##onesha
wanaoishi
bili
##sti
kitu
##anii
wo
##rs
wazazi
##lai
imekuwa
mapato
uhusiano
##bili
ug
##lani
##ss
wastani
mdogo
sp
zoezi
meneja
wagonjwa
kufanyika
##tokea
##fari
kagera
jiji
##zalishaji
##hitimu
mke
##dhu
washiriki
wawili
mv
##ly
hakuna
lake
mapema
kutum
##gizo
karibuni
sawa
##knolojia
the
##tana
kima
wanachama
##ktari
suala
ujerumani
##us
wapata
##cheza
usawa
##atoa
##ambuli
banda
##tari
##umbu
kifu
mkono
##biwa
kuanzia
mchango
##zoefu
isi
##uka
maoni
kufuatia
mchakato
wapatao
ushirika
ze
##ul
##jaro
kume
##pongeza
2012
##gemea
##ngeze
ng
uba
ushauri
vye
kiislamu
miti
kiliman
shahada
wap
mauaji
##ingwa
mikutano
kilimanjaro
##oma
sio
##biashara
kushirikiana
uturuki
januari
##umiwa
ukaguzi
uzoefu
##id
kufa
kuona
waliokuwa
##unguza
##luma
kuendelea
##hara
197
mwishoni
orodha
##es
##nia
vikuu
kiswahili
kampeni
##ngezeko
wateja
hassan
ongezeko
##elewa
ametoa
##angazwa
##rama
mitatu
ufunguzi
ufaransa
kiuchumi
nye
uingereza
kigo
##elezea
##zuia
kanuni
##wara
mwingine
anaye
imani
wabunge
barua
ambalo
##anzishwa
##umia
kime
##marisha
sep
mtwara
teknolojia
mazi
##rik
husika
basi
alipokuwa
kisasa
uzalishaji
##kiliza
bilioni
safari
mata
##chana
kutu
##inzani
21
sulu
hatari
maombi
mbi
##pwa
##amua
lazima
tabia
##andalizi
bwana
sta
maamuzi
##rabu
ap
chi
iran
nish
##wekwa
kutokea
wamekuwa
50
maandalizi
ama
##lami
mab
##yama
kumali
mwakilishi
gharama
wakulima
nini
##mina
##wali
maarufu
24
##frika
kuweza
mau
amekuwa
mwandishi
kuzi
##husika
aliyo
nyuma
ziwa
maneno
##jiri
kib
##diwani
##inali
2013
mto
##tishwa
##gaji
##duni
mwanaume
malipo
septe
##penda
##kuja
##siana
##elezwa
##ishia
##wimu
kuliko
geita
ndogo
was
##ungo
##pele
##rib
iliyopita
mstaafu
yesu
lililo
misi
##ongozwa
196
nishati
##kubali
##tuba
##amaduni
##biti
mhandisi
aja
##wasi
kuti
naye
semina
julai
ufun
kile
miundo
saa
sherehe
##ll
##guu
vilivyo
##wanga
##mbaji
matatizo
##med
madai
takwimu
st
kaunti
rufaa
hotuba
kufung
##chukuliwa
matiba
kumi
##ent
kutokuwa
##tembelea
##ongea
watendaji
mika
mitano
maalumu
kike
198
ukuaji
pemba
urusi
kuongezeka
mah
##inisha
##ungua
##dhara
##endekezo
maju
##lifu
##shindano
urais
aji
mengine
nyo
sumba
##land
##ju
##anzania
##rea
mwi
fainali
mvua
matibabu
kuelekea
namba
mashindano
mfupi
##faulu
##sanya
##sababisha
kigoma
sumbawanga
tatizo
ushindi
##lme
##wezi
badala
spika
iku
##hama
##ino
##tiza
##atarajiwa
mwenge
makubali
mganga
##zika
baba
baadaye
kambi
uv
##andaliwa
##undwa
ago
moshi
##tokeza
kidato
makubaliano
##hana
##waji
bali
##biri
kupunguza
##andika
madini
ambako
ukim
suluhu
septemba
##fuatilia
2010
##mokra
##han
##juli
kumu
magonjwa
haraka
uliopita
usiku
lindi
##kabidhi
##lim
kutolewa
sifa
hukumu
##ur
kuvu
##kundi
akim
##kweli
kuzingatia
##iro
##anishwa
mashirika
##gombea
##giza
##indua
wasiwasi
##pasuaji
ajira
mbo
kusema
##keti
##angalia
mwanas
##wezesha
##boresha
iko
ila
upasuaji
##wepo
mzuri
balozi
##tume
usta
agosti
kuchukua
miji
uwezeka
dola
##yanya
uwezekano
##fanyiwa
##zungumzia
ukimwi
23
hote
vid
mapendekezo
##hamani
yoyote
##ci
kushu
22
mash
sau
mtendaji
##miaji
##okoa
nusu
mshindi
uzazi
##itwa
##mavu
amewa
##zungu
paul
##ondoa
km
ufan
##toka
##unua
feb
faida
kutafuta
##dio
mgombea
ukweli
huwa
majukumu
watumiaji
##raja
utaka
wewe
##ungufu
##jumu
yanga
gari
wasio
##fungua
thamani
ubora
vyote
malengo
40
neno
nane
mazo
akipokea
##angazaji
kocha
majaliwa
februa
ute
##daiwa
##rah
huru
darasa
takrib
uma
##son
vitendo
mazoezi
26
aliwa
kuling
dr
el
mna
##jua
##bwe
haja
miguu
chake
##funza
2007
mkakati
mabao
robo
##humiwa
##tangaza
##wadi
kuboresha
##anzo
baina
##tea
cho
roho
mgogoro
anga
##ripoti
##ony
kikosi
jengo
kula
husu
tuli
iliyopo
video
kuki
##kofu
##idizi
moto
kusaidia
ag
ile
njo
##sabu
kumbu
##tani
usajili
kristo
migo
##dhibiti
upinzani
##fadhili
jaka
mgeni
ufanisi
##it
nili
##atakiwa
##pig
mbaya
it
utumishi
wawe
machi
##jadala
##mbinu
zita
kukagua
magari
masa
nyu
kuimarisha
mkazi
vyanzo
##kuwepo
kifo
kuhusiana
isra
uganda
28
samia
zawadi
juhudi
lita
pombe
ukanda
akis
mtihani
27
zenye
##yika
wajibu
##ongwe
##semba
ukubwa
##fsiri
miundombinu
gani
his
sisi
tun
nao
mar
makonda
kamili
joto
##miliki
tam
##uawa
ambavyo
umekuwa
kodi
kisheria
##hoji
desemba
jakaya
msha
usha
##keb
vime
##ambuki
##rio
##tifu
halisi
kitengo
##mokrasia
misa
wingi
##vun
hiki
bima
ustawi
min
utendaji
##er
##cc
kufika
##hili
kujadili
misitu
tat
kucha
kide
alitoa
utamaduni
februari
##ld
##jika
wazee
kufi
kudumu
vifo
kuzuia
##kufu
kamish
wanyama
pesa
kulingana
adha
##kwenda
##nd
makini
##kutana
##hihi
##ruhusu
##shika
marehemu
buru
karne
##asi
##bika
wageni
kushindwa
##chwa
2011
##taalam
anth
wasichana
hoteli
##ram
kupele
nove
ham
##hati
mwah
##dema
kutambua
jumat
anthony
kiume
##panda
kuishi
madiwani
##zito
##raha
##fariki
##endeleza
kufuata
fulani
kujua
bandari
mli
##ad
tiketi
ujuzi
##lli
##lenga
##pishwa
##lizo
kupo
vijiji
anaweza
ukurasa
##wezekana
##she
kuleta
mako
kizazi
viwango
chadema
pale
chanjo
mifugo
njombe
tl
##wakilishi
kuzaliwa
##jijini
##fanua
masoko
toka
kubadili
mtakatifu
ub
##tajwa
baria
sar
##tumi
kinacho
kuwasilisha
##julikana
bariadi
ufaulu
##hadi
2000
wanaume
end
hoja
##men
uliopo
manyanya
sura
##andikwa
mbio
ika
kuandaa
wakala
##geria
korea
ushu
watanzania
##shukuru
##swa
sanaa
kisha
mr
##tro
walipo
ziki
##lulizo
jose
katavi
##rejea
##enzake
##jengwa
mita
kamanda
kitabu
gi
itaka
maand
ambacho
2008
stella
iba
kiny
##ise
##jitokeza
##ataka
##unuzi
shetani
wakifuatilia
uso
mfululizo
jua
mjumbe
##achi
##rk
##ywa
tiba
kukamilika
shirik
amri
majina
hatima
vika
##rishwa
##vo
kwao
##inika
##semaji
agizo
ser
maadili
anasema
kukabidhi
ndiye
mawazo
apri
60
mingi
##ton
wakimbi
maziwa
maandamano
mjadala
##les
kumbukumbu
wagombea
##rere
rahisi
##zeti
alama
utangazaji
ikiwemo
ibada
29
songwe
uvu
##ssa
##ff
##miza
uhalifu
ufundi
##zamo
kuko
##mua
##ongozo
kupe
uhamiaji
ulemavu
31
wala
kucheza
##tumika
mojawapo
kulikuwa
usafiri
misaada
novemba
ada
kisiwa
wataalam
kufunga
2005
kupiga
akika
kununua
##dhuria
israel
eng
kupokea
##hita
##tokana
vip
##bila
daraja
##nguja
heshi
##ver
kuondoa
steph
kutaka
##funga
mtanda
kukamatwa
##endesha
kikazi
kassim
##lamiko
nyota
##kebisho
adhabu
ml
##nu
##ande
kiingereza
vitu
wimbo
kujifunza
2006
uhakika
##dhamini
rai
marekebisho
##soma
gesi
mzungu
unguja
##pia
##kamatwa
##yara
kipa
kitaa
iliyokuwa
kutangaza
##bunifu
wafuasi
kamishna
stephen
az
on
uni
ukiwa
##gan
##vuma
##atani
##husisha
##rey
##sheni
kupatikana
rushwa
2009
##milifu
askari
malalamiko
nyerere
inga
tani
utakuwa
##bel
wakimbizi
uf
wah
kuonyesha
maambuki
kira
kidogo
##tumiwa
manyara
vyema
nd
uislamu
wanga
##babisha
mil
taratibu
##shinda
akili
kiafrika
yeyote
ajali
##kishwa
makosa
##fungu
##fanyia
mifuko
kumaliza
joseph
heshima
##anne
macha
##tarajiwa
##lezi
##simu
##panga
tuta
kufuatilia
kiarabu
wafanyabiashara
##zalisha
ikulu
##ct
##dan
##zao
mifumo
##lote
##ngaji
madaktari
ahadi
mzima
##enu
kih
##lahi
##siri
hadhara
##gawan
salama
siri
##dhali
##kilisha
##milisha
wawekezaji
ingawa
sy
tra
##lwa
wahitimu
kuanzishwa
mwanzoni
linalo
vinavyo
shirikisho
kitaaluma
maambukizi
kuchangia
mahu
pich
ziada
kuwekeza
ii
war
##ambia
akiwasili
kusababisha
kukuza
vitabu
kurudi
mikakati
saratani
pichani
##al
kigeni
##kwazo
mapenzi
upungufu
kebwe
eu
##bc
##blia
maone
##kezwa
##fafanua
##piki
maabara
kipe
##rti
##bati
##ridh
nigeria
##teza
##sisitiza
and
majengo
##fikapo
2020
kibina
wasanii
maonesho
ad
##rg
waislamu
##tumwa
##geme
imesema
msanii
manu
ifikapo
uji
##kaa
kule
##amaa
ruvuma
kujiunga
msaidizi
##dhani
utakao
500
##kis
##klia
##hmini
##pili
kuangalia
##baki
##masisha
##fahamu
##rudi
furaha
maelekezo
mitihani
km²
risa
##pende
mawili
##ame
##sefu
wakim
##endeshaji
mzunguko
35
mtume
zin
kuung
##taja
##fundisha
mwongozo
sikukuu
kuondoka
cu
fc
uelewa
wapo
nairo
mage
mazao
##umbi
bao
##pangwa
makadi
upendo
kutumika
gu
kongo
od
##mon
kuomba
wanajeshi
mwenyeji
##yuta
##hitajika
kipekee
nairobi
fran
kote
ufadhili
vo
##juma
##atana
nayo
##amali
jioni
##ambulisho
endele
nina
yaani
##inishwa
vijijini
##bert
195
wenyeji
kutembelea
endelevu
du
ipo
##kata
##indo
##husi
sahihi
wanaweza
##biki
mbinu
hesabu
##stina
sukari
prof
atakuwa
##engeneza
wangabo
80
iwapo
jk
##gumu
##hiri
##rali
##maji
wanadamu
koro
yaliyofanyika
jumanne
##mpyuta
##ripotiwa
makadirio
45
jene
trum
ubunifu
##zindua
##kasi
kiungo
##rajia
kadi
##tegemea
iliyotolewa
##kiling
##yiko
ujao
mtandaoni
trump
woko
##liki
kuonekana
##ziri
##zidi
##sikiliza
##mbwa
##ingiza
##ambano
##fungwa
kidemokrasia
dham
hisa
mapo
##indani
##zim
##mita
zifuata
biblia
uhaba
watatu
athari
mtazamo
mwanasheria
sauti
uteuzi
migogoro
kupewa
manufaa
wokovu
zifuatazo
hama
mume
##patia
##ndu
##rini
##kala
sila
kuhusika
kompyuta
new
chanzo
##mpuni
##hanati
ilala
##jumuisha
mrisho
dhamana
rama
##tt
##sani
##faham
zahanati
##ruhi
mwanachama
ukosefu
vingi
visiwa
##kristo
##tan
##og
yaki
kusu
kuendeleza
maandishi
majeshi
##tili
##teuliwa
##fanuzi
rasili
##firi
##jeruhi
kusoma
jumapili
takriban
ishara
mfa
##my
##jin
mwanga
##jaa
##hesa
kuwania
kali
alim
##chezwa
mwenyezi
utafu
makampuni
uwepo
kutatua
zilizopo
jinsia
##ambana
fomu
risasi
##ok
yata
kijeshi
viko
char
jukumu
##fikiwa
##umaini
maswali
jaji
ufafanuzi
##pelekwa
lis
uga
##badili
##ted
##tekelezwa
akisa
kuteuliwa
kisi
nzima
##tangazwa
##hema
ilipo
vyao
bure
lilikuwa
ngozi
isiyo
tisa
uendeshaji
##sco
##fia
##lin
kufanikiwa
##lali
barani
kuwapa
tafsiri
maslahi
joachi
sudan
##wasilishwa
isipokuwa
kufungua
joachim
data
kuzungumza
kukosa
vipi
##mbia
jirani
madarasa
70
##pungua
kuokoa
mael
kiba
hazi
bar
kal
mkon
##chungu
kupanda
zetu
uvuvi
maelfu
id
msim
##dumia
wataka
##enendo
##tibu
##fali
##bitisha
daktari
taaluma
kuuza
kosa
##amosi
yalikuwa
jumamosi
mawaziri
ushuru
rasilimali
300
dhana
##gh
kue
##fuu
nime
mipaka
inavyo
##pania
##gezo
kukubali
##umbuzi
utafutaji
msimamo
bon
lenye
mtaalamu
ve
##leni
##dishwa
wakubwa
maonye
##baini
##rithi
mkopo
##ongamano
mashu
soma
msitu
askofu
kuruhusu
hatimaye
maonyesho
visi
##lan
masi
macho
taha
##dhamu
##ation
kukabili
##mbulia
profe
##puko
##atiliaji
kumekuwa
mauzo
aprili
silaha
asa
im
##yat
##hamed
##umbo
##kodi
##shiria
##pigwa
waombaji
kuanzisha
##changan
urahisi
abdu
warsha
kiti
kale
##shindani
mohamed
meli
italia
##ambuliwa
vikao
34
san
ui
wenzake
##uzaji
wawakilishi
kucho
huyu
viungo
##shiri
kando
kuvutia
nyuklia
90
tff
##kabili
##tolea
hadhi
##niki
##log
##dhari
mapambano
hofu
##ribifu
mabingwa
##tambuli
##pisha
kuongoza
mazuri
##koa
kiwanda
##hudia
alii
jiti
2002
uharibifu
##fuatayo
hususan
kha
##patiwa
##ка
waweze
kuundwa
##ridi
##rasi
aliongeza
amem
##amiwa
tigo
injili
##ambazaji
ara
geo
ken
uh
##wawa
kifa
vikundi
sek
mwenendo
pembe
madawa
rehema
shaka
ngumu
profesa
jitihada
congo
ibara
ud
kufanyiwa
mai
##kuli
juzi
maagizo
upe
kulinda
fupi
alb
ijuma
uwa
waha
waja
kuo
##mara
waliyo
mate
nyi
wakili
majadili
waasi
kilomita
##ity
jenerali
ijumaa
ph
##ud
mak
kikundi
##faka
##zozo
##gund
tuh
kutangazwa
kesho
vyumba
itakayo
charles
majadiliano
city
##dc
kuzalisha
##kita
akiongea
##loni
nyama
kutengeneza
mashabiki
##fanikisha
##ribio
filamu
burundi
##gundua
tuhuma
bin
ombe
##wishi
##samba
##jenga
##bishwa
yan
kuya
##zigo
##ishu
##iliki
sal
##retari
##beba
liki
face
kutekelezwa
akaunti
misri
misingi
ulimwenguni
minne
ira
rwanda
sam
twi
##zana
##cto
kuunda
kija
hakika
##book
kukamilisha
kulipa
masharti
ally
mahafali
##llah
mahusiano
pen
swali
wasa
##kamilika
hara
tas
muundo
##chagua
##rura
majira
india
mbegu
ufuatiliaji
##lambo
kushika
msemaji
##ps
mago
##yahudi
sare
amea
maafa
kupungua
zitaka
kuibu
##ondoni
kikamilifu
##enal
kinondoni
sekretari
42
##ifu
##sishwa
##dri
wapiga
##kaji
said
wanapaswa
##endelezo
zilikuwa
buko
##aminifu
kumalizika
facebook
hatu
mfanya
uw
##pelekea
##vana
##ан
kuhifadhi
kuandika
##atum
mafu
huenda
##anaji
##undi
zit
uliofanywa
##ongezi
##atolewa
##oneka
2003
wakurugenzi
##engenezwa
wafugaji
jumatatu
korosho
##hesabiwa
ilani
lin
##zama
##pp
##liko
##habari
mabo
##rid
ilio
dakika
chumba
wamesema
##endeshwa
vyoo
kijana
##mbuzi
neema
##atekele
kushinda
wow
syria
fani
nkasi
##if
##cu
##jenge
##lazwa
##sibu
##hudhuria
juli
##kwaa
makatibu
hakimu
##maliza
##vutio
##peleka
mashine
raila
36
ban
uhifadhi
yangu
##lipwa
##kezi
vikwazo
alio
##paji
kupambana
ilivyokuwa
ubalozi
wowote
38
32
##den
wacha
yasi
##lili
kurejea
mart
kife
kalambo
akipata
vyake
##subu
rafiki
##angazo
##induliwa
reli
##ibuka
mwanasiasa
kushuka
amewataka
##husiwa
con
mvu
ushindani
##lle
##eti
kuvun
##atumia
##ambi
kimoja
kutolea
mwakani
safi
##ingizwa
mwananchi
majimbo
kuifanya
kukaa
##com
bungeni
kuhamasisha
##athiri
nyimbo
kifedha
awe
mzozo
uda
upi
##ue
##uzwa
##mata
wadogo
kukua
##isini
kiro
##fara
mimba
micha
amerika
matangazo
shuk
kusamba
uhai
kero
nec
dhambi
zelote
wapya
hisia
ah
aj
abi
fidia
msu
mratibu
##ts
##tambua
##ccm
##sse
kuam
##kuzi
##ingo
kitaalamu
##leo
virusi
wanas
baadae
kupinga
ukusanya
ukatili
mwanamume
akiwasilisha
##jinia
##subuhi
ukusanyaji
mingine
pongezi
sama
##kh
##ron
##tovu
kibiashara
mimi
umwa
##fanyi
imetoa
194
##wira
injinia
2004
alla
##fisadi
##karibisha
##andikisha
nyakati
vyeti
ufumbuzi
kukabiliana
shukrani
ataka
ange
asubuhi
crd
mua
##uza
##gwe
kuchukuliwa
malia
kato
##bas
hutoa
tawi
##atarajia
##miana
##engele
inatoa
ununuzi
hawana
##rist
tathmini
kupelekwa
##siriamali
zitakazo
amo
mzee
tsh
uham
##ima
##wn
##anya
##iniwa
##sea
siyo
mstari
enzi
upya
pasi
madaraka
ufahamu
waafrika
ndg
kihistoria
vikosi
crdb
33
uandishi
##pya
##nya
##ven
##habu
madu
##kuzwa
##kiza
mich
##shana
##giwa
##chea
##zesha
usambazaji
kukutana
##umbele
##ssf
stars
hususani
mlango
kalenda
##mbuliaji
maliasili
ethi
ib
mbu
qur
vu
##gana
##ster
wamiliki
mamia
##too
kikristo
kaya
##shirik
##shtakiwa
##zungumzwa
##zuku
abda
##dhui
maudhui
drc
ushahidi
bukoba
em
monge
skuli
udhibiti
visa
##rwa
##rge
##opia
##бл
kuchaguliwa
marufu
##bainisha
##yasema
kiele
##mar
mikubwa
vigezo
akifungua
inayofuata
kuacha
dhahabu
uvccm
##yatta
harakati
aya
samb
##lat
##tter
##tangu
##pinga
##kumiwa
##kiki
##umzi
kuwapo
alivyo
alieleza
ameongeza
tanes
maas
wodi
kufungwa
elfu
odinga
##chunguza
ethiopia
tanesco
48
bingwa
ele
tama
ur
ubunge
##eli
##df
##fya
mapig
##islam
kara
tara
##gawa
##china
seif
##sekana
amei
dalili
matumaini
kufuzu
ars
love
kifungu
kirafiki
##kilinganishwa
kenyatta
marufuku
mapigano
ope
ufisadi
##ия
##kadi
##iari
##kiri
##jaribu
##tubia
wizi
jukwaa
tuko
ruzuku
roma
mahali
##wasilisha
ufugaji
kukusanya
ufalme
zinazoendelea
diwani
nobel
majaribio
wakenya
##andiko
ajabu
mashtaka
msimamizi
##uo
##gambo
mwamba
pamba
##fuatavyo
kuondolewa
takribani
akisoma
##atumika
uhamisho
sambamba
misha
nan
pande
ubu
uzito
zisi
##ifanya
##tika
##gilia
##ов
kubuni
kufanikisha
nakala
bahati
kutoku
##isitiza
##onya
ofisini
anna
mashambu
amina
##amuziki
dharura
##hitim
##rejesha
kifua
kilele
mno
urefu
##vya
kueleza
madhara
maandiko
mwaliko
##shiki
moham
##atokana
##angwa
mkali
zinaweza
robert
1995
nyaraka
kilichofanyika
mshahara
wakimsikiliza
vipimo
sekretarieti
michango
dhati
hamu
hiari
mpa
##rn
##bya
##baya
kie
##jadili
haina
muhi
##resheni
##dhifa
##mio
nchimbi
##ongezwa
kimkoa
gazeti
##dhimisha
##wajibika
##limisha
jumatano
voda
watakao
kiroho
72
bra
fifa
iwe
mlima
sene
umbali
vingine
kuhe
nasa
##mad
##elekeza
maarifa
kisu
alham
msafara
nguzo
tattoo
abdul
##shirikisha
mda
pato
##nzaji
##cis
##limiana
mawe
##amili
kivi
kuwasaidia
kutokuwepo
alia
taka
akizungumzia
##ishiwa
##ishiriki
##dilifu
ndipo
ukawa
kuwekwa
##ajiri
wakristo
kuzindua
##athirika
kutimiza
chombo
##tumikia
kinyume
mfalme
##onekano
umwagilia
asia
kongamano
sham
uaminifu
##wo
##can
##ms
##waa
mag
##hiki
kipi
viti
##mbili
tangan
makabidhi
iliyoandaliwa
pole
kuwezesha
gab
haija
##kubaliana
somalia
mohammed
vodacom
tanganyika
ebo
mte
uti
##lb
##sto
yale
##lio
kuamua
may
##ngwa
kichwa
##pori
##pang
##fikishwa
wanam
mwanri
majibu
mwele
##simamia
amp
mitambo
##inyi
2022
mshambuliaji
kupeleka
##isemi
maaskofu
umwagiliaji
makabidhiano
ale
ikilinganishwa
mha
udiwani
##xi
washirika
yafuatayo
##likwa
kufanywa
kwaa
##tiki
nidhamu
alipata
tafiti
##res
amefanya
inakuwa
inawezekana
##pakana
rasimu
##tuma
192
wakiwemo
kozi
##ondoka
utambulisho
vyenye
##rishaji
com
kidini
mazishi
kibinadamu
ujio
tahadhari
phd
iraq
julius
ubungo
55
asi
bende
mra
mgonjwa
##ufa
##kuta
hayu
kabila
##ond
inapaswa
##giriki
##ber
imetolewa
ofisa
mikono
meza
upele
jafo
zimekuwa
ndoto
##sababishwa
tamisemi
francis
##tambulisha
kuibuka
##jengea
yasiyo
upimaji
ebola
37
ig
ija
mf
vvu
##ut
##usi
##zingatia
##tengenezwa
##ban
wahusika
##anja
##jiunga
##zal
##lazim
##tion
##saka
aliwahi
##anada
muf
##isikiliza
##romo
##sudi
matendo
##anzisha
bibi
2001
hedhi
kise
mashamba
alipotembelea
utunzaji
##thibitisha
you
kitendo
goog
arsenal
mishahara
zisizo
google
53
tumbo
##wisha
wazo
##kufa
##zimio
kiji
haramu
##furah
baridi
alifanya
saini
muhu
##ruhusiwa
akifanya
inafanya
watuhumiwa
utaa
nyanda
kustaafu
upanuzi
somo
##engeti
tunaweza
kupanga
wanyamapori
##fahamika
twitter
##zalendo
400
hana
mga
##ls
##tengwa
##tali
muham
##semwa
akielezea
inaendelea
##und
anakuwa
shein
##onyeshwa
shamba
yenyewe
watalii
haikuwa
##shuhudia
dhahiri
yule
mikataba
kukosekana
##funguliwa
arabia
tamasha
kwaajili
54
gambo
ghana
ubore
##ste
kuham
##riko
##rifu
##kome
##hukumiwa
chache
willi
##piti
##gizaji
tija
##enea
kipato
mtukufu
tehama
##malizika
mchana
##anguka
akikabidhi
euro
kulevya
george
upepo
samaki
##uzu
##ah
##ty
##ен
##nald
kivu
hufanya
viumbe
##port
##teua
##onga
muswa
##chimbaji
inapatikana
matunda
inter
##hariri
watafiti
jinai
##ghulikia
cheo
yuko
mbiu
burudani
serengeti
kipaumbele
azam
cuf
alhamisi
hayupo
51
ac
bongo
inge
mteja
ratiba
swe
songea
##zina
##ment
##ren
##ando
##lau
##leza
##hutubia
tafa
##rugu
##dhihi
matengene
##mber
james
injini
kutakuwa
haiku
mgodi
mbolea
masaa
mlipuko
united
##кая
ajenda
katoliki
mongella
muhimbili
bendera
matengenezo
43
imara
ifuatavyo
jamaa
mon
nssf
##azi
##nan
waand
##kan
##kamata
kuelewa
mahoji
##umini
kahama
##loma
inasema
##dui
##simama
##vile
upili
petro
shida
kipya
gavana
##shuka
kufahamu
palestina
ramadhani
kuepu
allah
muswada
mbwa
ps
vin
обл
##il
##seni
##rongo
##wakilisha
kufundisha
hakuwa
vibaya
alizaliwa
##ilio
##iliwa
safu
##chard
##susi
##jiliwa
##zunguka
walioshiriki
aust
##kelewa
mabasi
kutegemea
##ategemea
vilevile
kimap
ushawishi
kukabidhiwa
england
##kadiriwa
mahojiano
65
eva
mshauri
sc
uwi
##pf
##jam
##ol
kuing
kuche
kuendesha
naomba
##zil
##zaa
kio
##atasi
##chapishwa
wanayo
wanafanya
radio
##bile
jit
193
kujitolea
kulipwa
msajili
##mbusho
mahakamani
yamekuwa
madrid
wakis
usio
ikungi
tamko
##troniki
##jeruhiwa
mkononi
bonde
mwelekeo
william
49
abu
mchu
mtumiaji
sele
##ule
##uel
washindi
kuhi
mafa
##inua
##tawala
##rabati
hawezi
##meke
##her
##undu
mwendo
kupatiwa
masenza
kuso
piga
##onea
wema
kusafi
##rehekea
##for
##ajiriwa
mbadala
cheti
ualimu
uadilifu
mahenge
nyuki
hispania
ubingwa
jkt
akisalimiana
ijayo
uboreshaji
##uzulu
600
bri
mmiliki
pre
run
uto
##jeo
kuratibu
kuuawa
##umuni
hazina
##kewa
##sayansi
miili
lao
salamu
##mbani
ilitolewa
ameeleza
##unuliwa
##mira
utabiri
##luh
hadithi
kujitoa
gairo
1990
ghasia
maofisa
wapenzi
agg
##ridhisha
##pendekezwa
upelelezi
muhammad
kimapenzi
eli
mati
nmb
ucho
##ukwa
##ская
waso
##rida
##buri
##isaidia
iliyoko
libya
waliopo
waliofika
uliokuwa
uweze
posta
alfa
##katifu
watakuwa
richard
##fikiri
leseni
##stahili
salum
amos
operesheni
kivita
aggrey
kw
##ikh
##zua
##gia
##rro
wasimamizi
wasemaji
wadhifa
kuelezea
##hali
##insia
##rahi
##husa
##hudumia
vigumu
alianza
ilianzishwa
##ingatiwa
##sela
walivyo
piki
upana
kukata
##uliza
rekodi
watashi
##manuel
##hifadhiwa
kutuma
app
mnada
##hojiwa
kuchagua
kubadilisha
asasi
maduka
jitsu
bidi
fre
mchangan
uendele
##ploma
kuzu
kudhibiti
kwako
##hawa
nafuu
##daji
##lele
##ono
ulipo
##mbozi
wanne
meya
mwekezaji
kumpa
peter
madara
##indika
##indano
yanaweza
redio
zilizokuwa
uzamili
kwetu
karatasi
kusikiliza
1977
##pangilio
##ufaika
uwiano
bidii
kinga
##iko
wavu
kupa
##yesha
##sihi
##futwa
##sale
vivutio
##gue
##fikisha
mwendelezo
utajiri
ruto
mtindo
mapumzi
kufuatana
inatarajiwa
papa
##ondolewa
kijinsia
##fautiana
##rajio
letu
ngorongo
##engenezaji
for
matarajio
akimkabidhi
mfanyakazi
vurugu
##tangulia
utaalamu
madarakani
mapumziko
ngorongoro
47
56
95
kham
mdo
ob
th
va
##uguzi
##iri
##et
wangu
##livu
##kusan
##yon
kiislam
##diliwa
##fuko
kutoweka
kaka
alikamatwa
##fanye
muonekano
##rufi
##unganishwa
simon
akifafanua
##fundi
##angalizi
unahitaji
kilikuwa
##ndarasi
head
real
##celo
milima
demokrasia
150
waarabu
mtaalam
lowa
mahindi
##kabidhiwa
angalau
uwazi
wanasiasa
##hitimisha
mafao
52
59
64
ang
ce
mgawan
tele
udha
##cia
##dp
kuf
maria
kicha
##hukumu
##sari
kuwajengea
mizigo
afri
makali
ruhusa
mpenzi
uhakiki
##ambuzi
temeke
##menti
uhandisi
pikipiki
700
blog
ea
ed
via
##hisa
##tenga
##dy
##ruma
madh
seo
##shimu
inahitaji
tuki
davi
jipya
mwanamuziki
zimba
ndiki
mkaguzi
annan
hawaku
york
kilichopo
matakwa
akikagua
##dhalika
kibinafsi
abdallah
mfumu
sweden
75
or
tha
##vin
##ра
##hamia
nae
maru
mashauri
mapiti
##rimu
kiga
##lar
##lalami
mwak
##jaji
zako
zaina
##amaha
##rusale
wanasema
##isheni
inaonyesha
##endwa
kampa
zikiwa
wakifanya
donald
kutat
mkalama
barabar
upandaji
kupigwa
ukarabati
jadi
kiufundi
dhamira
usafirishaji
kubaini
yupo
vipindi
kibaha
##kabiliwa
##shirikishwa
brazil
mapitio
barabarani
06
66
ci
mzazi
sho
tho
uk
uoko
uanzishwa
##rf
##lika
kufun
kuunga
mary
##sara
##chote
##unganisha
mwenzake
##moni
marafiki
mtambo
mapya
##tekeleza
kupima
mabaya
miongozo
1997
meneji
saudi
mumewe
lishe
wachache
runinga
wasomi
lowassa
uanzishwaji
41
duka
iweze
king
olim
tri
urithi
##kwisha
##cco
##bs
##ys
kuhitimu
##amisha
##mas
##huda
##husiana
##saha
##anifu
alie
##mbeni
ilianza
ambae
wanahabari
walim
##rou
umiliki
ulifanyika
##chezea
inat
kujitokeza
##okolewa
yanayoendelea
kuwasilishwa
##umbufu
mapokezi
abiria
tarafa
##shikilia
mpakani
##komeza
##celona
madhumuni
zimbabwe
mfumuko
39
udhamini
uwajibika
zangu
yapo
##line
kuchunguza
mari
##kum
##baliwa
##lack
##reva
##isim
##pasa
jubile
matatu
##der
jiwe
anayo
##stan
##per
1998
1992
kuwasiliana
mkewe
ubaguzi
kupoteza
kuunganisha
barcelona
maiti
uendelezaji
uwajibikaji
61
bbc
jamu
londo
##rin
wapig
waumini
kupita
kuingiza
##anyi
##endi
##jikita
##lezo
mwajiri
hij
hay
##ker
##muzi
muh
wanasayansi
kuhudhuria
imeelezwa
makalla
unapo
waliohudhuria
kushe
int
##atoka
inayoendelea
mkazo
utambuzi
usumbufu
##milioni
shaba
ber
hawapo
diam
kunywa
abbas
##hudiwa
azma
mageuzi
kadiri
mashambulizi
mufindi
olimpiki
london
wapiganaji
ani
nhi
##ulo
##idh
##tambuliwa
##manda
##ssi
##dhe
kud
mapa
##kumbwa
##lala
##lafu
hija
##hudumu
##tua
sadc
ilisema
uliyo
matam
momba
maswa
##anzia
kufungu
kumwa
mkapa
madad
japan
makumbusho
haita
##wapongeza
kilome
##dishaji
kusikia
mkemia
1980
utakaofanyika
hamasa
wahamiaji
wajasiriamali
binti
uwt
ndikilo
diamond
03
73
71
il
suma
twa
uongo
une
##ktroniki
##punguza
##con
waraka
kuni
##zikia
##kizo
##riel
##fua
##fuat
tari
ummy
serikalini
##ger
nyanja
sheikh
wakiongozwa
toleo
##viti
kuitwa
jap
utulivu
kujaribu
uraia
ngono
##zoea
aliyoi
##inishaji
jkci
iddi
##atekelezwa
nhif
46
den
isa
ramani
swala
tp
zu
##zinduliwa
##win
##halo
##bainika
viwili
##pool
##gundu
walisema
inapo
raja
kuhudumia
unapaswa
anapo
inam
busara
kujengwa
des
jumuia
mifupa
kutumiwa
alex
##lazimika
muhula
evarist
07
44
ip
nani
njaa
tr
uuzaji
##sis
##singi
##yce
wavuti
wadhamini
kuisha
kuonesha
##kusanya
##kundu
##tal
kidi
kite
hapi
bag
vidogo
aliko
##shia
inaonekana
vyakula
rashi
##pangiwa
##unde
##ishio
##vutia
dau
mwanya
moon
waliochaguliwa
##atus
wenyeviti
##nesia
mer
meja
inayozungumzwa
ndivyo
shige
kupitishwa
fasihi
aibu
alipowasili
uny
dira
##ombaji
kuadhimisha
##ambatana
##kumbuka
##kumbukwa
2025
shambu
gabriel
david
menejimenti
kilometa
05
blo
##lana
##mika
##jani
wapa
##anze
##kuliwa
##amishwa
##lestina
hal
##tiwa
kuwaa
kadhalika
aliji
muhe
##rekani
amefariki
makabila
unakuwa
likiwa
191
walioko
##ongezea
uchambuzi
##nes
kujitegemea
hes
herufi
utata
usw
jela
mtuhumiwa
1999
ghafla
chel
kilolo
umakini
kufikisha
kandoro
63
77
800
aweze
hat
lt
mbara
usu
utume
##uwa
##visheni
##fisha
wayahudi
kusha
kuua
kufanyia
##ance
##atan
napenda
maya
##enki
##zio
##jiandaa
##kizwa
##tongo
kijerumani
##lei
hufanyika
kutokomeza
lako
laonekana
vikubwa
vizazi
alichaguliwa
mus
##onzi
tukufu
imeanza
jibu
liver
kupelekea
##choro
shuleni
waliojitokeza
meru
kufutwa
kumw
kiafya
##uzito
unatarajiwa
kusafiri
kuhamia
mgumu
##dward
haule
##athiriwa
kifupi
trafiki
kifaransa
##sambazwa
magoli
mwambao
mraba
udhaifu
jamuhuri
chelsea
58
68
78
mpangilio
pan
ue
##cs
##sini
wai
wama
kudai
##inti
##baka
##hibi
##dapo
kibali
halali
##fuatia
hutolewa
kuwataka
laki
##tuhumiwa
wanahisa
##pitishwa
raundi
ulianza
umetolewa
mosi
kuuzwa
usahihi
##amoyo
kutia
##hol
mabara
msichana
kiut
vitambulisho
car
ngoma
ujauzito
magereza
emmanuel
##dhihirisha
##fornia
uokoaji
jubilee
liverpool
04
dc
ex
edward
humu
ini
mk
ole
sin
uwakilishi
zambia
##ub
##zingatiwa
##cro
##ranga
wate
kugombea
kuinua
##haki
nafsi
mabore
magumu
majeruhi
mamilioni
##kun
##kimu
##ngwe
kichina
hasi
kuwawezesha
kazini
##atar
##chia
##rem
##red
##rudisha
##ongozana
walizo
chenye
endapo
homa
inata
indo
kuima
mbing
rea
undani
hasara
##dhini
mgongo
##zalishwa
madeni
tangazo
limekuwa
kinana
mbozi
kiraia
visiwani
##ishukuru
bagamoyo
maboresho
00
83
85
96
bini
dise
gre
mlo
tb
utumwa
zingine
##sm
##dis
##ор
yataka
kuv
kure
kurejesha
##lasi
##lewe
##jazo
hundi
nita
##saf
kash
milele
##tezi
alizo
##elekezwa
wanapo
akihutubia
ameyasema
##dharia
##beria
##duli
maswala
zile
zima
msamaha
##net
esrf
kuidh
msiba
haiwezi
ufungaji
wakika
chochote
april
vipengele
wahandisi
##pendekeza
likizo
marudio
heslb
57
69
88
aa
ipasa
kon
mpo
mtaji
nj
tma
uchimbaji
van
wenza
zama
##uku
##ар
##wada
##lishi
##lith
##ans
##dali
##umbwa
kipo
kilwa
kikwazo
##zon
##tetea
alicho
##turi
musoma
ulivyo
##giji
kuhusishwa
imekuja
imehesabiwa
##angali
maradhi
anafanya
umefanyika
wazima
mtanzania
mtangazaji
##anganyi
kimsingi
kutambuliwa
peke
paris
##zui
##soro
ukiukwa
majaji
uchukuzi
mchanga
godf
ukombozi
250
malaria
##harakati
chiku
##gemewa
kisiwani
mkondo
##atekeleza
igp
tafadhali
kusherehekea
kufunguliwa
##tongoji
binilith
ipasavyo
ukiukwaji
godfrey
62
er
ksh
mtumishi
tv
ubia
zana
##weni
##teng
##od
wam
##limia
kung
kubeba
##kuza
##enia
##amana
##ispania
##letea
mwake
har
##fukuzwa
##zoni
baha
vilabu
##pokelewa
##tel
##tus
sakata
##amaanisha
wanavyo
akiba
##andaaji
kame
dada
##beti
moi
##shirikiana
wakii
wakitoa
mande
mwema
kutisha
mashahidi
sulei
beki
riba
yaliyokuwa
##aneti
##fikiria
madina
goli
issa
kufariki
ufundishaji
aliwataka
##shikam
makofi
kuchochea
mafuriko
udahili
michael
mdahalo
kuingilia
unesco
muheza
##holanzi
91
aba
mina
msh
uhitaji
##lsa
##hat
##hia
##tta
##gram
##sc
##disho
##ст
wal
naho
malezi
kiki
kibo
kiwanja
mwam
##hud
##husishwa
kuwali
vipaji
##teta
alifariki
saru
##reji
wigo
##pitia
wanan
##chua
190
maskini
zijazo
wameji
mso
augu
mema
ukuta
insta
kimwili
kupitisha
jack
telack
akina
kutetea
nor
kisayansi
mbao
mwandamizi
kifungo
vilivyopo
pensheni
martin
atakaye
kiserikali
##furahia
khamis
indonesia
##anganyifu
ari
ango
fin
flo
mishi
mkwa
omar
pana
ul
ula
##upe
##ahidi
##ed
##kinga
##pisho
##pindu
##staafu
watano
##waliwa
##rawe
##yembe
hutokea
zabuni
##hehe
alidai
##changa
wanaishi
akichangia
ameu
ameji
walipokuwa
mwinyi
kuufanya
manunuzi
mapungufu
asilia
kutwaa
chunya
paro
mpana
anatakiwa
##fadhiliwa
yalio
uhamasisha
uhasibu
reja
tete
##sanyiko
kutafsiri
mgomo
kuapishwa
1996
fikra
##changiaji
cali
##angulizi
##rejeshwa
##marishaji
wastaafu
ufunuo
uvun
petroli
kigaidi
intaneti
rashid
disemba
suleiman
saruji
mishipa
uhamasishaji
02
azimio
dani
fungu
ishi
jangwa
kamu
pat
sport
uzima
ال
##tri
##ер
##wapa
##kutwa
##enane
##hirishwa
##daka
kigiriki
##diko
##mer
##wekea
##bul
kuwahi
kase
mifano
sara
mussa
ilifanyika
##rushwa
##unge
sirro
##pitisha
mwombaji
##zewa
imeendelea
##angazia
wakipata
##atokea
lude
kujiuzulu
kutenga
baraka
kipengele
mashaka
mabaki
##ulizwa
kutekwa
##lamika
utukufu
##dhimishwa
kusimama
vilikuwa
##belgiji
##gawanywa
uimarishaji
pembejeo
udanganyifu
tasnia
kielektroniki
nanenane
##plomasia
mdomo
obama
mwakyembe
ltd
##shikamano
89
93
bru
bwawa
gra
ghu
hum
kk
mshikamano
tz
uana
##ws
##ela
##gen
##ring
##risho
##qu
waajiri
##liza
kub
kugundua
##haba
nadharia
##enti
##aminika
kiini
##ley
haji
##burg
bay
kasu
victo
##poteza
aliu
##gar
walipata
##bii
##gizwa
imefanya
imeongezeka
imefanikiwa
unayo
mwanawe
sabasaba
uchafu
meatu
homoni
##simamiwa
utatu
##pesi
shindano
##mbuliwa
kutajwa
##unguzwa
wakisikiliza
##fereji
uainishaji
magazeti
##jui
##kilinganisha
##fahamisha
taswira
viashiria
zainab
wapalestina
angola
87
akia
hatia
ie
igu
kc
mpanda
mzigo
nji
one
pengine
rua
tumba
unge
uratibu
ubelgiji
ukilinganisha
vema
##skini
wachu
wahariri
##kataa
##kakati
kuanguka
nasi
##kuma
##toe
kifaa
kijijini
##las
havi
##kete
##saini
alimu
##ungana
wanaji
##seme
inapenda
inaelezwa
rasi
##fiwa
##tumu
kamwe
##geuka
##aturu
bio
kiapo
mafundisho
japo
##mbua
kitalii
##soa
air
mwilini
##twaa
##dhia
kutembea
yamesemwa
120
vitengo
haukuwa
mtaala
##idika
nilikuwa
akisema
tundu
ikawa
josephine
madawati
ahmed
televisheni
mbinguni
nahodha
california
aca
bya
band
mz
op
ombi
sumu
uholanzi
wele
##ust
##io
##aa
##ainishwa
##kishia
##familia
##20
wapi
waratibu
yakiwa
kuvi
kuingizwa
kuridhisha
##kusu
##kukuru
##isti
##isisha
##dad
kiha
##diki
##yeti
##fuatiwa
##tima
hutumia
kadha
kasoro
mimea
vio
sadaka
##guso
amesisitiza
waliote
##rodhe
inaruhusu
unafanyika
unaendelea
wanatakiwa
mikon
post
kiman
inayotekelezwa
inayofuat
zinaonyesha
bul
undp
1994
kisarawe
mpito
lea
lolote
malawi
kutunza
##entina
nyongeza
mnazi
akisisitiza
ushuhuda
iii
makka
kuepuka
alfabeti
##lsafa
victoria
67
74
76
dhi
del
mguu
os
sun
utumiaji
val
yenu
##arufu
##hwira
##cy
##ин
wafungwa
##wazi
##amwa
##ishe
##jibika
##nal
haram
##mes
huruma
##safi
##heri
miz
mijini
viki
##shahada
##fanana
chao
chachu
takukuru
##changi
wanazo
wanahitaji
akimu
raisi
daima
##des
##wanjani
mwanahabari
##fanyikazi
##taarabu
waliofanya
waliokaa
bot
kusisitiza
luku
kujiondoa
##hamini
wanaofanya
##horo
kikapu
gaza
mghwira
##shuhudiwa
##phia
figo
kushangaza
machafuko
veta
nyamagana
mabomu
martine
##andikishaji
ibrahi
wanamgambo
mombasa
rajab
treni
##mikali
mayai
yatakayo
kashfa
instagram
ishirini
01
blu
deo
deni
glo
kanada
pinda
que
tamaa
##wia
##tra
##ble
##fm
waamini
wauzaji
##hami
mashi
kii
kir
mwamini
mwafaka
##mail
##kebisha
##heshimiwa
kuwafanya
kada
miraji
aliweza
aliteuliwa
sahara
muendelezo
wanakuwa
##dhiri
ameteuliwa
makamba
kupende
anaamini
rus
ulioishia
mtaturu
kujionea
kumfanya
paulo
joyce
kipindu
itaendelea
ukaribu
rodri
##zuka
njema
arg
msikiti
sharon
alipofanya
wasifu
kutaja
mpiga
1000
##umbua
1970
amazon
##mokrasi
##rahman
umaskini
kulala
kufikishwa
##muagiza
kuvunja
muafaka
##kanwa
##jamin
selemani
matiro
mchanganyiko
##rusalem
matamshi
mandela
august
weledi
99
fle
gene
ire
icc
idhini
mana
nel
pang
tf
uandikishaji
##longo
##kisi
##hisho
##or
watumwa
waathirika
##kara
kuisaidia
maf
maje
mavun
##kubaliwa
##tafuta
##ler
##sikia
mwamuzi
##tikio
mkufunzi
mkusanyiko
mitaji
lab
vido
alizeti
alisisitiza
wil
##dom
##roro
##bidi
##tumbu
utaweza
##endelee
makaburi
wanataka
##chukuwa
msongamano
uliochezwa
kusisi
kusindi
tokea
kimkakati
pepe
pasaka
kiso
##huriwa
ukame
kemikali
west
tembelea
nguo
##haribika
hawaja
kuhama
##shughulikia
kubaki
yusu
##athimini
kumuua
tunduma
hamisi
kubadilishana
ubina
ubongo
giza
##ridhishwa
hamad
visima
mvutano
##roup
desturi
daudi
ludewa
ruaha
byakanwa
kipindupindu
canada
han
ima
kli
kana
lango
scho
ushirikishwa
wen
##use
##pc
##nisa
##oa
##ft
waji
wafa
mabe
mwao
##jadiliwa
hua
##saidi
##sajiliwa
##hesabu
kuwapatia
kag
karia
aliyasema
alikiri
##tunu
chaguzi
##gai
##chin
##ongi
wanaamini
akizindua
##load
##bomo
##chester
imetangaza
wamefanya
wametoa
wakizungumza
mexi
inayotolewa
kujiandaa
kutambuli
##umbaji
anyi
sophia
msala
benjamin
makusudi
yaliyopo
##ford
kuachi
kujali
wakufunzi
god
##kumbukwe
kupanua
ujasiri
suluhisho
stadi
misimu
1967
1960
1982
hotel
israeli
##vunja
online
milenia
kuungana
##umbile
##sambaa
kusambaa
kipimo
youtu
waandamizi
austra
africa
##lalamikia
kuimarika
##hehebu
ushirikishwaji
bro
group
ikumbukwe
kondo
mshiriki
uzalendo
uwanjani
wino
##iza
##adamu
##tho
##puli
##bano
##30
##ол
wafadhili
wafanyikazi
##hakikisha
##zikwa
##bakia
##tiba
##fakari
##mun
kahawa
mijadala
##tuko
taji
##atajwa
##onde
ametangaza
walifanya
##roka
##amuru
june
##endana
mwenza
utafanyika
christ
imewa
unaonyesha
litaka
liberia
anapaswa
zim
ulioandaliwa
uwekaji
##wiwa
inatokana
down
luh
kukataa
yemen
uhalali
faraja
jerusalem
shauku
##fsiriwa
yaliyotolewa
kurasa
coa
yanayohusu
ngome
##dwali
kusitisha
##umbuliwa
stendi
serena
zinatarajiwa
##badilika
ureno
##kusanyika
uefa
mabaraza
kamera
kasulu
iebc
igunga
tumbaku
mikononi
cam
mje
nato
sto
##ura
##ubiri
##agiza
##ek
##tz
##tini
##ghe
##cl
##jisi
##ome
##ал
waamuzi
##wazito
kukiwa
kuenea
nami
##kusudi
##int
##tasari
kitovu
##jali
##fuzu
huweza
##salia
##inikizo
kuwaondoa
migu
tasaf
muga
##ishwe
walitoa
##subiri
imeji
kupum
mosco
wamepata
bomba
##takabali
manchester
##widhi
pointi
kufurah
kujifungua
mkasa
kupigia
shingo
shinikizo
kunaweza
kikatiba
##haribiwa
zinazotolewa
unaoendelea
yanayofanyika
##sababu
fizikia
abdi
nyara
mawakili
wapinzani
kuchapishwa
kufikiwa
##tumie
vikali
ugawaji
imamu
khali
wajawazito
##ssein
kuheshimu
abdulrahman
kipigo
ghuba
ibrahim
argentina
ireland
youtube
australia
##kusudiwa
moscow
09
94
dua
ekari
ik
iv
ivo
kondoa
mm
pindi
ss
uo
viny
##ure
##imarisha
##lk
##lc
##ghan
##dishia
##vua
##10
wang
wauguzi
##ling
##kut
##amama
##istan
##nard
##rafia
##hulu
##wele
huria
hussein
##sai
kutowa
vichwa
##pole
##gal
##ungwi
wanapata
##roni
##roid
inawa
inakuja
##funzaji
kamba
##jelwa
##kwama
iliyoundwa
wanatarajiwa
mwanjelwa
##mbero
wamem
mantiki
mikoani
##oneshwa
pembeni
anatarajiwa
##kilizwa
uhali
##milikiwa
japokuwa
amana
unataka
majumu
ridhaa
ufupi
digi
madhehebu
kujaza
steven
chanya
kurudisha
cap
forodha
hauja
january
ugumu
kutua
##hamasisha
umaarufu
zitakuwa
kishapu
walipotembelea
##funguka
##pishaji
mateso
mfanyabiashara
zitto
msuku
kuaminika
##fanyike
karafuu
francisko
kuchelewa
tarime
##changiwa
kusisimua
kliniki
08
92
dan
fat
idhaa
mse
nk
rongo
tana
uingi
uzuri
uwasili
uangalizi
##cent
##mt
##via
##на
##ел
wachanga
yatima
kujibu
kuokolewa
kwasababu
mabu
mado
makta
mazoea
maumbile
##kimbi
##toliki
kigambo
hiti
##kel
##wer
huja
husababisha
##hew
kuwajibika
mito
mionzi
##poli
aliingia
##gawiwa
ilitoa
##chapa
##shwe
akiomba
wakaguzi
amedai
inakadiriwa
##biriwa
##zega
##bea
chote
##moud
maazimio
anahitaji
umeongezeka
mshu
msongo
boti
bomu
wakiendelea
mmojawapo
kofi
usaidizi
kufukuzwa
kuifunga
kujikita
per
zinaonesha
ukamilifu
mafundi
kijani
unyanya
kusainiwa
##paswi
##dhan
180
##hususi
##ters
kuzinduliwa
##boreshwa
cag
kilombero
ubakaji
nyekundu
matawi
uvamizi
kushughulikia
tulikuwa
masasi
vipya
milki
##dhalili
odm
lissu
ugaidi
##ght
mashuhuri
pembezoni
mafupi
##latini
elekezi
##romoko
mgawanyiko
shambulio
blogu
uswisi
daniel
sarafu
##kusudia
nelson
mjema
majumuisho
msukumo
uwasilishaji
79
asha
act
cro
clu
fm
ghari
iti
mc
meno
nzega
pla
ppp
swa
tumaini
uke
upiga
ukristo
ww
zambi
##epu
##ten
##gn
##ramia
##os
##br
##bani
##ftari
##ки
##lioni
kuongea
kuzaa
##har
maumi
##bainishwa
##hibitisha
##rick
##towa
kiyahudi
kivutio
kilatini
##laa
##siki
mwako
hutegemea
##enyeji
back
mio
##tekwa
##gogo
alitumia
aliamua
alifafanua
tai
mui
akii
wakaazi
walinzi
inadaiwa
inalenga
##bibu
mwingi
iliyoanzishwa
##wania
jicho
umeanza
ruangwa
massa
wametakiwa
wameuawa
ulioko
uliotolewa
##umeru
posho
inatakiwa
kuiba
##eneza
fara
itaanza
itasaidia
jedwali
rose
arumeru
zilizotolewa
##onal
akisikiliza
##ibua
ngara
1991
yohana
wakishiriki
akawa
##cal
walemavu
misuli
##kumbusha
hauku
mtafiti
ubadhi
stahiki
1989
mwito
agnes
kidemokrasi
adam
ramadhan
seneti
kuhesabu
mchujo
##indikaji
kutathmini
thomas
japani
##hakikishia
wenzao
##zuizi
russia
uhalisia
maktaba
kigamboni
gharib
maumivu
86
bre
jane
lingine
mshi
tt
tanda
##uko
##humu
##ndo
##db
##ombea
##он
watoa
##kamilisha
kugo
kuongezwa
##anishi
##zizi
##ambiwa
##isia
##kimbia
##taki
##umisha
##yarisha
kiku
halafu
##tic
##hubu
##sajili
##sainiwa
mila
mkojo
takatifu
##gara
##rembo
wanaendelea
##ishaji
raha
##pande
afisi
afghan
utapata
utayari
makamanda
makanisa
unavyo
iliyofanywa
##wandani
umebaini
ruvu
kuugua
kofia
kufuta
kumiliki
anam
falsafa
sugu
sugar
mabalozi
weah
##soaji
##somwa
zilizotangulia
galla
ufasaha
colo
188
morocco
nuru
yuda
ujazo
mtawala
##chukulia
kufafanua
kimekuwa
stashahada
mabanda
1964
mahmoud
mwitikio
agano
hamis
endelea
kinyang
onyo
##gemeo
ujifunzaji
duru
maporomoko
yatakuwa
kitivo
##ctor
wasaidizi
kuamkia
karagwe
asiye
##undation
austria
kioo
##luhishi
kampasi
trilioni
muhtasari
hasira
kasesela
utatuzi
bandia
##horofa
mwaminifu
mavuno
msalaba
upigaji
gallawa
bundu
can
gen
ghorofa
ifuatayo
jen
mshtakiwa
oba
phili
tathimini
uanzi
ugiriki
whi
##usu
##ii
##zamiwa
##tisho
##ping
##pati
##pher
##ny
##juni
##dg
##ев
##ес
wag
##waga
##ath
kwangu
##ikadi
mabwa
##inyo
##kiuka
##toni
##takuwa
##tazama
##ngano
##koo
##ras
haj
##fai
hutumiwa
mkulima
##zote
##saji
kuwafikia
kuwahudumia
kari
##shasa
##teka
tajiri
sadi
salim
##mbana
mur
musa
##rudia
##ship
##ses
akiwemo
##ons
##riadha
##miri
##mbora
##deme
makaa
##angazi
iliyowekwa
anao
anavyo
##andamana
##inea
msd
msumbi
dogo
inayoongoza
kumpongeza
kumchagua
mpinzani
jopo
anataka
zinasema
algeria
albert
utengenezaji
utangulizi
ustaarabu
sh1
bustani
##rans
bendi
##yanhulu
kusajiliwa
rita
akishiriki
dereva
mnyama
ngao
##varo
bilal
hauna
kinshasa
ujasiriamali
1976
anayeweza
star
lililopo
lililofanyika
1984
mwimbaji
tuliyo
##kebishwa
machache
kuunganishwa
masikini
udongo
ameahidi
mabomba
angela
abdalla
##rence
##andoa
kushambuliwa
##lasius
uanachama
bulyanhulu
download
madola
afghanistan
97
elia
janga
mhusika
oti
plu
tendo
uch
upa
##ac
##elimisha
##ks
##tto
##jamii
##dd
##ет
waangalizi
waheshimiwa
##wama
##lib
kuathiri
##hau
nai
naku
naamini
made
madogo
mahususi
##bah
##kizi
##kira
##kidhi
##koma
kigwa
hip
harusi
##fuka
mikwa
mipya
alilo
alipewa
alikwenda
chafu
##ington
##gusa
akijibu
waliwa
walicho
##mir
day
daftari
lile
kupatwa
walioji
waliopata
wamefanikiwa
boys
##shauriwa
pigo
mandhari
##ngezwa
media
##mbiu
inataka
dokta
upendeleo
upatan
inayoweza
ndiko
pakis
upangaji
##hamishwa
uthibi
usindikaji
##milishwa
jarida
kikanda
##uzia
##ratibiwa
kukumbu
kurah
gereza
##mwino
##phone
waalikwa
kusimamishwa
there
kutibu
wasiokuwa
choo
angalia
guinea
frank
kusudi
akisaini
albamu
albino
sampuli
iliopo
udaktari
michache
kusambaza
mashambulio
kisutu
kisukari
polepole
internet
waandam
mchungaji
kusafirisha
mgawanyo
shigella
mustakabali
walengwa
jackson
##rodheshwa
inayofuatam
anyiro
mshukiwa
club
bunduki
msumbiji
kigwanga
82
84
beni
came
gum
iwezekana
kand
kris
lum
lisi
lami
mla
mshirika
mchoro
ncha
qu
spe
sino
uenye
use
uumbaji
ven
zan
##itishwa
##llo
##ky
##ksi
##tam
##gre
##gramu
##jing
##bon
##vamia
##qa
##50
##но
##wari
##lic
##lipa
kuon
kugha
kugawa
kuajiriwa
##atambua
##kumba
##ista
##dada
##yafanya
kigezo
kienyeji
##laumu
##fadhia
vibali
##tuhumu
chamwino
##eleweka
sab
muro
##rema
wanaki
amewahi
amefafanua
amelazwa
waliweza
walifika
inaonesha
##sun
ray
##tumbo
##zeki
##vuka
chato
christo
imem
imeeleza
iliyopangwa
##dugu
mastaa
zipo
uliomalizika
inamaanisha
upeo
kujitambulisha
##endea
usd
kemia
kansela
majanga
kutafakari
kusaini
watawala
kujumu
tumekuwa
##ambazi
mnyeti
ikiongozwa
gelasius
##karibia
cor
##puka
##thibi
hakukuwa
dhaifu
wakish
wakisa
kaulimbiu
zozote
foundation
mawakala
hauwezi
kusiki
mtaguso
kushtakiwa
thelu
mnara
itikadi
tutakuwa
##ografia
kusubiri
aliou
kuvunjwa
##romoka
kwenu
kufundishia
##isimamia
mshtuko
kimanta
labda
mugabe
vinywaji
##kutanisha
uingizaji
obado
waandamanaji
uenyekiti
98
abe
dci
fan
gridi
hindi
ikis
jama
kheri
mja
nenda
ofa
rc
ria
ukuu
uene
##lt
##lf
##ashiria
##pha
##pambana
##dda
##rm
##ика
wadu
wazalendo
wahudumu
##kama
##ange
##bai
##tarajia
kimu
kirefu
##ral
##letwa
##jage
hafi
##fur
##tikia
##huo
##muliwa
##wekeza
##salama
vigogo
##teko
##tembea
aliendelea
alifika
alichukua
sag
sayari
seli
mushi
ilifanya
ilipata
##guo
##gulu
siha
akionesha
akitokea
amefunguka
inasaidia
##pandishwa
##vyokuwa
##ficha
##boni
##endelezwa
dara
litu
wanufaika
wanandoa
##chochea
umeendelea
mwandiko
##atuliwa
wamesha
wameanza
wameamua
uliowekwa
uliopigwa
majimaji
doria
inayofanya
inayohusu
kuthibitisha
chupa
barafu
wanaotaka
wakiwasili
usanifu
road
kikabila
msako
##eld
##sanyo
kujisa
yaliyomo
malima
##thiri
waalimu
program
##mwakilisha
nyaka
kusitishwa
1975
1978
1963
##lls
kushuhudia
utakapo
migodi
minane
mlinzi
##nusha
##ander
machapisho
kuvunjika
kielimu
gabon
kuhamishwa
kuhifadhia
##guez
kichapo
kampala
kutatanisha
##idhinishwa
merkel
njama
uchafuzi
##semekana
lukuvi
scholar
kariakoo
##tunukiwa
litakalo
otieno
uthibitisho
kurahisisha
iwezekanavyo
amb
adui
by
bunda
eri
eco
ever
fla
mri
mfereji
nba
pata
qatar
vene
wenu
zuri
##uu
##lm
##zan
##aga
##pt
##ns
##mat
##min
wa2
wash
wario
kuchi
kuzungumzia
##atano
##atangazwa
maua
##isani
##hir
##naji
##tozwa
##kombo
kimi
kimo
##sifu
##mark
hadha
##funi
##ket
##weke
##buru
hupata
##salimia
bas
kuwapeleka
##gas
##eleka
akieleza
akiongoza
##pima
amethibitisha
waliuawa
##roo
##suko
umati
tanu
##zeba
##geza
##jemi
##zwaji
wanata
anawa
motisha
walioishi
uliopangwa
##simamisha
kuitumia
kuipongeza
##kitiko
luka
kumkaribisha
ndizo
hekta
yeho
yalifanyika
zinapatikana
alvaro
kunako
teule
msimbo
##soka
hospital
bea
ufukwe
milipuko
##ingekuwa
##ingeweza
##shukiwa
miswada
upotovu
##risti
ujasusi
kimarekani
vyeo
mauti
kutiwa
##jukuu
umahiri
kulazim
migori
hamsini
##sheleza
makon
##tumike
addis
hisabati
mfawidhi
##badilisha
masikitiko
ameagiza
kusambazwa
muadhamu
kuhamisha
ingekuwa
unywaji
kiutamaduni
tbl
baharini
##hudhuriwa
kamusi
rodriguez
fleva
majeraha
mexico
miguna
digital
tanapa
mikwaju
sinodi
christopher
riadha
warioba
bel
dis
ezeki
fanya
jang
kye
mdhibiti
nku
nondo
pu
pungufu
ten
tishio
trans
uandaaji
uchangiaji
##ire
##zen
##acha
##gum
##sama
##jan
##rc
##by
##vum
wachimbaji
waishio
##wale
##lie
kuchu
kuamini
kuripoti
kujeruhiwa
kuhitimisha
##atili
maono
##ambe
kate
##basi
##yarisho
kil
##masi
##jari
##mewa
##meko
##timiza
##fafan
##budu
husaidia
kuwapongeza
kutofautiana
miwani
vitongoji
alitangaza
alibainisha
saidi
sekun
##rus
##ruka
inaongoza
july
mwl
##chezo
##zer
chuma
imepungua
imetenga
iliyojengwa
tizeba
lipo
anai
umefika
moduli
waliona
ziko
kusta
kol
kufua
inatarajia
kuipa
kuitumikia
inayoongozwa
inayotarajiwa
kujieleza
kutwa
kutenda
kukatwa
kumpiga
kiakili
barack
heki
mchembe
kulima
##hamishiwa
anatu
alha
ukarimu
##peli
yanafanyika
ronal
zilizofanyika
makusanyo
ukiuka
189
tunapo
1993
kunyo
unaofanyika
unaotarajiwa
dhabi
bweni
linaweza
##ates
kuondokana
vitisho
vitatu
mtibwa
karume
hasunga
mvome
##omaji
kimei
mboga
kukimbia
kumbuka
hisani
march
kamisheni
kubadilika
usomi
kipaji
cup
##mond
nimekuwa
udsm
kijazi
penati
zitatumika
wanasheria
pasipo
kielelezo
ameipongeza
ps3
uwezeshaji
citi
berlin
kudumisha
hatma
mbarali
kurekebisha
wakiimba
mwamko
vioo
##safirishwa
kagame
zimamoto
pakistan
washington
sekunde
ronaldo
ukiukaji
mvomero
ayo
ato
acc
bk
cc
istan
jku
lema
longi
oh
rum
riwa
slaa
umbo
utoto
wc
zenu
##uwawa
##ice
##agizwa
##wji
##hiniwa
##tenge
##pen
##mamu
##sen
##rdi
##rishi
##yatua
yai
##kali
kushauri
##ating
##atumiwa
nad
mahiri
mahesabu
##inya
##iaji
##hiyo
##ririko
##yapata
##sikini
##mari
##mesha
##fukuza
##keli
mkuranga
##sadi
bashi
babati
##heshimu
kuwashirikisha
mkongwe
alizi
aliandika
salma
muongo
muongozo
ilikua
##isiti
inaeleza
radhi
ulianzishwa
ulipaji
huohuo
##ingizi
##chezi
dai
##bee
##jea
imefikia
nyuzi
kupunguzwa
wanunuzi
anae
umewa
umesema
mwanzi
halima
waliofariki
waliolazwa
ujamaa
wakitumia
wakielekea
kom
##ner
usaili
medi
medali
inte
kuigwa
kuitisha
kilio
mkaa
mkandarasi
pakubwa
her
zinaa
futari
faust
wete
teh
tembo
kansa
zilizoendelea
mitanda
gala
alipokea
kusaidi
watapata
hawakuwa
yamefanyika
dirisha
##vaa
##vazi
tunahitaji
kununuliwa
wakfu
beijing
kusimamisha
kairuki
##indaji
##laiki
nyeusi
kigogo
matayarisho
chile
september
1961
1965
kutibiwa
mwigulu
uvumbuzi
ustadi
umasikini
marco
kuchapisha
uvunaji
450
kuelimisha
kukubalika
mashujaa
mbuzi
##shikiliwa
kiekum
senegal
mchanganuo
thai
##gunduliwa
kuidhinishwa
ababa
ulaji
parokia
bayana
image
godwin
##brania
ttcl
colombia
hadharani
ezekiel
hekima
istanbul
av
ash
ath
br
fun
fund
jingine
mlezi
nda
ninyi
oc
pri
pendekezo
rung
sili
sanga
sdg
ukra
wenge
##zamwa
##as
##achwa
##hya
##hanga
##tha
##gina
##cel
##ombe
##olojia
##orodheshwa
##que
waweza
washtakiwa
##wasaidia
##kagua
kufikiri
kwakuwa
nazo
##jipanga
##nayo
kimba
kirusi
kitaalam
kizuizi
hio
hima
halaiki
##faidika
hupatikana
mkumbo
bak
babu
kuwaokoa
kuwashukuru
kutofanya
kutoroka
vipa
viwandani
alishiriki
alionekana
chaguo
seti
##ongelea
##ress
##rujia
##rudishwa
wanaharakati
wakandarasi
amepata
amemuagiza
walianza
##roon
inahitajika
inajumuisha
##amuliwa
afcon
##bobea
tubu
utaanza
utakatifu
matha
mathew
imeamua
imewekwa
marais
mwanae
mwanadada
mwanasoka
wanamuziki
anaendelea
umeonyesha
port
ukuzaji
tozo
kuimba
kuiwezesha
darfur
kukari
chuoni
pas
mpwa
kisumu
##hamisha
anato
##kilizaji
fahamu
usoni
usingizi
aliyem
kijuu
keki
budi
kitakuwa
kinaweza
ukiendelea
dewji
yameelezwa
##pukizi
186
tunaona
unaofanywa
kuzama
foleni
##rejesho
haswa
kikoloni
sokoni
wapate
aliyokuwa
mtoano
nambari
##julisha
february
utetezi
kukiuka
masafa
##erre
november
makocha
itakapo
##gawanyika
siriel
taharuki
##tambulika
kifahari
kuolewa
kuhifadhiwa
zitatolewa
##furahishwa
tafakari
wavuvi
wavulana
african
mashauriano
##lalamikiwa
shigela
kuidhinisha
tunduru
harambee
bluu
kupumzika
kufurahia
unyanyasaji
upatanisho
lisilo
liturujia
everton
##komboa
yehova
riwaya
mwanzilishi
kimbari
81
ay
abo
cy
cla
ef
eti
eid
ipi
jw
mj
men
oa
penal
put
ska
staa
swahili
tro
tcu
utovu
what
##itaka
##zwe
##kisa
##patika
##gano
##rdo
##om
##vunia
##vel
##yuni
##ур
##ад
##ит
waj
wazungu
waathiriwa
##wasa
yawe
kuajiri
kuhojiwa
kurejeshwa
kwan
madha
##isse
##himili
##jihusisha
kiun
kikiwa
kichu
kitaka
mwai
hap
##fuatwa
##tilia
##wezo
##wekewa
##het
kuwaweka
kuwakamata
kutom
kutozwa
michoro
viatu
##por
##tegeme
##terem
##gonga
aliwapongeza
##tunza
chako
##uai
muse
musta
##ings
##reja
##amala
##shifu
akila
akionyesha
akiteta
##onda
##ishna
amepokea
ameweka
amezaliwa
amechaguliwa
inafaa
##unu
##unt
##gie
utasaidia
matundu
imeandikwa
maaja
maalim
iliyowasilishwa
##duku
mwanajeshi
anau
anaishi
anacho
##000
waliozaliwa
sheh
shehia
wakionyesha
hop
escro
##vie
##angilia
leonard
inayofanywa
inayopatikana
kujiandikisha
kutinga
kukatika
zilianza
hero
mpunga
ankara
falme
##zuoni
bega
miliki
kinara
##ambaa
kiusalama
tunayo
kuahidi
kuagiza
##cky
##fungia
ukoloni
nyasa
kubainisha
kilosa
mtiririko
kusikilizwa
malaika
##rson
1971
1972
chipukizi
kuzidi
lililokuwa
1966
kumuona
mbovu
wasiojulikana
##pigana
vimekuwa
##ambukizwa
##shea
makombora
mitaani
haziku
album
##uds
bank
##ssels
seneta
mhasibu
mgao
pspf
kusafirishwa
uchochezi
kuzuka
denmark
alexander
kidigi
kiutendaji
uvunjaji
brussels
mioyo
faragha
uanzishaji
mabwawa
elias
madereva
cameroon
gumzo
tehran
mitandaoni
wenger
escrow
alma
amali
dw
hami
if
kong
mhariri
mrejesho
octo
stu
sms
sindano
tamaduni
uyo
ufanya
uyu
uchina
zika
zamu
zuma
##lwe
##lato
##zuni
##kt
##tv
##pl
##pta
##mfanya
##sua
##ds
##dre
##rra
##rry
##bana
##vina
##yata
waza
wadi
##wafanya
kujili
kuchang
kuumia
kufaulu
kurithi
kuchangan
kufikiria
kuharibika
##antu
##atta
nas
maw
mauri
marudi
mafia
mavazi
##kurani
##inho
##ence
##bal
##himiza
##jiweza
##jifunza
##kim
##toke
##toshwa
##dahi
##umbia
kizuri
kitongoji
##leba
haifa
##mega
##kevu
##busu
hun
huchangia
huzuni
##mbaka
bakari
kabe
mikuu
micro
laini
lawama
vipo
##shawishi
chalami
tar
##atao
salam
2030
muleba
##ingu
##ingili
##guti
##ruwe
##ruhusi
##ser
akipanda
amesha
amekamatwa
##pahi
juven
##vyote
mwengine
pampu
##isari
##mizwa
##jesho
imefanyika
imeweka
unaonekana
unalenga
iliyofikiwa
mwanaye
mwanaharakati
wanatumia
shukurani
umepungua
moses
masika
wameweza
wamepewa
##shirikiano
wakipita
manji
pori
met
megawa
toure
kuiongoza
marejeo
kujihusisha
kumsaidia
pete
para
mpe
mchele
kulipia
anne
anatoa
anatarajia
antoni
zinapaswa
alli
fadhi
itakumbukwa
jean
jezi
rock
buti
##somo
shauri
zilizopita
##ration
gaguti
aicc
alipozungumza
mwanamme
unam
unatakiwa
##kwepa
wataweza
iramba
mndeme
kuteua
kuharibu
col
183
##rdin
dimba
diploma
kujadiliwa
ndefu
kisasi
kitanzania
140
kandarasi
ukomo
caf
dawasa
chemba
malkia
2021
sokoine
kumekuwepo
1974
amaan
mabenki
kuzikwa
aliyoifanya
##kubalika
stand
##jue
mwila
tulivyo
agpahi
itatoa
hamdu
zikiwemo
##achiwa
wahanga
android
##gemezi
##tten
ugavi
sanamu
uhispania
kifalme
kuibua
msuya
atakapo
mbuga
monduli
wakisubiri
alfajiri
##kusanywa
inatambua
japhet
aliyoitoa
zuio
mbarawa
kumwokoa
panama
green
north
##ketezwa
airtel
##tumbuiza
kusindikiza
kanali
ssra
white
##есп
waganga
venance
theluthi
citizen
ayoub
thailand
rungwe
shehena
kidigitali
marudiano
chalamila
juventus
bati
gy
hy
hand
kwi
kingine
mtoa
mjam
nche
nbs
oman
oth
pb
qa
sco
tba
unga
vati
ver
who
##ipata
##kram
##the
##ther
##pro
##gy
##nyi
##mz
##mana
##spe
##sted
##van
##yang
##11
##ир
wange
waingereza
yaku
##kanusha
##linda
kuis
kufaa
kuelekeza
kuonyeshwa
##hadha
nabii
mahi
##eny
##zifanya
##bay
##toria
##dari
##umani
##kosoa
kikwa
kilu
kiambu
##laam
##leti
##sita
##mela
huitwa
zaka
nim
kalo
mipa
mizani
lapf
vifu
##gori
alitaka
alielezea
alijiunga
chai
chad
chapa
##elele
saka
muuzaji
ilitokea
##guswa
##rekebishwa
wanachi
sim
##onia
##pimwa
##rom
inafanyika
inazungumzia
juba
juisi
##fichua
##isafi
##del
##ders
kuhukumu
imepanda
imekamilika
makame
##wano
wanatarajia
##umiza
umetoa
##zungumzaji
festo
boda
boni
kusindika
pierre
uchapishaji
poland
posted
messi
inategemea
##gharimu
lugo
marejesho
kujipatia
kuthibi
kumshinda
par
park
job
joka
fukwe
uhasama
vyovyote
##bias
jaco
kikatili
bus
bush
##rando
##zuiliwa
rejea
tec
##barua
##onyeza
##somea
zilizoko
gadda
unf
yaliyopatikana
coca
kiutawala
##shutumu
die
nembo
kuachana
kunya
zimetolewa
110
ukoo
lebo
lebano
moyoni
kidunia
chem
mtigum
uasi
mitaala
magaidi
kimaendeleo
vilivyotolewa
mwiba
kuvuka
akimpongeza
##jumuishwa
kufichua
hamza
kubadilishwa
mitazamo
kinywa
shirikishi
##ridhia
news
##tts
##badilishana
aliipongeza
uwindaji
pasifiki
utii
mhadhiri
kijiografia
kivuli
intern
##ikolojia
aliekuwa
usuluhishi
wakikagua
rejareja
mizengo
tfda
vidole
ubinadamu
kuachiwa
caption
hitilafu
croatia
www
kigwangalla
kugharamia
abeid
wadudu
sagini
darasani
##fafanuliwa
utotoni
kiekumene
mpwapwa
jwtz
penalti
putin
whatsa
october
##dahiliwa
##ruhusiwi
vatican
gaddafi
mtigumwe
900
droo
hen
lini
lote
mchuano
oko
pote
pengo
plan
sg
spi
ts
tum
tru
tbc
uume
ukis
zssf
респ
##uti
##ahirishwa
##adhimishwa
##kin
##kina
##hini
##hata
##hatar
##gania
##nam
##cker
##fatilia
##yn
##убл
##ат
##од
##دى
washukiwa
yat
kuika
kushirikisha
kueneza
##inza
##ziwa
##rie
##yororo
##tosha
##tofahamu
kizi
kito
kido
##tii
hutumika
##enyekevu
##safiri
kuwaruhusu
kaboni
mie
miwa
mizizi
vikiwa
vitaka
##pon
##pote
##teli
alizungumza
aliwasili
alishinda
##gala
seko
ilionyesha
ilieleza
##shangaza
akipiga
amemu
amepewa
amewapongeza
waliko
walidai
waliamua
inakwenda
inazidi
inakabiliwa
##pandwa
##fizikia
##amiza
tus
utashi
utaendelea
##vuta
##gedia
chf
chati
imeongeza
makam
iliyochezwa
iliyochapishwa
lip
liko
wanat
anasa
anaandika
umepakana
feli
ziweze
mswada
##ongezewa
wakipiga
wakidai
kuuwawa
bikira
por
mapatano
medani
tohara
home
inno
dosari
lulu
inayoitwa
kujikinga
chuki
ndilo
kiasili
pali
yerusale
anwani
yalivyo
##kilishwa
wanaotumia
wanaosoma
kupigana
fao
faili
##endeka
##pesa
jaribio
ikiwamo
bur
weka
##zuiwa
tesha
zilizowekwa
unatekelezwa
bemba
maelewano
majumbani
##onari
watafanya
bungoma
watengenezaji
kukubaliwa
hawawezi
dece
ikizingatiwa
##vutiwa
kuashiria
uzami
yanayotarajiwa
##inuko
##ategemewa
##car
walezi
kuruhusiwa
kilichokuwa
uagizaji
malangali
wor
ugc
ugani
1979
kibantu
stan
string
1983
kuvuna
akimkaribisha
tuliona
kukidhi
kuchambua
##ndika
mrengo
onye
milango
korogwe
kisima
imf
imam
kuchora
kuchomwa
kijasusi
wasafiri
wachambuzi
mvuto
mvuke
##llel
aliahidi
mtego
kivuko
brigedia
utofauti
kupakua
show
thobias
wamarekani
##tengwe
kuwalinda
tzs
geneva
pangani
namibia
ivory
##epusha
##sikitishwa
ubadhirifu
philip
kandanda
wanakijiji
jangwani
alhaj
ukraine
maajabu
uyui
megawati
mjamzito
nchemba
##kramenti
kuthibitishwa
jacob
республ
республика
4g
aga
ambo
bene
dhiki
hato
iz
ikwe
kini
kcm
mdhamini
phi
ping
prin
punde
plc
rwe
sia
sina
ty
uche
vis
##imu
##lfan
##lly
##ard
##kteta
##tena
##patwa
##gm
##gra
##ction
##mpa
##minika
##disi
##veni
##fri
##yatoa
##ам
##نت
washa
waaminifu
##katwa
##lile
##liwe
kuch
kushind
##anua
kwaya
mach
mawi
##injili
##inyu
##enini
##ziz
##amka
##babu
##hirisha
##rii
##tofu
##tak
##tafu
##tawaliwa
kibu
kitume
kifamilia
##lalamika
##lela
hila
himo
##furahi
##kela
##tibiwa
##bua
hui
huleta
bal
bah
bad
kuwakilisha
kutoza
kutokwa
vifa
aliweka
##ture
##tukiza
##elekeo
sema
ilifanikiwa
##ingilia
##ret
wanaote
wanachu
wanajamii
akiendelea
akiweka
akifuatilia
##piwa
amekutana
amezindua
walikamatwa
inaku
inaitwa
inaaminika
ulifanywa
dae
matini
mjibu
makambi
nyanza
##angalifu
unajua
iliyoandikwa
mwanasha
anapata
umefanywa
umekuja
mor
more
rutengwe
wamei
wamewa
boko
##ongeze
wakiji
manyo
manne
med
##simamishwa
inatolewa
##fasiri
kuichezea
lubu
kilifi
##enezwa
inayotoa
inayoshiriki
inayotumiwa
inayopendekezwa
kumpata
zilivyo
padri
hebu
joel
anat
anata
wanaona
wanaopata
wanaohitaji
##hoo
busia
tegemeo
nguruwe
hospitalini
alipofika
unategemea
majani
majambazi
##wezekani
kutakiwa
kutasaidia
kusajili
ufuatao
zinazofanywa
maligha
malisho
187
##joto
##terres
kuahirishwa
urafiki
maghala
misungwi
dawasco
kinamama
malazi
##ssy
1968
1986
mbowe
##jumuika
kulinganisha
ileje
itatolewa
litakuwa
kupotea
##cts
syste
##amehe
350
cuba
guterres
1958
##ogelea
kusukuma
isiyokuwa
mashuleni
kukabiliwa
khalfan
amemtaka
georg
makinda
irak
hatuna
hatuwezi
##ridge
iliopita
##hitimishwa
kiebrania
##jadiliana
nasaha
haijawahi
mgawo
##luhya
thabiti
kiteknolojia
shambulizi
sintofahamu
ungependa
dhima
kupendeza
wafalme
kutambulishwa
##munisti
coast
khalifa
longido
rumande
ufanyaji
butiama
othman
jokate
kcmc
ala
asema
don
ev
fili
gwari
htt
hgh
idi
kelele
lan
my
mzaliwa
ninge
ndali
omba
pr
sum
sine
uzio
vumbi
xi
´a
##uji
##ir
##tl
##tte
##tania
##pendwa
##cra
##ssu
##sburg
##sumbua
##dishu
##rr
##ombwa
##fra
##18
##xt
##ır
##ات
wais
waanzi
wazalishaji
wafanye
waluhya
##lisha
kuzo
kuhani
kuhesabiwa
kuzunguka
kuamuru
naam
mae
male
majini
mauli
##enzo
##nah
##kifanya
##ril
kicho
mwaki
mwasisi
##maanisha
##hubiri
##muni
hud
huna
hutoka
nit
nianze
##sar
kuwaelimisha
kaisari
mii
viele
vihatar
##potea
##goma
alicheza
alihukumiwa
##tupa
tasisi
talaka
saw
muha
ilii
ilipokuwa
##gusia
kutokamilika
##chako
##chapisha
##ungi
##shim
wanadai
wanafamilia
##seka
##doro
sil
##isio
akiji
akifurahia
##ishindo
amepiga
ameandika
ameshinda
amebainisha
amefikishwa
walii
walishiriki
inau
inaji
inachukua
##ational
##panua
umisse
##funze
##boli
##zetu
##zembe
tur
##geuza
##beth
##dea
kuhusisha
imeweza
makamo
unapakana
kupenda
umesababisha
mollel
waliohitimu
waliokamatwa
feki
masan
mashe
zipata
wameona
bos
boma
bohari
bots
wakipokea
kusonga
kona
majirani
potofu
membe
##ktadha
town
house
kufufua
inato
inatumika
##angwe
kimya
##eneja
inayomilikiwa
kuteng
kumteua
hatarishi
papo
heri
upandiki
kiswaga
kupigiwa
kupigania
itafanya
sul
##indwa
mababu
##ulikana
roh
tech
mahabusu
benchi
##sante
mitindo
wasikilizaji
unatoa
majonzi
majisafi
binaadamu
kutawala
kusaka
kusafisha
##cef
yaliyofanywa
hait
ufufu
mgambo
malindi
cola
jimboni
atawa
kunyesha
##ambat
uchungu
gold
kurudishwa
nyadhifa
kubainika
kidatu
karatu
kikombe
ndugulile
kupangwa
vinaweza
##rissa
atlan
kushtukiza
work
ngumi
nyeti
mabati
kibenki
nyoka
mwijage
kuvuta
aliwaambia
270
marmara
mlimani
kupona
ubatizo
##menunuliwa
hatimae
##versi
kihispania
##gawanya
1950
hamas
mwangaza
3000
inavyoonekana
asali
amemshukuru
uhindi
waliyokuwa
makisio
samwe
kijaji
kijacho
##zamaji
aweso
michakato
mongela
acp
kuhimiza
var
eac
hijja
mapafu
twas
kidiplomasia
alikokuwa
uswidi
mlolongo
patrick
sportpesa
acacia
mzumbe
walioteuliwa
global
kondoo
##kimbizwa
##tensi
genk
krismasi
kuonana
hafifu
scholarship
accra
##sadikiwa
daily
faustine
vipaumbele
kwanini
kichungaji
museveni
antonio
mwilapwa
##hadharisha
lugola
lebanon
whatsapp
yerusalemu
benedi
ikweta
malighafi
gwaride
ndalichako
vielelezo
vihatarishi
umisseta
zipatazo
upandikizaji
ako
ado
azania
anda
cli
cle
clo
email
fundi
gama
iphone
kj
ky
khan
mrithi
nika
nanga
nzito
ox
panya
plat
sw
sma
son
same
uru
uchi
uweza
uvi
ving
##ula
##alikwa
##ea
##hane
##historia
##trea
##pung
##sin
##ou
##bl
##fred
##ос
##ال
waz
wataa
washauri
waandaaji
##wai
##wawezesha
##wakabili
##liti
kuy
kuliwa
kuinu
##haribu
nape
nauli
nafaka
maz
mac
##kuyu
##ist
##bala
##yonga
##yosisi
##toza
##tofautiana
##tafsiri
##tafutwa
##tafsiriwa
##umwa
kibi
##leh
##sitisha
hiv
hiyari
##fuliwa
##ketea
##tiri
##wea
##weri
huwezi
##sasa
bahi
bagh
kuwaka
kuwavutia
kasa
kavu
kadri
mik
lai
mkonge
mkombozi
vibo
viet
##gos
##golo
alifanikiwa
aliuawa
##tupwa
tabi
tazama
tabaka
muta
ilichukua
ilitangaza
##ingati
##redi
##chambua
##ungwa
##shitakiwa
wanacho
wanapokuwa
wanakutana
##setts
sifu
sido
sitta
akiangalia
akiongozana
##ishinda
ameweza
ametaka
ameamua
##lor
inaelezea
##dhami
##par
ulishika
##amichezo
mwita
##mikwa
afdb
##bovu
##zeli
tuka
tulia
dayosisi
##gelo
chum
##moto
##moro
imeshuka
makaazi
##nguu
##angaliwa
unafanya
unachukua
unapokuwa
unafuu
iliyopelekea
times
mwanafizikia
lit
kupisha
##taarifu
umepokea
umeshika
umepangwa
umekamilika
##chusetts
mona
moga
waliohusika
wamefariki
msisiti
bofya
wakiingia
wakifatilia
uchache
komba
koloni
majiji
meta
totten
##lula
hovyo
kufuatwa
kufufuka
##shwaji
kuigiza
kuiondoa
kuitikia
##anganya
luis
##ones
kujiweka
kumtaka
kumkabidhi
ndicho
pac
paka
pauni
pakua
hel
mpambano
madaraja
wanaodaiwa
itaweza
itafanyika
mfuasi
kunakuwa
web
weusi
mahakimu
kanu
kanisani
alipom
utekelezwaji
kusahau
rich
akin
watani
milimita
simulizi
hawajui
vitalu
##llal
ger
mameneja
zinazoweza
##rds
tunafahamu
kunatokana
hakuweza
not
norwa
madhubu
jumuishi
asp
kitamaduni
##enguliwa
fimbo
goma
##yimwa
130
kuzua
kuzingatiwa
senti
sentensi
kuruka
##feli
matusi
ndugai
cheke
janja
kikomo
yussu
kinye
kingo
atam
##stawi
##stiki
ugenini
kuziba
aliyopewa
kufungana
uvumi
kuvuja
wasiojiweza
kulalamika
agenda
ushairi
kuporomoka
kinyama
##achiliwa
servi
unicef
1957
mapokeo
##badilishwa
kisicho
##chunguzwa
idd
kalemani
maigizo
wahalifu
##sambaza
##basamu
##imarishwa
ibn
urambo
aliagiza
maganga
vincent
seleman
kusomwa
angani
zainabu
mapacha
matamko
sumaye
##gundulika
iptl
njano
ulanga
sports
kcse
wachungaji
acade
queen
mashitaka
kupendekeza
yusuph
wenzetu
##saidie
##bomoa
christina
plastiki
backlin
massachusetts
##thibitishwa
wakishangilia
kusikitisha
nyakab
kuchimba
himaya
madhaba
kitakacho
pbz
sgr
december
world
##نتدى
manyoni
georgia
sinema
##ujiza
botswana
tabianchi
tottenham
norway
madhubuti
yussuf
adi
bwa
cent
dhu
from
ing
kh
mme
mne
myan
mmea
mtumwa
nsi
oce
pun
pub
sli
song
samo
uung
uuguzi
udhalili
uangalifu
win
пр
##zy
##ab
##twe
##tishia
##pua
##date
##rya
##bre
##yya
##qi
##qua
##ко
##xit
##ски
wasili
wajerumani
yaweza
yahya
##kam
kul
kudaiwa
kuchezwa
kumbaka
kukwepa
##hai
nasibu
makete
mashirikiano
##iskeli
##tos
##tar
##tahidi
##zabeth
##koto
kida
kibe
kirando
##rad
##laamu
##yeyu
##sion
##sikika
mwadui
high
hashim
##far
##faisha
hunga
hujuma
zari
nico
baiskeli
kuwata
kuwaomba
kuwakabidhi
kuwait
kutolipwa
kapo
mir
mitu
miamala
vib
viunga
vifungu
##pongezwa
##shambulia
##gopa
aliishi
alikua
aliomba
alimwa
alikubali
alisoma
alikufa
chaki
chacha
sea
seva
muni
mulongo
iliwa
ilifikia
##rez
##ruga
##doa
##dhibu
sima
sigara
akifunga
amezi
ameshindwa
amesaini
##road
inapata
##field
##ingie
##ingizio
##mit
tusi
tuweze
utaifa
mathia
##zwagi
imeundwa
imezindua
nyengine
maadui
iliyowa
kupu
wanane
anajua
##choma
umefikia
mode
walioi
waliofanikiwa
waliojeruhiwa
mst
msisim
uliowa
sabaya
wakiishi
wakiangalia
wakitoka
mang
biteko
##nest
mel
meck
insha
inatumia
kuipata
##ator
luga
inayofanyika
kutengwa
kuthamini
heka
andiko
anatajwa
##ndikwa
uhalisi
suti
kuwekewa
mfungo
aliyewahi
yanakuwa
jay
rou
buzwagi
read
mahari
mahasimu
hosp
hosteli
zilizotangu
gas
produ
kutazama
haij
haito
kukumbwa
ukiwemo
mnanga
mgongano
kuhara
##shua
##shughuli
dizeli
tunaamini
net
kuaga
kunufaika
wakoloni
urasimu
##inukuu
waasisi
fit
mbaroni
leso
160
forum
lou
vinara
##chukue
magavana
kutumwa
wapili
nyeupe
kutunga
kutunu
chima
chilo
240
wasambazaji
str
##julikani
kushusha
saudia
##itwao
utegemezi
kukimbi
kukithiri
tamthi
##lling
##menia
walipofika
union
machar
andre
jeneza
mapori
masilahi
uigizaji
##logy
aliitoa
upembuzi
##uzwaji
##fanyikia
pasipoti
##овская
vinginevyo
##lazimisha
kuhamishiwa
vinne
kuchelewe
elizabeth
##halifa
kakamega
edwin
ukingo
##idhinisha
twaweza
zube
halfan
watetezi
##angalie
wananfunzi
msomi
kirumba
makambako
dansi
brexit
janeth
ambamo
##funikwa
beach
dhabihu
hapana
heroes
almasi
kabeho
gym
##programu
makamishna
vifaranga
daesh
##versity
vietnam
##dhamiria
chumvi
mogadishu
msisitizo
chekechea
madhabahu
myanmar
mathias
msisimko
zilizotanguli
afu
ayu
bun
bang
bango
dam
ec
gua
ggm
klo
kongwe
ly
lenga
langu
mena
nin
nungwi
ol
org
out
panga
ppf
rho
sing
senge
sanifu
tata
tendaji
uondo
ufuta
uwasilishwa
udom
uitwao
uuzwaji
vwawa
wind
zh
##zangu
##asa
##ainisha
##tati
##tanda
##tangazia
##punguzwa
##gin
##gama
##np
##nde
##nunuliwa
##mf
##sf
##sung
##jen
##jeni
##dro
##datus
##rone
##olewa
##bini
##vis
##ving
##аи
##48
##им
wazuri
wambu
wasoma
##liga
kuda
kuza
kuele
kuandikwa
kugawanywa
kugeuka
kuogelea
nawe
maili
mabi
mabili
##zimu
##zipata
##ambar
##jio
##jifu
##jiriwa
##yoo
##yombo
##day
##umz
kik
kiangazi
##dir
##diplomasia
##lembo
haru
##fue
##furika
##mund
##wei
huanza
hufanywa
##here
kuwaua
kuwatambua
kuwafahamisha
kapu
kard
kaburi
mido
mitume
mifereji
mkongo
viji
##tes
##tele
alitaja
alilazwa
alifikishwa
alithibitisha
sacco
sakramenti
##mbele
musi
muktadha
iliweza
##guru
##rekodi
wimbi
##rudumu
##shini
sir
##isionari
akipewa
akicheza
akipatiwa
akijaribu
akitowa
wakatoliki
##ishika
##pigiwa
amezungumza
ameonyesha
waliingia
inapakana
##dhabu
##funua
mwonekano
##giri
##bofya
utawa
##bet
##dee
kuhudumu
kuhukumiwa
imei
imepata
imepokea
makandarasi
unawa
unacho
unaongoza
iliyoanza
##wanya
mwanariadha
liwale
kupindu
anazo
##iness
umepata
umefanikiwa
mwanan
mwaniaji
halijoto
waliou
maso
##mbezi
wameshiriki
wamefikia
wameonyesha
wamekusanyika
msomaji
wakifurahia
kuuli
kufanyakazi
##wio
##witi
hosea
kuifikia
##angili
lushoto
##oney
##enei
mbinga
inayom
inayojulikana
inayojumuisha
kujitawala
kumpokea
zilipo
zilitolewa
pea
hatarini
anc
anton
wanaom
full
all
##hou
faki
itaku
itakua
sudi
sh2
kikatoliki
buhi
reso
mahala
kangi
101
108
nguli
shaa
shari
sharia
sharti
promo
bet
##wezeshwa
watahiniwa
rio
haiwezekani
irene
kinawi
ukiangalia
yameongezeka
yamebainishwa
comp
tunajua
kuachwa
kunusu
yohane
##fikiana
yanayoweza
125
126
ghala
##inus
##ckson
hayakuwa
##atembelea
fitri
abbasi
mistari
##fer
nduli
upote
170
magunia
limetoa
hauta
lori
nuklia
kupandwa
atatakiwa
kutumbu
kimaa
kimaisha
kutupwa
1962
kutimuliwa
1981
mahsusi
mengineyo
eldo
nilipo
##pigia
zitasaidia
tunisia
kujadiliana
##sherehekea
kukomesha
ufinyu
milan
##fungulia
##dhaniwa
kaliua
alimtaka
hazija
bonn
machozi
asas
samsung
wasafi
cont
1945
mteule
mufti
psg
kusomewa
kusafiria
6000
utoro
free
that
##sahau
ilhali
kunipa
tarimo
unyenyekevu
1918
waimbaji
kuwalipa
florence
tetemeko
kihalifu
mizinga
deodatus
manara
mafinga
mabeyo
huadhimishwa
kuachiliwa
##jisikia
uovu
mabula
tandale
##bahatika
inayofuatampango
lumumba
eritrea
venezu
anatuhumiwa
wcf
nadra
mathayo
##ingiliano
mipakani
henry
okoth
kizimbani
sekou
lipumba
lubuva
system
waanzilishi
ufufuo
benedict
viboko
ocean
udhalilishaji
hosptali
sengerema
uwasilishwaji
wasomaji
aisha
anza
ataa
athi
bunde
cg
cen
cambo
dama
eg
emanuel
gb
gps
ia
ilo
md
mza
mrembo
mhimili
nation
ona
ori
oly
pc
pra
sua
tuma
tgn
ugo
utumbo
wu
##ica
##lka
##tm
##tinga
##tengeneza
##pto
##ppe
##gani
##ggi
##misha
##mshauri
##meni
##sk
##rb
##rch
##fs
##ны
##ـت
wabunifu
wachina
waendelee
wajukuu
yaka
yakini
##lina
kuri
kuongozwa
kuchin
kukwama
kuendelezwa
##hagen
##inde
##enna
##ambwa
##riri
##das
##konge
kiung
kitwa
kigumu
##rai
##led
##lezaji
mwafrika
##keteza
##face
##weleza
baye
##hewa
kuwan
kuwatumia
kuwapata
kuwaita
kutoshiriki
kutoonekana
kutoridhishwa
kasai
midogo
mianya
mipangilio
mkoba
vie
vik
vito
vicha
vivyo
vifuatavyo
vipande
vibarua
##potoshwa
aliy
aliona
aliondoka
##tual
chalin
talib
tabasamu
sefue
##mbwe
##mbelewa
mug
muumba
iliongezeka
ilitangazwa
##guvu
##rest
with
##rushi
wanai
wanaonekana
wanajua
##shangazwa
##ishauri
akichukua
##ishana
ametu
ametumia
ameanza
ameendelea
ameomba
amezungumzia
ameongozana
walionekana
walichukua
inahusu
inafanywa
inaongozwa
inasababisha
inafuatia
##pal
rapha
ulingo
ulionyesha
ulipatikana
##fundishwa
##andarua
tanzani
##ingiwa
##zeshaji
tupu
##vuli
dala
##berg
kuhud
kuhutubia
##otekele
imesha
makato
nyang
nyenzo
##nguo
unajumuisha
tic
jize
liga
anaona
anaonekana
anajulikana
umei
umehifadhiwa
ujangili
wamea
wameshindwa
wamekubaliana
bona
uchaka
ener
kabambe
biha
##ney
posti
power
mapana
mweusi
ukumbusho
toba
toto
inatu
##vier
kuiweka
kuichapa
doto
marefu
kujiingiza
kutatuliwa
kumpeleka
kumkamata
kumhukumu
pay
pacha
hela
yeah
jomo
anatumia
yalipo
wanaoendelea
kupimwa
##hop
fai
##pepe
aliyeji
aliyefariki
yanaonekana
sh3
shangwe
jasho
rombo
bugan
bulembo
##zuru
regina
ter
tex
kitabibu
102
##sor
##some
zilizowasilishwa
namtumbo
proje
unatokana
betri
majuzi
kutayarisha
watawa
wataanza
kukutwa
##malizi
ukiongozwa
demo
ikiendelea
zinazohusu
yameanza
yakobo
##puo
##puuza
185
kiutu
dig
tunaomba
1500
kunyimwa
nov
ass
asingeweza
##andikishwa
135
139
vitamini
112
##fungiwa
##itaja
ismail
kurudia
cal
care
cast
cape
mawasilisho
ulega
##hisiwa
limesema
##buniwa
nukuu
kupandishwa
thelat
zege
vyetu
kufaidika
kutupa
210
mtoni
##wasihi
kutilia
vilivyokuwa
##julia
mwigizaji
##inoa
babake
akimsikiliza
vidonge
wasiopungua
260
kulalami
kukiri
##tumizi
kinachotambuliwa
serbia
##tokanayo
vitunguu
magesa
ninaamini
dutu
##tty
yakiwemo
kisii
ilipopitishwa
kukubaliana
mashuka
kuoa
matete
samatta
twiga
##atumwa
nany
utiifu
mhagama
##xim
kuepusha
wakisema
##luhisha
##yonye
angli
##rumah
seoul
hijra
hijria
kumwaga
tpb
tpdc
rajabu
kuishauri
mkenya
mpoki
minada
grace
akiagana
kcpe
kusindikizwa
##lkeno
mseto
muigizaji
##hubutu
plus
hiphop
fanyika
uenezi
kujisajili
mripuko
nbaa
kulazimishwa
kyela
kunyongwa
##penhagen
herman
bakr
##tegemee
akilakiwa
haifai
handeni
kikwajuni
unfpa
trust
tusker
uzamivu
mawimbi
ningependa
waisra
kjp
baghdad
mnangagwa
lesotho
chiloba
lengai
mabilioni
eldoret
venezuela
cambodia
tgnp
chalinze
##guvugu
raphael
thelathini
are
amuzi
bla
bangi
brn
cm
cote
clin
dia
dating
equ
gran
hong
honge
ih
iwa
ish
jong
kishindo
len
mle
mhifadhi
natoa
oli
pp
panda
pungu
pango
sk
sand
twe
tunda
tcra
ukwa
uzee
uundwa
ufanyike
vuli
zena
мар
со
منتدى
##uth
##ikia
##zano
##wika
##widi
##ting
##tandao
##pani
##pendelea
##gga
##mla
##mpi
##jisa
##jumla
##dika
##dam
##rki
##ван
wawa
waajiriwa
washia
wazungumzaji
##kar
##lis
kuhitaji
kupaa
kuelezwa
kuungua
kufadhili
kuisimamia
##athmini
##hab
nadhani
madi
mapi
mavu
mabunge
##kura
##amlo
##toshe
##tayarisha
##ngan
##kos
##yar
kiwe
kibaki
##didi
mwajiriwa
hitaji
##javyo
hasimu
##fufua
##kemea
hulipwa
niki
nida
niger
kuwaongoza
kutoona
kaa
kako
miha
law
vienna
vijavyo
##tega
aliki
alitu
alidaiwa
alitajwa
aliibuka
alikataa
chall
##chika
sai
safa
saleh
sepe
mun
muuguzi
ilim
iliendelea
iliundwa
ilishika
iliandikwa
##resi
##rezani
wivu
##ruru
wanariadha
wanazuoni
##sey
##dhiano
##dhibiwa
sikonge
akielekea
ameli
amefanikiwa
amefungua
walion
walikutana
walikubaliana
walikusanyika
##lous
##roth
##sukuma
##subiriwa
rakaa
##fic
tanroad
##rial
##mited
##boda
##zeima
tukiwa
utapi
utaona
kambara
##geuzwa
##moa
imeonekana
imeonesha
imekubali
makada
nywele
unakua
unafanywa
unaonesha
tips
##dukuzi
limited
wanatoa
anadaiwa
##funzia
mour
halija
ruta
waliom
waliouawa
ujinga
wameendelea
wamepiga
wamekutana
bombo
mtengenezaji
mtangulizi
mangu
eno
kabwe
billi
popote
##mbikizo
inatekeleza
inspe
##angamiza
leoni
doroth
upu
kilindi
inayotumika
inayotokana
kujiendeleza
kujihami
kujifunzia
kukamilishwa
kumshukuru
kumpinga
kiashiria
pepo
mpina
mpendwa
shimo
jord
mashambani
mashairi
madagas
wanaotoka
futi
far
faini
fahari
farasi
subi
super
ukamili
jerry
##pedia
mfungaji
aliyezaliwa
yanaonyesha
vyandarua
amis
wezi
##fautisha
art
msigwa
##sol
##soft
aitwa
alipowa
watazamaji
riziki
riek
kujenge
akwili
wikipedia
der
mnh
mnyororo
##angombe
ikifanya
kuteswa
gerezani
kuhakiki
malimbikizo
cos
copa
costa
copenhagen
atafanya
##rthe
ney
kunu
your
hakutakuwa
wakosoaji
zimeanza
assa
ghafi
micheweni
hayaku
##aminiwa
##ated
nyinginezo
##phrey
waaaa
149
good
akasema
cas
chembe
nukta
kikoa
kikomunisti
uae
uajemi
##rison
att
atleti
kusikika
##stahiki
word
anayefanya
mabango
##yamala
aliyofanya
kibondo
kibamba
kutimua
vilivyowekwa
kufungiwa
uvinza
kumudu
kumuunga
masauni
marwa
##ambukiza
##ndami
makongo
##troni
kupepe
##nukuliwa
university
josephat
machafu
mahujaji
utakaochezwa
5000
risala
##amalizika
1954
1959
list
visivyo
##lando
wawezeshaji
mateka
##анд
julie
conte
ahlu
1940
tshs
330
##shirikina
url
tarakilishi
tarakimu
##kadiria
magendo
muhuga
##stech
kuhimili
kusomea
kwingine
apple
kuzuiliwa
shoo
mariam
maridhiano
hayati
sumaku
kiteto
wateule
ernest
finyu
florida
yaliofanyika
uvunjifu
open
league
blue
pangisa
##saidiwa
christine
luhumbi
##lingana
murang
theresa
theresia
zantel
kujumuika
kimila
makontena
atomu
galawa
kusaidiana
octoba
kongwa
mawenzi
microsoft
bodaboda
chemche
tulionao
onyesho
pingamizi
miito
atlantiki
samwel
##punguzia
macron
kibiblia
alipomtembelea
nyakabindi
nsimbo
munich
tamthilia
zilizotanguliam
kudahili
kardinali
shaaban
upotevu
bundes
##otekelezwa
bugando
uundwaji
sepetu
kambarage
mourinho
waaaaa
atletico
aku
ate
adamu
amua
black
bonyeza
dh
edi
fika
fri
gati
genge
ic
ifm
ios
jeni
jumba
jumbe
jones
lun
mani
mpan
mcho
mfadhili
mjukuu
nat
nta
nzo
nge
opa
ovyo
omari
puli
pdf
rika
samu
sote
samani
sbl
tre
tenge
tsc
uzi
ujiji
utolewa
uislam
vat
wh
wine
ва
وال
##ute
##zra
##zine
##wsa
##wisa
##egemea
##kwi
##kisiwa
##hc
##tti
##pungu
##pris
##gro
##ganda
##cp
##cus
##mg
##misho
##mvi
##mamo
##sindi
##oza
##bis
##bra
##blo
##blin
##vr
##yam
##аз
##40
##ик
##ии
##го
##ги
##ın
##ار
waislam
##kai
##kat
##limali
kuisa
kube
kuendeshwa
kuendana
##ant
##anji
##att
kwahiyo
kwasasa
nah
nawa
naweza
##ikabili
max
maan
mapango
maende
mawanda
mahita
machin
##kumwa
##zili
##iso
##ball
##jiwekea
##kie
##rifiwa
##tosheleza
##tahadharisha
##yahu
kiz
##rab
##sifika
mwani
mwambe
hiji
##maa
##mary
##jazwa
havina
##met
##hus
##hutu
##mulia
nic
niku
nikiwa
base
##hembe
kuwaona
kuwapiga
kuwachagua
kuwaunganisha
kutotoa
kutofika
kutosheleza
karibi
kaunda
mike
miamba
milli
mizozo
miiko
las
ladha
##pot
##tegemewa
mwakababu
alili
aliitwa
alikutana
aliripotiwa
alipelekwa
alimaliza
aliishukuru
##tun
##tuka
tabu
##chat
##ching
##eleze
sabuni
saint
sec
##mbini
##mbilia
muumini
ilipokea
ilielezwa
ilitoka
ilishinda
wanashiriki
wanadaiwa
##dolwa
akitaka
akiuliza
akibadilishana
ameingia
amemwa
ameuawa
ametaja
amekiri
ameishukuru
walikua
walieleza
walihitimu
inakua
inajulikana
inabidi
##pakodi
jukwa
##sul
##sus
radi
rafa
ulitoa
ulikua
uliwekwa
ulisababisha
ulibaini
##funika
##fike
##unzo
mwendesha
pambano
##idiwa
##boa
tutaka
##mbolezaji
dap
matunzo
changa
imekua
imeonyesha
imechangia
imepiga
imetokana
##angaa
unaji
unazo
unasema
unaanza
unabii
iliyotangazwa
iliyofunguliwa
timo
##dur
kupenya
wanamichezo
##endayo
anashindwa
anapenda
anaitwa
shujaa
umeweza
umekua
umeanzishwa
##chuliwa
mocu
walioomba
waliofaulu
walioathirika
waliokufa
waliosimama
waliopangiwa
fedhe
master
wameelezea
wamekamatwa
wamekufa
wamejeruhiwa
##barikiwa
msangi
uliotokea
uliojengwa
ulioitishwa
bobi
##anzibari
##wila
bill
point
usaid
meda
mwegelo
ukumbini
kufurushwa
kuifanyia
kuifikisha
akiwahutubia
##tekelezaji
kilimani
kujipanga
kujituma
kujivunia
kujiepusha
kutengenezwa
kukamata
kumla
kumfuata
kumpatia
kumsajili
ndie
kiaust
paa
paci
upanga
kisingizio
kippi
zinafanya
wanaoji
wanaohusika
somanda
alzeima
fabi
utamu
ukataji
##pewe
aliyepata
mababa
kessy
yanavyo
yanapatikana
shan
##zuki
reu
red
msalala
team
##mbuko
zilizojitokeza
alipokwenda
unat
majumba
wataendelea
kujulikana
yaliyoandaliwa
yaliyotangazwa
milimani
##ibuliwa
##foma
ukizingatia
hawata
##ves
mndolwa
raslimali
ikifuatiwa
kutegeme
zinazohusika
zinazohusiana
yametolewa
##bishara
atakumbukwa
##shutumiwa
##husuyo
##rtha
##thies
neva
netan
kuachia
kuahirisha
kuny
yanayotolewa
yanayohusiana
majaribu
##amanio
linaendelea
146
kusimamiwa
gor
##yikiwa
##cast
abra
kaitaba
ilivyoelezwa
nyayo
nyasi
upofu
kubakwa
chetu
cheche
maovu
limetolewa
loli
ualb
kino
vinasaba
mtaani
##stal
jumaa
magalula
kituruki
woga
##dhuru
1973
matajiri
chimbuko
nishani
mabinti
misimamo
seminari
saad
##ents
mahkama
kumua
kumuaga
kuvuliwa
kushuhudiwa
umar
aliwashukuru
hajawahi
kulazwa
niliyo
##pigania
machimbo
tunataka
walipokutana
kukosoa
##dhaminiwa
ufini
milanzi
kihisia
##ridhika
kuletwa
kuungwa
1952
dublin
##kataliwa
yakiendelea
##lalisha
sanjari
santos
uimbaji
uimara
uimamu
##kabiliana
khasho
amempongeza
twita
harare
mvulana
allaah
##bank
##banwa
tumboni
kijichi
kuingiliwa
premi
fred
khamenei
##yonyesha
kufyatua
kigali
tripoli
##kumeni
isaya
isaac
halfa
halmshauri
kuwaaga
inatajwa
kipolisi
##hudumiwa
wananchama
finland
mkwawa
tetesi
kkkt
njiani
wachunguzi
deog
yusuf
##bomolewa
brown
ivan
itilima
ubadhilifu
transfoma
bashiru
avril
anatolia
cyp
##teremshwa
studio
fadhili
international
felix
kushindana
machinga
##tafutia
http
idibo
platn
smart
uvimbe
richmond
service
academy
mnec
public
##ronesia
wambura
mabibo
midomo
mwananyamala
antony
buhigwe
kimaadili
daladala
energy
biharamu
texas
waisraeli
clinton
challenge
utapiamlo
leonidas
jordan
bundesliga
oparesheni
machinjio
netanyahu
aan
ati
aru
ataji
amiri
bwi
bvr
din
dami
era
eme
epa
emi
exim
fata
fumbo
hongo
htm
ite
ido
iso
jangombe
khu
lang
mru
manda
mmo
mzito
ns
nkuru
ntv
om
old
oil
ombeni
penye
quds
rambi
smz
sendeka
squa
tumia
ukuwa
ukia
ufikia
ugeni
urembo
udugu
vuai
##ln
##len
##lengwa
##asisi
##adhimisha
##ero
##khe
##ktroni
##teni
##tino
##tzer
##pin
##pum
##gba
##nunua
##sumbuliwa
##bishia
##yth
##аб
##12
##ни
##ем
##يـ
waf
waita
wachangiaji
##wazwa
yange
yatokanayo
yahusuyo
##kaliwa
##kaguliwa
##kamavu
##katika
##kashifu
##lish
##limwa
kuga
kushi
kuifa
kumbe
kuhisi
kuandaliwa
kuripotiwa
kuonya
kuchukuwa
kuridhishwa
kubofya
##hazi
nalo
nasaba
nakuru
##ikana
mamba
mayahudi
##kumbana
##encia
##ism
##nazo
##kil
##kila
##kivu
##rian
##toro
##toshaji
##toweka
##tahiki
##umili
##kota
##kose
##yarishaji
kiwi
kiho
kigan
kihesa
kipande
##laza
##yeka
##lex
mwang
##ketaji
##timua
##tiboli
##mus
##weo
##weto
huishi
hupewa
##zoeleka
##mbazi
niwa
nipas
baya
kuwako
kuwasha
kuwaeleza
kuwafundisha
kuwaletea
kuwahamasisha
kuwajulisha
kutoweza
kay
kaku
kabu
mipi
##poa
##popo
##teran
##tekumeni
aliongoza
alitembelea
alifunga
alipigwa
aligundua
##tung
tag
tali
tajwa
tarura
tausi
##chishwa
##cheni
save
sarah
semi
##mbamba
mul
mutu
muelekeo
ilipanda
ilishuka
##ree
##rekebisha
##amaji
##amaria
will
##chal
##run
wanau
wanastahili
wanasubiri
##seko
##sega
##don
akidai
akituhumiwa
akipongezwa
wakali
##onzo
##piku
ameua
amechukua
ametajwa
amejiunga
amehukumiwa
walipokea
walifanikiwa
inazo
inaweka
inachangia
inahusisha
##atima
##atiti
rapa
##pandisha
uling
uliandaliwa
##fik
##fiji
mwenzi
mwoko
##tumba
afp
##fanywi
tuwe
tupo
tufanye
utai
##gesho
##beli
##bean
##dera
christi
kuhubiri
##mog
imeingia
imetajwa
imepanga
imeripotiwa
makabili
unai
unapata
unahusisha
unahitajika
iliyotajwa
iliyotekelezwa
mwanao
mwanahisa
wanategemea
anaeleza
umem
umesha
umesaidia
umewekwa
umetokana
umemalizika
##zungumziwa
mwandi
rufani
rubani
rufiji
waliopewa
waliofanyiwa
waliodahiliwa
masters
wamepokea
wameweka
wamelazwa
mstahiki
##jiajiri
ulioanza
uliodumu
ulioanzishwa
bosi
wakichangia
wakipatiwa
wakijadiliana
kuuliza
pius
uchawi
bir
memo
mwezeshaji
hold
holela
inde
inatoka
##ville
kuitoa
kuitangaza
luca
inayowa
inayofaa
inayosababisha
inayolenga
kujiamini
kujiridhisha
chuwa
halmasha
zilitoka
hataweza
mpinga
shiri
shiriki
anti
yalisababisha
wanaowa
wanaoweza
wanaoingia
##hoek
waombolezaji
faru
##endewa
itaongeza
utam
utanda
utpc
surua
ukakamavu
ushe
jema
mfugaji
sh7
rom
rome
bursa
busega
##rangi
regi
benson
msimbazi
##solewa
shahidi
gawio
unye
watachaguliwa
##unguti
yaliyofikiwa
haifanywi
matokea
matoleo
ufunguo
##pokeaji
milio
ukifanya
mhanga
lilifanyika
ikiwezekana
kutegemewa
kuteketezwa
##karibishwa
zinazotoa
come
comoro
costech
##pub
atai
ataweza
tunao
tunapenda
newala
netiboli
kuainisha
unaoweza
unaolenga
young
yosefu
uzani
yanayofanywa
##andikia
145
fiji
goti
akam
113
111
misamaha
misuko
missen
##tishaji
ilivyoainishwa
ilivyorekebishwa
ukonga
lee
leice
dawati
ngowi
usiri
folk
mchambuzi
mchapishaji
##mpatia
los
kupandisha
kituoni
##dhul
kimaro
kimasomo
maziko
matabaka
kutuliza
chifu
aliyoyatoa
##ribisho
lililoko
ajax
kutii
standa
1987
1988
majukwaa
mwitu
kumuomba
kumuondoa
kuvuruga
wasioona
##rahisisha
tulio
nilivyo
machibya
masaka
tunatoa
marath
vimelea
kuficha
walau
ufili
##alth
##kishe
##pendezwa
volkeno
1956
dubai
kusuluhisha
mfaume
yatafanyika
barna
masihi
masikio
kuombea
php
##onekane
360
ahmad
1949
zitakazofanyika
##imarika
inayofuatau
inayofuataprogramu
ameitaka
##ово
##amilikiwa
##work
##story
1924
yasiyokuwa
zisizokuwa
##dhihirika
mbwana
wakisoma
brit
press
uchovu
kukataliwa
##cial
##vinjari
bernard
haitakuwa
##atanishi
##bakar
mpogolo
erdo
mkwajuni
parole
humphrey
biolojia
mzinga
kimantiki
delta
rodrick
tfs
kisov
wenzangu
kutambulika
kupumua
ivoire
##ель
##dhalilisha
ukeketaji
wakishirikiana
kugoma
hajj
aliloli
kukumbuka
usemi
raymond
##vumilia
##tengewa
bashir
brand
kukaribisha
##patikani
##yataja
kujilinda
kuchangisha
##tokeze
mahiga
sakafu
boniface
tecno
hilal
maulid
hudson
muhas
adolf
clouds
sonko
sifuri
akinamama
backlink
hekalu
andrew
windhoek
saccos
music
kunusuru
center
##ـتـ
yakinifu
kiunganishi
bayern
digrii
castro
hongera
ppra
tanroads
inspekta
aitwaye
ahlul
kwingineko
utolewaji
##blogu
fedheha
kiaustronesia
reuters
kutegemeana
ualbino
platnumz
biharamulo
ufikiaji
nipashe
mwokozi
makabiliano
misukosuko
missenyi
leicester
marathon
aw
ao
apo
alo
ami
avi
asante
bat
bme
cs
cat
cra
cana
cdu
camb
dra
dume
epl
fbi
gat
gam
gro
gumu
geno
isema
imo
ifaka
itumike
kyo
kro
kanzi
kho
kinu
lika
lyi
mgi
mkia
mmanda
nko
och
olo
pin
pris
ranchi
rcc
teo
udi
uduma
udukuzi
wf
zen
zinge
вар
кра
тр
##ile
##lvin
##zz
##zation
##aluma
##wene
##ef
##esta
##tsi
##ple
##pamba
##pumzi
##press
##gamba
##nyo
##nyesha
##cin
##cen
##cta
##mvua
##samehe
##jama
##jamini
##dr
##dv
##dini
##rat
##rto
##rgu
##ous
##brt
##visiwa
##fongo
##yl
##36
##ав
##ом
##23
##رم
wawi
##wavi
##wadia
yam
yaweze
##lipiwa
kuia
kuili
kulenga
kushikilia
kudhihirisha
kuboreshwa
kubomoa
##anu
##anti
kwaresi
malay
##inia
##ening
##bao
##badhi
##himizwa
##nau
##nap
##kibu
##rite
##rich
##rice
##dal
##dar
##tara
##tasi
##taliki
##tazamiwa
##zari
##ump
##umilia
##kosea
##yah
kif
kich
##lada
##laani
##diria
##dikizwa
mwalo
mwango
hit
##main
hari
harufu
halote
happ
##kesi
##huka
##hula
##faika
##fahami
##wema
##bukati
##burudisha
huse
huwekwa
nik
niko
nile
##sawa
##salato
bari
ball
bajaji
##hel
##heshi
kuwazuia
kuwatunza
kutopata
kala
karo
kajia
kawi
kalamu
kapt
laela
lapto
mkosoaji
vii
viweze
villa
##pokamilika
##nie
##nith
##nica
alisha
alipatikana
alishindwa
alikuja
alirejea
alilipwa
aliondolewa
aliongezea
##fana
chapisho
tay
tadb
##eles
##elewe
##elewana
saumu
sadiki
sadd
206
muam
muwakilishi
muwsa
ilionekana
ilitokana
iliripotiwa
ilipigwa
ilitengenezwa
##reen
##ream
##reta
##rewe
##rege
##reth
##rerani
##amasha
##ruku
##ruba
##rula
##ships
wanaanza
##dor
sija
siberia
##isikia
akiu
akiingia
akimua
akipokelewa
wakawa
ameonekana
amekabidhi
amerejea
ameripotiwa
ameonya
amepotoshwa
waliu
waliji
waliendelea
walitoka
walifariki
walishinda
walifukuzwa
##lova
##ropiki
inashika
inafanana
inasemekana
##pad
##pact
jun
##surika
##subis
##vyogawiwa
##funzo
##bir
tanz
tang
mwene
##bour
##cheo
##chelewa
##zeshwa
waturuki
utapewa
utawezesha
utapeli
##vuliwa
kambo
daqa
##gea
##ges
##gement
matumbo
matamanio
matamasha
##dege
##jee
##jewa
chen
chris
##kwao
##kwamua
imesh
imefanywa
imejengwa
imefungwa
imeibuka
imeongezwa
imebainika
imegawanyika
##angao
unajulikana
iliyopata
iliyofuata
iliyochaguliwa
iliyosababisha
iliyobaki
iliyosomwa
iliyoidhinishwa
tikiti
##dust
jiang
mwanasayansi
anachukua
anaongoza
anapokuwa
anakwenda
##andama
umewahi
umefikiwa
mola
modi
morali
movie
haliku
halikuwa
walioitwa
waliotajwa
wamechaguliwa
wamedai
wametangaza
wameshika
wameuwawa
msc
uliofuata
uliowezeshwa
shekh
wakiamini
wakicheza
wakijiandaa
kusua
kusumbuliwa
manane
mikoko
kabati
##wizi
koo
majitaka
##ness
pop
metali
mwembe
togo
inatekelezwa
##vich
salah
kuiga
kuijenga
kuitambua
kuiwasilisha
##ghai
akiwamo
##shoga
doha
dotto
upate
lug
luha
lucky
##engoma
inayoji
inayoonyesha
kujiua
kutamba
kutishia
papi
pakiti
part
hea
kulin
joshua
yalitokea
zinaendelea
##ondolea
wanaotakiwa
wanaotuhumiwa
fujo
algie
##hogo
##hofia
waomba
falls
itala
utenda
sub
ukaribisho
usomaji
aliyechaguliwa
kelvin
yanaonesha
mtunzi
sh5
jawa
jazia
rob
weza
##rance
res
msafiri
temu
tege
benard
benjamini
shayo
shabiki
zilizofanya
garissa
alipokutana
alipoulizwa
unatarajia
beat
makutano
mbezi
kutabiri
kutafsiriwa
kutazamwa
kusali
##cou
##okoka
yaliyotokea
haiti
haipo
ufufuko
tumeweza
ukitokea
hawapati
##vest
lilian
lilianza
ikitoa
ikiongezeka
kutele
co2
##purs
wadadisi
kiuongozi
ataku
atapata
atahakikisha
diplomasia
152
156
utungaji
jinping
unaofaa
unaotolewa
uzingatia
yanayopata
yanayotokea
madenge
##ambwe
zimewekwa
zimetengwa
aslimia
ghali
ghadhabu
johanne
ndoo
linaonyesha
wakunga
147
field
fidel
goba
132
akateuliwa
114
116
walei
abde
miss
##fungana
##mwaga
leone
cairo
ngongo
upotoshaji
kubakia
chebukati
177
178
176
mchafu
limewa
limefanyika
limetokea
##angukia
##chukuliwe
##zeeka
bilionea
##biliwa
spring
##fariji
mkesha
##tario
ubao
anayem
anayedaiwa
matakatifu
kutuhumiwa
aliyonayo
mtowisa
kutokuwapo
1985
##lands
akimjulia
mashingo
##zungukwa
kmc
ufanye
kukiukwa
zenyewe
mark
##erra
kidedea
##rambi
mlivyogawiwa
##shele
walipofanya
ondoa
ontario
kirahisi
ndanda
tutaweza
vinavyounda
kurudiwa
zinatoka
##amaliza
1951
##zidiwa
##tanguliwa
lisbon
hazikuwa
bonanza
lenyewe
wahadhiri
mategemeo
itakayofanyika
yanatoka
penteko
magoti
ameapishwa
sekretariet
427
##drick
abiy
kuambiwa
1948
alivyokuwa
elektroniki
karakana
kutokujua
1920
mrakibu
##ufaisha
kisekta
mgahawa
akikabidhiwa
europa
ingeweza
usiojulikana
kusogeza
kuzuiwa
this
kichaa
east
750
ukhalifa
kufundishwa
haydom
shabab
uliyotafsiri
kumwondoa
excel
kuimarishwa
gregori
kuvamiwa
alichoki
mshangao
##стан
##ahidiwa
funguo
funguvisiwa
njiti
wachuuzi
kiharusi
##rodhesha
delhi
sunnah
##safirisha
kiir
hanang
##hamasishaji
hitimisho
ukerewe
hajat
startu
tuliyoyapata
sabato
corne
jamal
mjakazi
kujisalimisha
flash
ccbrt
kushauriana
kompu
mediteran
kusaidiwa
athumani
uyole
wazawa
alliance
tsnp
##hatarisha
vitakavyo
uchelewe
badru
wanachuo
golden
vingunguti
monaco
vibanda
lugalo
kukimbizwa
kupindukia
athira
viktoria
kulalamikia
anglikana
ishengoma
punguzo
##jisalimisha
subira
neymar
kupeperusha
julieth
samuel
maendelo
loliondo
khashoggi
erasto
html
ukuwaji
waitara
kiwilaya
standard
erdogan
cambridge
mgimwa
udumavu
wfp
варна
kwaresima
halotel
##salatok
kajiado
saddam
##subisya
algiers
uzingatiaji
apa
azungumza
adhu
afanye
aanze
atoe
cata
cze
cur
cristi
dj
ep
edu
evo
fis
ffa
funga
gpa
hd
iyo
iitwa
jnia
kri
kishi
khadi
lwa
lam
lyon
mzi
mki
mano
mand
mumba
mlozi
mjumu
mdee
ntu
nataka
oy
pm
peo
rundi
sri
sch
songo
staka
smy
sumbwa
snap
thi
tami
tenga
tumb
uam
ugha
uone
uwanda
uwapo
uendeshwa
ubovu
vatika
wenzi
zlat
за
на
об
ст
##uru
##utumia
##uwezo
##ij
##lda
##awa
##ahu
##kw
##km
##tanga
##tatua
##tamba
##tindo
##pinduliwa
##gt
##gika
##gis
##nko
##cd
##cko
##cla
##clu
##mm
##mis
##ston
##jz
##jis
##dishi
##omwa
##vs
##vy
##fisi
##frey
##yani
##yana
##ум
##ва
##15
##55
##26
##42
##ея
##xy
##نـتـ
##фия
wae
waenda
wakia
wahitaji
washika
wamen
waendeshaji
warithi
waanze
watoe
yaya
yamo
##kadhalika
kuende
kuzima
kudhamini
kuyat
kushirikishwa
kuelekezwa
kueleweka
kuyeyu
##anika
##atini
##atisha
##atun
##had
nako
nasema
naching
maza
masu
magi
machu
mapanga
##kuwemo
##inunua
##enj
##enyi
##amrisha
##bakwa
##himba
##jitali
##nas
##yota
##yonge
##tor
##yaku
kiv
kigu
kizalendo
##lak
mwathi
mwafongo
##jah
##merson
##fuatana
##tius
##hudhu
##weko
##buka
hus
huingia
huhitaji
hutokana
mkude
zara
niende
##hem
kuwabaini
kuwasaka
kuwaombea
kuwahamisha
kuwataarifu
kutojua
kutojali
kutotii
kutofautisha
kad
kayombo
miri
michi
migi
miondo
miinuko
virg
##shariki
alitakiwa
alizungumzia
alihoji
alishtakiwa
alianzisha
alihudumu
alistaafu
alimuagiza
##tungwa
tarajiwa
##gasi
##atafuta
sao
sarufi
sawia
sem
sere
sege
sector
selous
##mbwi
2050
ilizo
ilisha
iliwekwa
iliandaliwa
ilizindua
ilihali
ilibainika
hiyohiyo
##gus
##guli
##rer
##ruzi
##shiwa
wanalo
wanahisi
wanapenda
sitini
##ision
##onjo
##ishani
ameya
amewasili
amehitimu
amepongeza
amefunga
amesimama
ameumbwa
amesikitishwa
walionyesha
walipiga
walishindwa
walijitokeza
##los
##loon
##rota
##rovia
inaanza
inaingia
inaongeza
inaleta
inaelekeza
inafahamika
inakusudia
##pari
##suru
##ative
rap
raga
ulitolewa
ulisubisya
##funuliwa
##biria
##fid
##amitindo
##unzi
##gimbana
##bol
##chel
utakua
utaongezeka
##silishwa
daru
##jeli
##kwamisha
imepewa
imesababisha
imeshinda
imefikiwa
imebaini
imewasilisha
imejikita
imedhamiria
nys
maagano
unaona
unapatikana
iliyomo
iliyochukuliwa
iliyopatiwa
iliyopendekezwa
##wandi
jihadi
jitegemee
mwanahistoria
lima
lilo
liweze
wanatekeleza
wanamaji
anaondoka
##ines
umefanya
umeonesha
umepanda
##chuana
waliowahi
waliokiuka
febua
zik
zimenunuliwa
wameu
wamewasili
wamejitokeza
wamegundua
wamefikishwa
mswa
boy
bomoa
wakitaka
wakichukua
wakionesha
wakitokea
kuswali
kuuliwa
kuutambua
mtama
auto
##wiji
##wich
kokoto
bil
billal
##ngezana
##nel
mweka
mwekundu
##lubiwa
##lution
hodari
kufuatiwa
info
indust
##vitaka
kuiona
kuiwakilisha
kuirudisha
dozi
dominika
kimani
kimtandao
upp
kilianzishwa
inayoendeshwa
kujiendesha
kujiuliza
kujitenga
kutenge
kukaguliwa
kukauka
kumjua
kiasia
kiajemi
mkahawa
pase
paundi
padre
heli
hemed
heliko
hels
health
##umbaro
yalianza
zinahitajika
madalali
##ondoke
wanaozaliwa
wanaohitimu
soci
south
soweto
almun
##hosa
utd
utatekelezwa
utiaji
suzan
kuweko
uhusika
##pesha
##peana
aliyefanya
aliyeuawa
aliyemwakilisha
ker
##ulisha
yanaendelea
yanapaswa
jaribu
jason
jahazi
amin
kunaswa
buhari
wekeza
wepesi
repub
tezi
temba
tekno
mahara
kitawa
kanzu
103
shambani
zilizofanywa
hakikisha
gali
unyonye
kasanga
majuma
makumi
kusalia
kujina
##count
yaliyojiri
yaliyoandikwa
yaliyojitokeza
haipaswi
haijulikani
matofali
##ambaza
mny
kurasini
lilitokea
gera
kuhaki
zinazoshiriki
zinazopatikana
zinazotumika
yameandikwa
cop
code
182
kiujumla
##shuru
divisheni
dikteta
##vas
##valia
##vard
tunaelewa
153
158
159
utupu
kunambi
unaoanza
unaotakiwa
unaoishia
##fikie
##ambanua
asso
jumia
hayaja
linapo
linahitaji
linapaswa
johnson
##ghulisha
kitanda
148
133
138
136
vitanda
##cafa
115
kaijage
channel
162
caro
capita
hatiani
maombo
mchache
##angui
kikorea
atat
kusimikwa
mtahiniwa
##athibitisha
bilinith
kutumikia
kumekuja
nyeri
nyepesi
kimesema
stahili
child
mabweni
##ribbean
lililoandaliwa
lililojengwa
##llen
mahia
mwilu
uvumili
##wajima
huwafanya
ilemela
itv
zitapelekwa
marko
marry
mshama
kupeleleza
kupongezwa
kinachodaiwa
mitala
gib
kinywaji
wakimbiza
292
kupeana
kipawa
kipalestina
ndumbaro
vinavyotambuliwa
mahundi
aden
ujirani
zinatakiwa
gurisha
gurudumu
vol
voa
##katare
newcast
##jinsi
alimshukuru
hazij
inavyotakiwa
mashuhuda
##languzi
impact
##changanya
abdulla
sanduku
##logwe
aliiomba
amemteua
wahasibu
binyu
yanatakiwa
kuyafanya
##ishughulisha
kijapani
kushikamana
420
bukombe
uwo
linam
angeweza
amosi
ibra
vuguvugu
emmerson
arsene
mpasuko
alhamis
mdau
maghembe
1925
1922
##berto
haikuweza
kuepukana
kuchezea
wanayofanya
1933
1930
1932
mwendokasi
brig
cecafa
kingu
##stantino
hayana
kudanganya
kumwambia
alikozaliwa
hatamu
kuuaga
expe
mkenda
sinde
inatafuta
reactor
kuvamia
kurekodi
ulivyokuwa
harrison
minara
##hatisha
ameupongeza
mwinyimvua
الا
##qui
kubenea
njiwa
waliotembelea
makkah
osisa
valent
yatakayofanyika
mashimo
##kisiko
vidonda
luhwavi
camp
khalid
fatma
fatuma
##kimbiza
mshitakiwa
tandahimba
kikuyu
karim
zanzine
##llow
sabini
kusikitishwa
kimuziki
eric
venezia
##matwe
wa26
belgi
kyerwa
nkurumah
kuchuja
walionao
kolkata
galaxy
funzo
fundisho
##hangaika
aboud
efd
menyu
kiunzi
hamid
kuchangam
kuchanganyikiwa
mauritania
mauritius
mahiza
business
miembeni
palikuwa
burdur
siaya
##takhab
inatofautiana
sultani
andaliwa
wazanzibari
notisi
adimu
bwawani
samora
uungwaji
##скии
kutunukiwa
kapufi
kuulizwa
sharif
ugomvi
kitwanga
kuhudhuriwa
софия
enock
ukamilishaji
assad
pulitzer
hijiria
##husishi
jukwaani
rafael
medard
abraham
fatah
rambirambi
square
mipira
christian
lucas
utandawazi
unyevu
##dhulumiwa
bmejz
isemayo
ifakara
lyimo
kichwani
muammar
daqarro
kulindwa
tegeta
pentekoste
startups
komputa
mediteranea
adhuhuri
cristiano
ffars
khadija
rundiko
stakabadhi
smythies
sumbwanga
uendeshwaji
zlatan
migiro
miondoko
febuari
helikopta
almuntakhab
unyonyeshaji
uvumilivu
newcastle
zanzinews
aza
acha
ashi
ackson
bam
bis
bani
cel
dna
dida
dengu
ew
eb
ezra
fs
gan
gambia
gwajima
hindu
hans
ix
igo
itu
iga
isaka
itoe
iaa
jkia
kg
kinda
kishia
khati
lama
land
line
ldc
mng
mge
mziki
mshana
mlele
olewa
pon
play
phar
quo
ram
ris
rdc
sis
sti
swi
tia
tunge
uro
urug
uuaji
ukika
ureje
uzembe
ushirikina
vla
vane
wma
wingu
xia
zrb
иван
раз
##uz
##uta
##ugu
##ubiriwa
##idha
##iler
##ikumba
##zl
##zin
##ar
##aland
##wu
##wis
##wende
##ee
##est
##kro
##hra
##tendo
##tland
##pwe
##gg
##nb
##nis
##mishwa
##mpiki
##mchagua
##dl
##dt
##djan
##rp
##rda
##rta
##rko
##rena
##rmenia
##vation
##fy
##ffi
##fford
##ysi
##3a
##ас
##ль
##об
##ру
##17
##16
##ек
##xe
##°c
##ـنـتـ
walo
waje
wataji
wa10
wa11
##war
yakuwa
yawezekana
##lishwa
##lice
##lipia
kuote
kuzali
kudhani
kushiri
kuishukuru
kukinga
kuharibiwa
kugunduliwa
kuambukizwa
kuinoa
kuzeeka
##anisho
##anyesha
##atra
##athan
##atengenezwa
kwayo
##haria
nali
nazi
namu
nashauri
mav
make
mabali
machungu
mashirik
##inama
##india
##aman
##iagiza
##iss
##baba
##baji
##kiliwa
##kipiga
##kithiri
##rip
##ribia
##rikisha
##ries
##yong
##yoko
##tosa
##toroka
##dah
##tain
##takia
##tazamwa
##zard
##zayuni
##umza
##umoja
##umlisha
##kok
##kosekana
##yala
##yarishwa
kiwa
kiumbe
kiangi
kifanyike
kizayuni
##rau
##rain
##lawe
##laziz
##die
mwasi
mwasa
hiko
hilla
haw
##melea
##futiwa
##kes
##kera
##kelo
##tiye
##timuliwa
##hujumu
##faki
##faidi
huta
hutu
huongezeka
huamini
hutakiwa
huchukuliwa
husababishwa
mkuru
##enyeza
nitumie
badhi
bakwa
##hera
##aniki
kuwatu
kuwatoa
kuwatia
kuwapokea
kuwaleta
kuwaambia
kuwakaribisha
kuwatumikia
kuwafikisha
kuwahukumu
kuwakumbuka
kuwasajili
kuwafukuza
kutoingia
kutopatikana
kutokubaliana
kabul
mig
mida
mite
mienendo
laur
laure
lagos
viza
viru
vivu
vivi
vizuizi
##teria
##teketezwa
##goni
alikabidhi
alishukuru
alirudi
alitangazwa
alichunguza
alihamia
alizikwa
alimwakilisha
##iliana
##ilisika
##tuni
##tudo
##tulia
taw
tawa
tazara
taulo
tafri
##elewi
##elelezi
sedo
##uay
mutua
muingiliano
ilicho
iliingia
ilifanywa
ilikuja
ilisababisha
ilidaiwa
iliwasilishwa
ilihesabiwa
ilifunguliwa
##ref
##rezi
##revu
##chake
##shio
wanapiga
wanashindwa
wanafahamu
wanakabiliwa
##dos
##dokeza
##chie
##dhimu
sie
siman
sierra
akiishi
akitia
akitolea
akitembea
##pikwa
ameongoza
ametembelea
ameshtakiwa
ameambatana
amefurahishwa
walitumia
walinda
walikwenda
waliripotiwa
waligundua
waliondolewa
##lolo
##roma
inaa
inafuata
inaripotiwa
inajenga
inasimamia
inashirikiana
##pakua
just
##semary
ulicho
ulipata
ulipokuwa
##ficho
##unuaji
mwinuko
tuu
tuji
tuangalie
miale
##silisha
kamani
kambini
##ged
##gezi
##gezwa
##bec
matano
imechukua
imeongoza
imetoka
imekadiriwa
imekumbwa
taabu
nyam
nyanya
nyinyi
maasi
maafiki
unaongozwa
iliyoi
iliyopatikana
iliyoongozwa
iliyotumika
iliyotumiwa
iliyopigwa
iliyosababishwa
iliyomalizika
iliyounganishwa
iliyosainiwa
kamau
mwanaadamu
mwanazuoni
mwanadiplomasia
liwa
lione
live
lifuata
analo
anaanza
anaripoti
anakabiliwa
##andy
##andong
##andria
##umikia
shutuma
shuhuda
umeji
umeonekana
umelenga
umetajwa
umejengwa
umefungwa
umejipanga
mwanamitindo
waziwazi
mount
rukia
rufunga
rugimbana
walioketi
ujana
##mbela
zito
wamewekwa
wamepatiwa
wamebeba
wamelalamikia
off
ulioongozwa
uliopendekezwa
uliofadhiliwa
shekhe
bol
wakizi
wakipinga
wakilalamikia
wakitumbuiza
kustaa
kuuona
kuuweka
pima
pipa
mikoba
##wima
korti
##ength
majid
porini
usafisha
##lui
##luck
est
esther
##simisha
kufufuliwa
inchi
inatokea
inamilikiwa
##vic
kuitaka
kuipokea
kuikubali
kuizindua
akiwasalimia
##shop
dort
domini
doris
kimat
update
lus
luanda
##ener
inayokuwa
inayopakana
kujifunga
kujitambua
kujipima
kumtoa
kumzuia
kumsimamia
nditiye
mkangan
peru
pazia
mpatanishi
##sisimua
kiswidi
kulisha
joac
anu
ann
anywa
anfield
yalitolewa
yalifanywa
zinapo
zinavyo
zinaeleza
wanaomba
wanaocheza
wanaowania
solo
alat
alfred
waoko
itaweka
##ambui
utt
utani
uthamini
wakiwamo
suza
ukatibu
ukahaba
ukandami
mfuatiliaji
aliyetoa
aliyekua
aliyepewa
aliyehitimu
aliyejulikana
mabavu
shin
shandong
jar
rosa
rosemary
kunaonekana
ted
mahadhi
kanumba
benk
benin
ardhini
##lamashauri
##sos
##sota
##sanyika
shaibu
zilizopatikana
zilizotengwa
gal
gazi
gard
namshukuru
aims
protini
makungu
##yanyu
kutako
watalaamu
ridhi
rica
kujamii
kujinyo
watam
kukuzwa
kukusaidia
tumepata
##malizia
hawataki
hawaruhusiwi
det
desi
debe
deve
##mann
lilitolewa
ikionyesha
ikielezwa
kuteleza
kuteketeza
get
zinazotakiwa
yamesababisha
coun
colle
1800
kawawa
tunafanya
utunzi
##rts
vyuoni
jino
kuadi
kuabudu
kundu
unaom
yoga
hakusita
dharula
yanayotokana
123
128
124
1200
wakina
wakishu
##ambele
asta
kisaikolojia
hayawezi
mchumba
kitisho
kitambulisho
kitropiki
waadv
143
144
fide
fiesta
golf
134
vitendea
118
mbagala
303
islami
##mwambia
changu
ukomavu
level
161
169
cash
caribbean
252
kubahatisha
cheupe
179
##sishaji
haupo
kupandia
mtaro
mikumi
spishi
mvinyo
theo
zealand
wapendwa
##ids
kimefanyika
mazito
matai
kutungwa
starehe
chirwa
aliyoyafanya
##peleke
##ribishwa
1969
kileleni
stra
##entista
##juu
##jusi
##juzu
##urce
akimtambulisha
kushughuli
220
amewaomba
amewaagiza
402
utepe
utekaji
aliwapa
aliwaomba
akishu
tunam
kamilifu
tamati
minja
minyoo
hotelini
mlinda
makori
tls
kinachoweza
gitu
##iseme
##voc
290
kukopa
##nukuu
mzunguuko
kipapa
tutafanya
kihindi
ingawaje
trakoma
tracker
linaloweza
vinavyotoa
mahubiri
warumi
wareno
##rgen
##kisema
zinatumika
guang
fransis
##husiani
kususia
yatawasilishwa
ilipowasili
kibaya
watakavyo
kuelim
bondia
vera
veroni
vegas
mashua
kitila
343
kuchoma
##tambulishwa
geofrey
kenne
mail
upekuzi
albina
matembezi
itakayotolewa
taslimu
magogo
magodoro
wapigakura
hatuku
hatuta
##ания
mafua
link
mabodi
aliokuwa
consol
##ller
abidjan
kuamsha
umwagaji
1947
muasisi
##nyaji
ibm
emmy
480
ameitoa
brazili
kuheshimiwa
aliaga
##wood
##waagiza
utimilifu
asidi
##pitiwa
##dhihirishwa
##kanzwa
650
presha
uchoraji
fremu
fredrick
##ikoko
kupakia
kichawi
7000
shabaha
shabaab
kudhoo
##gunduzi
kuwaacha
wakikabidhi
minajili
##scus
kibofu
norman
flora
ulazima
amejiuzulu
الم
aliupongeza
kamwelwe
##dadisi
leaders
oscar
valley
valencia
vikiwemo
akimuonyesha
kireno
kisomali
ubinafsi
wafawidhi
huawei
mexiko
##lington
perso
itigi
mshitiri
sadik
sadiq
##angaziwa
akishirikiana
plugin
kujumuisha
alioutoa
ikisomwa
kimungu
##burudika
makonyo
kunyonya
alizitaja
mustafa
##unulia
kuchanganya
tarjama
kuisoma
##bayt
vifungo
kidole
innocent
prince
wanaotembelea
wanachuoni
maegesho
masanduku
masheha
masheikh
rohoni
clement
kyunga
oxford
wataalikwa
mikindani
khmer
wasiliana
hungaria
nicolas
network
louis
zuberi
afueni
ayubu
single
##rekodiwa
promosheni
kinawiro
complex
continu
cgfm
damascus
jizera
faith
mapigo
##didimia
wordpress
makongoro
##hcr
maanani
fabian
kinole
multi
ameuagiza
british
kisovyeti
malaysia
mwangosi
##fahamike
husein
nikki
laptop
kusuasua
italagwe
utendakazi
johannesburg
czech
iitwayo
tumbatu
nachingwea
serekali
##wandikia
associ
capital
maombolezo
binyura
ibrahimu
ewura
iaaf
ldcs
uruguay
vanessa
mashirikisho
hillary
bakwata
vivuko
tafrija
maafikiano
lionel
lifuatalo
usafishaji
mkanganyiko
joackim
kujinyonga
waadventista
veronica
consolata
azi
ahu
api
atoa
asim
akazi
aju
abas
aziz
atuka
bc
bhu
bamba
bmt
bangui
cp
cri
cong
ceni
cry
cdf
cpc
cath
dho
dende
dur
dpp
dsm
dream
ee
eka
ela
embu
eden
emir
fl
fb
fung
fatwa
gt
gn
gun
gunia
game
grid
hp
hwale
ian
iji
ihu
imenunuliwa
ifahamike
jon
kn
kı
kla
kone
long
lati
lwan
lunda
ming
manga
mindi
msho
mchumi
manii
mhitimu
mbunifu
mrema
mhubiri
money
nzi
nsa
nata
nzu
nju
nunge
nnau
oi
og
oro
ono
ones
omary
omog
pl
pk
pele
pua
pho
pongwe
rh
rmo
ramo
smi
sungu
tende
trt
tcc
tenki
tmz
uu
ushi
usim
uchukua
uunda
umalizi
ugunduzi
vumilia
wia
won
xa
xii
ал
ге
пл
مـنـتـ
##usha
##ufanya
##uatu
##upata
##iry
##itisha
##lg
##lya
##lation
##zli
##zatiti
##achana
##eda
##kino
##kishiwa
##kweni
##hisha
##hman
##tr
##tang
##glu
##ning
##cation
##mc
##sp
##songa
##jano
##deni
##ddy
##danganya
##dney
##rtual
##bn
##ben
##bilia
##vc
##vamiwa
##fti
##fishwa
##yyeka
##ли
##ля
##от
##ои
##ран
##79
##24
##66
##ие
##ед
##xon
##xel
##гра
##لش
##ان
##ديـ
wav
waya
wasu
wakwa
waende
wasia
wall
washindani
wafiwa
watumie
washitakiwa
waroma
##way
##wafikia
yaa
yab
yama
yatoa
yaendayo
##liana
##liano
kuk
kur
kukuwa
kudo
kulea
kuishia
kuhoji
kuandikisha
kufadhiliwa
kuangazia
kufanana
kuandamana
kuongezewa
kuvutiwa
kuishinda
kufeli
kujiajiri
##anwa
##anane
##atha
##hamiana
nar
naona
nakumbuka
mahe
marum
maongezi
##inki
##inism
##ens
##enta
##zishwa
##amrishwa
katani
##bag
##higa
##hivyo
##hibiti
##jiro
##jiondoa
##jikuta
##navyo
##kiukwa
##ric
##rica
##tok
##tonia
##town
##zarani
##uman
##kororo
##kosolewa
##yaona
kiama
kiatu
kimbi
kiita
kibiti
kizungu
kiwandani
##rar
##ray
##lab
##lawa
##lace
##laumiwa
##labs
##dikiza
##sitishwa
mwas
mwambu
hil
hiz
hill
hivo
##maanishi
have
hazito
hafai
halamashauri
##meja
##meshwa
##media
##fusi
##furushwa
##futilia
##futwe
##kesha
##tie
##tiliwa
##timia
##ties
##hur
##hura
##fas
##mungu
hufuata
huchaguliwa
huandaliwa
hujulikana
huzalishwa
zar
nie
niweze
bai
bafu
baru
bache
##hemeja
##aniko
kuwaza
kuwalea
kuwaandaa
kuwashinda
kuwafanyia
kuwatetea
kuwakutanisha
kutofuata
kutopewa
kutofikiwa
kutowajibika
kah
kap
kaha
kaba
kaju
kadhia
mivu
miujiza
lau
laha
##ojaa
vilima
vipele
virtual
##tesa
##tere
##tembelewa
mwakase
mwakalu
alimw
alipiga
alihitimu
alishika
aliwasilisha
alionya
alihitimisha
alilazimika
aliambatana
alifukuzwa
##kuwanga
##tur
##turo
tah
taf
tax
tafuta
##gaa
##gae
##eleo
##eleke
saikolojia
saanane
##ual
muwa
muli
ilipatikana
iliamua
ilitarajiwa
ilifungwa
##guni
##rep
##rej
##rex
##reti
##rut
##shion
wanako
wanapatiwa
wanalipwa
wanahistoria
##sel
##sem
##seaniki
##dhiwa
##dhibi
sikuu
akiongozwa
akitembelea
akidaiwa
akigawa
akiongelea
##onza
##onjwa
##ishindia
##piza
##pitwa
ameonesha
ameelezea
amekubali
ameitwa
ametangazwa
amemaliza
amekwisha
##ongolia
walilo
walihudhuria
walilazimika
##rod
##rome
##rote
inaelekea
inadai
inajiri
inaendeshwa
inakaribisha
inasababishwa
inawakilisha
##suka
##eona
rada
##panuka
ulimi
ulifikia
uliongezeka
ulitokana
ulikabidhiwa
##bic
##biko
##andala
##andalia
mwo
mwenda
##ingizia
##bot
##bor
##cheke
##chero
##ishie
tube
tughe
tucta
utaongeza
##vusha
##siliamali
davis
##geu
##gere
##bes
##bere
##bebwa
##dev
##desh
##deon
##otes
imeandaa
imeshindwa
imedai
imetakiwa
imelenga
imebaki
imepelekwa
imetekelezwa
imetangazwa
imeanzisha
imezua
imeondolewa
imekwisha
imepunguza
imegawanywa
imekamilisha
unaotekelezwa
iliyotokea
iliyokuwepo
iliyotengenezwa
iliyopitishwa
time
titus
##dufu
jifunze
maradufu
kupamba
wanate
wanatambua
anaingia
anaongeza
anaomba
anadai
anapewa
anafahamu
analipwa
anaruhusiwa
anafahamika
##umiko
##liaji
umeingia
mwanana
mwanyika
mwantumu
moa
modri
mobile
halina
rujewa
waliomba
waliotoa
walioingia
waliokwenda
waliojenga
waliomaliza
walioibuka
ferdin
fergu
masene
masry
zitolewa
zitokana
zitumike
wamekua
wameingia
wamefika
wameeleza
wameonesha
wamefanyiwa
uliopatikana
uliojitokeza
bore
bomet
wakiu
wakipo
wakienda
wakifuata
wakieleza
wakijaribu
kusamehe
kuutumia
kuuelewa
mane
mange
manongi
mikocheni
uwelewa
enter
kabumbu
ausse
##wiya
koti
kombo
koso
kort
koffi
pol
potovu
pogba
top
tosha
##luo
##luka
##lulu
hous
hoyce
hokororo
esta
##simishaji
insti
infor
inategemewa
kuitishwa
kuiendeleza
kuipatia
kuipeleka
kuipinga
kuitekeleza
leopa
dos
kimisionari
upatika
lucy
luhemeja
##jwaji
kilipo
##onekani
##enes
mbwe
inayoanza
inayolima
inayojengwa
inayopelekea
kujitangaza
kujijenga
kutana
kutanda
kukarabati
kumili
kumtembelea
kumtangaza
kumruhusu
kumsikiliza
kumtambulisha
kumrudisha
kumtafuta
chukua
zililipwa
kiada
mkato
mkanda
peres
pawaga
hewani
##umbavu
##sisiti
kulifanya
##hamika
jozi
jonas
anya
anuai
yalisemwa
yalibainishwa
ziarani
zinahitaji
wanaoomba
wanaopenda
wanaokuja
wanaokwenda
wanaotajwa
wanaotarajiwa
wanaofundisha
wanaojihusisha
wanaosadikiwa
soda
solar
allan
uhaini
kupitwa
fashion
##endela
utatoa
sur
ukali
using
jer
jecha
jeraha
mfungwa
aliyekaa
aliyevaa
##ulika
yanapo
yanafaa
yanajiri
sh4
shia
shtaka
jabir
roman
ronald
rorya
amenu
buh
but
weze
##zusha
rep
tet
kanze
107
106
shairi
zilizochaguliwa
zilizochukuliwa
zilizofikiwa
zilizochapishwa
profi
alipoteuliwa
unc
unrwa
unatumika
unatekeleza
unhcr
majo
##yany
##rugika
mbeki
kutarajia
kutawaliwa
kutahya
watalaam
riya
##cep
##cer
##cos
yaliyowekwa
yaliyoelezwa
yaliyotajwa
yaliyotekelezwa
yaliyowasilishwa
yaliyotengenezwa
haiko
haimaanishi
watat
nguvuni
nguvukazi
ufuasi
kukuta
kukupa
tumefanya
ukienda
ukimbi
hawapaswi
vitakuwa
mnunuzi
mnuru
ngarena
lilil
lilim
lilipo
lilivyo
ikitolewa
kuhalalisha
mgand
zinazom
zinazofanya
zinazoonyesha
zinazosambazwa
zinazowakabili
yameendelea
yamekuja
yamefikiwa
cover
##pus
##pur
184
kiuta
##nziza
atachukuliwa
##shusha
##rdam
dit
dio
diva
dimbani
##var
##dalah
tunawa
tunavyo
155
154
nestory
kuaza
unaotumika
yoweri
noti
nokia
majarida
129
kasiga
uraisi
urasimishaji
zimechukuliwa
zimetoka
kitambaa
okwi
131
akabidhi
akarudi
##cain
##cabc
wales
isis
isingekuwa
ilivyotarajiwa
ilivyoripotiwa
kurushwa
ukoma
ukocha
ukosoaji
##fee
##feren
matuta
##kumbuke
karama
nuk
kilichoelezwa
uadui
atatumia
kusiko
kusikizwa
malta
malunde
malala
mikunde
wosia
##rsk
spd
sawasawa
kimasai
##usco
zec
##ult
kumekua
anayefahamika
kimeongezwa
mabonde
mabatini
kumalizia
kuzitumia
kuzifanyia
aliyotoa
lililotengwa
vilivyoandikwa
stam
ukimya
##julishwa
kumuoa
mbogo
ikolojia
##cian
kushushwa
amewapa
kmkm
utakatishaji
##jumuiya
aliwaasa
chakechake
roboti
tulipo
kukifanya
motor
njoo
njovu
nilipokuwa
nyuso
276
tunu
##ccc
mlipakodi
kupokelewa
makoloni
kinachoendelea
walipoteza
zikionyesha
gir
giant
gideon
itakavyokuwa
##rks
vikapu
akikata
mlengwa
##andege
kitaasisi
ufyatua
machakos
train
##batizwa
ujira
##rudiwa
3500
zinatolewa
magembe
##monyoko
ninayo
ninacho
##fahamishwa
kusulubiwa
kalifornia
alimpongeza
##lindwa
kibaguzi
kibaoni
kalonzo
vero
901
albinism
uwaziri
kuoga
waliyoi
yanatarajiwa
yanatokana
salva
minnesota
ameaga
uwongo
uwingi
linatarajiwa
##jengewa
bancabc
aliofanya
msuluhishi
1946
##sterbay
kielektroni
481
485
elect
watakaokuwa
kivitendo
mtera
mtemi
aleks
1923
1928
1926
vyenyewe
common
communi
550
##berry
ign
youth
538
kijiko
mgaya
mgalu
##ения
ingefanywa
mont
monrovia
monusco
kuingiliana
kioseaniki
select
##herine
frede
kudhibitiwa
ulipoanza
angeles
mpenziwe
davido
660
kufunua
##chotea
kingunge
walimkamata
##rintho
berna
##ssion
twaha
##fuatiliwa
denis
densi
isala
tpc
inampa
ipate
rashidi
##unded
muslim
mbingu
850
mlowo
kurekebishwa
578
konstantino
vancou
vanuatu
wenzako
bahasha
walter
kiboko
1906
wamejipanga
tetekuwanga
unayotaka
kcb
opras
dhifa
mafumiko
vidokezo
yusufu
mabehewa
brow
kondomu
coastal
##аль
imejipanga
duale
uoto
##ная
unyanyapaa
itifaki
massawe
jenista
##patie
karibia
kukumbukwa
krismas
##tamka
##gree
##gredi
wakisalimiana
jamaica
flava
wa25
basket
pugu
wcb
halimashauri
sangara
paschal
ayatu
class
skafu
mwaipopo
##poratus
##ondaliwa
nassor
hunyesha
methew
qaeda
nimr
kaloleni
simanzi
kunyakua
tumeona
##kinzana
kuikataa
kitoweo
innovation
kinidhamu
kiniger
rwegasi
semalt
inakuwezesha
evance
lanka
sumatra
kichocho
kichocheo
bosnia
##ambatanisha
kasarani
##ingatie
sentigredi
kinyerezi
kingono
songambele
mirathi
mitungi
alimwagiza
modest
rouge
reading
kuharakisha
strength
kuchelewesha
kucheleweshwa
bunju
bangla
bangkok
dampo
econo
uondoshaji
haruni
##herekea
masoud
resort
kuchinjwa
bonaza
postikodi
democ
nanyamba
uzeeli
kakonko
mihadhara
alikiba
safarini
akwilina
##rtheid
chemchem
dhumuni
pacific
cyprian
damian
idodi
mmomonyoko
nkurunziza
kugawana
kiholela
kiganjani
ulinganifu
index
halmashari
ushetu
bursary
ufilisi
ahlulbayt
kyoto
краи
тря
##رملش
kapteni
akimuapisha
mwenezi
papian
party
beatrice
apartheid
evod
mumbai
uamsho
uonevu
vatikano
michigan
paseky
socie
gerald
kuchangamkia
dengue
quot
xiao
namungo
mabalimbali
laurent
sedoyyeka
simanjiro
dortmund
anuani
waokoaji
ridhiwani
kujamiiana
develo
kuadibu
kunduchi
astashahada
islamic
dhoruba
dendego
emirates
nnauye
uundaji
##град
kimbiji
mwakasege
modric
zitolewazo
zitokanazo
aussems
kosovo
institu
mnururisho
ngarenaro
ufyatuaji
konstantinopoli
vancouver
rwegasira
strengthening
a€
agu
aro
aweza
ast
adh
amuni
bwe
bana
bundi
ct
cre
ceo
css
cer
cnd
cleo
dm
dv
dri
drama
eat
efm
fumba
fener
funded
gwanda
gfe
gond
gcla
gwiji
hani
handa
hambu
iu
iq
ito
ikia
ithi
ikika
ingi
imp
imen
kya
kingereza
konya
kishiriki
kendwa
krc
lw
lg
lat
lamu
lisa
lame
mma
mfi
mine
mjerumani
myahudi
misheni
mchangiaji
mguso
mmari
mhamasishaji
nz
nb
nka
nja
ngi
ngeni
nbc
nfra
ou
ohi
ong
omani
ozil
pfa
pende
pendo
pss
pyong
qnet
qom
rs
rwa
rfi
span
sang
singa
senga
scan
swazi
spurs
tw
tpa
teng
tambua
tumbi
tindika
tambwe
ung
uwenye
uno
uzu
ukilinganishwa
uinjili
utumizi
ushoga
vazi
ws
xx
xin
yong
yumo
yona
не
св
сп
тур
كرملش
##uki
##udad
##ib
##ibika
##lfo
##llingi
##zh
##zza
##zni
##zun
##zwi
##ao
##apishwa
##afikiwa
##achia
##winda
##em
##evu
##ege
##kcho
##kwimu
##heni
##tenda
##tandika
##tishiwa
##theri
##tendea
##tathmini
##pika
##ppo
##pse
##pilia
##ghu
##gisha
##nz
##njo
##cle
##cte
##cilia
##cid
##mena
##mmy
##sheria
##skofu
##jumbu
##jishughulisha
##dya
##data
##dishiwa
##dhoo
##rı
##rator
##oo
##oka
##okia
##bane
##bino
##bandikwa
##blog
##bishe
##vidi
##vision
##ffo
##fatiwa
##yia
##yto
##yumba
##ут
##вна
##лад
##13
##27
##418
##ид
##ис
##ец
##чев
way
wabu
waume
walla
wacheza
wapanda
waendesha
watekelezaji
wapokeaji
##wal
##was
##waka
##wake
##wakilishwa
yaja
##kavu
##kamilishwa
##lik
##liweza
kuh
kuuma
kudu
kukana
kurefu
kuzia
kuzungu
kuathirika
kuumbwa
kuoneshwa
kuvaa
kuguswa
kuumiza
kuchunguzwa
kuchotea
##ante
##andu
##anunua
##atenga
kwale
##hafu
##halisi
navyo
nawapongeza
naishauri
##ikataa
mase
masimu
maumbo
mazembe
makwao
maishani
##kuti
##kumb
##ins
##enunua
##enburg
##zisha
##zimwa
##zitaja
katia
katandala
##iacha
##isri
##bazi
##bariki
##baguliwa
##jiwa
##najisi
##kiwe
##kilia
##rity
##yoka
##tone
##tabu
##zaro
##kozi
##kopa
##komen
##yaga
kiing
kichama
kizito
kihutu
##rabuni
##lav
##laha
##laho
##laus
##lavia
##lee
##lek
##leri
##lehe
##lega
##sil
##sie
##sip
##sian
mwama
mwambi
mwangi
mwavuli
mwatasi
##maliwa
##macy
##mashariki
had
habi
hazard
##mester
##fukuliwa
##kers
##tich
##tive
##tikisa
##fary
##bunga
husa
huonyesha
hupenda
huishia
hukaa
huingizwa
hulka
mkuya
mkulo
zay
zawa
zacha
zaburi
zahra
nipo
nicho
##salimu
##inikiza
bada
badili
bashe
baloon
##herehekea
##anidi
##anikwa
kuwacha
kuwaelekeza
kuwakumbusha
kuwachukulia
kuwakomboa
kuwabana
kuwashawishi
kutoelewana
kawe
mij
miami
mihuri
mibovu
mkoko
viu
vibe
vicent
vitega
##pong
##pore
##tewa
##teri
##tezwa
##tered
##teketea
##goza
mwakanga
alini
alienda
alikana
alionyesha
alihusika
alifanyiwa
alifungwa
alisimama
aliuliza
alihojiwa
alikabidhiwa
alifahamisha
alitekwa
alitunukiwa
aliachiwa
alinukuliwa
##ilika
##tuku
##tuti
##tukuza
##tundikwa
champi
taj
taya
taathi
tarangi
ta3a
##gali
##garia
##atazamiwa
##chinga
##elezewa
sas
saada
sacp
##anasi
##uakcho
muk
muwe
mush
muislamu
muhar
ilishiriki
ilipaswa
iliandaa
ilishindwa
ilitakiwa
iliongozwa
ilichukuliwa
ilikwenda
ilipangwa
ilibaini
ilianzisha
ilienea
ilizinduliwa
ilibadilishwa
##ingya
##gun
##reli
##amasia
wima
wizarani
wanawe
wanapokea
wanaunga
wanakwenda
wanahitajika
wanalazimika
wanajiandaa
##sei
##serikali
##sehir
##shtaki
##chikwa
##chimbwa
sit
site
size
sijui
##isifu
akiz
akitu
akitumia
akionekana
akiendesha
akibainisha
akifuatiwa
akimwakilisha
wakatekumeni
##ishwi
##ishangaza
##pile
amepelekwa
ametuma
ameokolewa
ametekwa
##ongoni
walitaka
waliwahi
walizaliwa
walikuwepo
walidhani
walipatiwa
walitekwa
waliuwawa
##lou
##lome
##rok
##rop
inai
inaenda
inafikia
inaongezeka
inaandaa
inahusika
inafuatilia
inafahamu
inastahili
inapunguza
inashauriwa
inakaribia
inaashiria
##pai
##pakiwa
##paganda
jurgen
##susia
##atimiza
##ends
rab
##panuliwa
umili
uliwa
ulileta
ulimaji
ulimalizika
ulizinduliwa
ulizuka
##bikwa
##fiana
##fikika
##fier
##fichuliwa
##andaji
##amiti
##unza
##unni
##unjo
tanki
mwingiliano
##isara
##mie
##mipa
afyon
##chelewe
##zetini
##ishirikisha
watulivu
utafanya
utachezwa
utapelekwa
##mboka
##gers
matre
matone
matumzi
##jembi
##kwani
imetumia
imepatikana
imeelezea
imeanzishwa
imefungua
imedaiwa
imejitokeza
taasis
taarab
makani
makafiri
##angaiko
maada
unaote
unaongeza
unapenda
unakuja
unaelezwa
unaathiri
unafuatia
iliyodumu
iliyopewa
iliyoitwa
iliyotangulia
iliyosambazwa
iliyoboreshwa
##wans
##wanufaisha
tito
till
##duliwa
##dudu
mwanachu
liwali
lipuli
kupatia
wanatoka
wandishi
wanyonge
anazungumza
anaelekea
anacheza
anawajibika
anakumbukwa
##choka
##andamwa
sikuweza
umechukua
umeweka
umeleta
umepewa
umeelezwa
umeandaliwa
umetekelezwa
umepelekea
umeibuka
umefunguliwa
umesimama
##chuzi
monica
halikadhalika
rut
ruwa
rube
waliopiga
waliokosa
waliotoka
waliokuwepo
waliohojiwa
waliofukuzwa
waliojumuika
walioalikwa
fern
ujambazi
masumb
##atuzi
zipi
zikis
wamezaliwa
wameajiriwa
wamepangiwa
wamepoteza
msonde
msange
uliofanya
uliopewa
uliokuwepo
uliojumuisha
ulioibuka
bor
bob
bolt
wakiya
wakila
wakionekana
wakitembelea
wakiandamana
kuufanyia
pic
manjano
ente
##wiy
kota
koca
koica
big
##engua
posi
usak
mapengo
##kiaji
meela
##keleza
ukufunzi
tou
toa
tok
tor
too
tour
toyota
##luk
##lus
espe
kufuga
kuitembelea
kuifundisha
kuiingiza
##atozwa
##atofautiana
akiwakilisha
akiwasisitiza
##yula
##yusa
##angamia
doping
doreen
dowans
kimondo
kimbunga
upungu
kilari
lub
lusaka
luteni
hadith
mbonde
inayotumia
inayokua
inayoelezea
inayotajwa
inayofahamika
inayosimamiwa
inayotozwa
kujifanya
kujikuta
kujiongezea
kujikimu
kujitetea
kujikwamua
kutangu
kutwaliwa
kutanua
kutamka
mwishowe
kukasi
kukashifu
kukaimu
kukadiria
kumpo
kumshauri
kumshambulia
zilio
zilionyesha
zilisababisha
zilitumika
kiarmenia
mkata
mkate
pep
hatakuwa
hatahivyo
##nold
paja
pauli
hekari
mchepuo
kisumba
kisanii
kistaarabu
shija
shillingi
kulipiza
kipenge
ant
zinakuwa
##ondosha
wanaoshiriki
wanaojitokeza
wanaopinga
wanaostahili
sol
som
some
sout
solution
fuku
fuata
fulana
future
uhamaji
uhariri
kupikia
##hofiwa
itashiriki
itacheza
itapelekwa
##stine
awards
kusinimashariki
jere
##pewi
wafanyaji
wafanyabishara
mfupa
aliyepo
aliyesema
aliyefanikiwa
aliyebobea
##uliwe
yanahitaji
yanakwenda
sh8
shati
java
javier
jazz
jaffo
jafary
kikali
bulu
wei
wetangu
wekundu
week
##tiago
rex
refa
tel
kante
arena
105
109
##som
##sogeza
zilizomo
zilizotokea
zilizoelezwa
zilizosababisha
zilizoandikwa
zilizotumiwa
##ratius
hakija
alipoingia
alipozaliwa
alipongeza
alipoteza
alipotafutwa
mwanamama
undugu
bee
##wasiliana
##wasilishwe
major
utekeleza
##haribi
##iwakilisha
kutafiti
kutaleta
kutafutwa
watai
##cela
##cess
kujisaidia
yaliyosababishwa
akish
kukuzia
kukusanyika
##twaji
##twaliwa
milion
ukiongezeka
hawafai
dec
demokrasi
degree
##manini
##vez
mnyika
mhando
ikitokea
kuteketea
kutembelewa
mgana
mgandi
zinazoongoza
zinazohitajika
zinazozalishwa
zinazoikabili
malinzi
yameonesha
yameshuka
coo
colli
wadaiwa
kiuchu
kiutumishi
##guay
##jombe
atakutana
atarudi
atazindua
dimbwi
##vasalatok
tunasema
tunaanza
tunaingia
tunapaswa
tunakwenda
vyura
next
kuasi
kuagwa
kuachishwa
kunyanya
kunyonyesha
unaofuata
unaohusu
unaoonekana
unaohitajika
unaozingatia
unaokusudiwa
hakupatikana
dharr
nou
noah
nouakcho
yanayofaa
yanayozalishwa
kujaa
ndejembi
zimefanyika
zimefanywa
zimejengwa
##inufaisha
##layhi
hayapo
linasema
wakurdi
##andizi
##andike
##sababishia
waadilifu
fir
fikira
step
stein
steve
stesheni
steroid
137
akapata
mbappe
abba
abri
abdalah
vilio
isinge
##boreka
2500
nyavu
kids
ford
forex
mawaidha
limeendelea
limechukua
karbala
kilichoko
kilichoongozwa
kilichoandikwa
yuan
ualib
uarabuni
kinyu
kusita
malalam
##kuruhusu
kushangazwa
##stian
kitui
kitunda
##ssen
##sson
spc
##lyn
kimara
kimahaba
isio
kufahamiana
kufahamika
##eski
anayetaka
anayefaa
kimeshuka
mazizini
mataji
matapeli
215
apate
chil
chiba
amaba
kuziona
kuzifuata
kuziingiza
kuziwasilisha
aliyoya
kibengu
mtonga
waswahili
lililotolewa
misikiti
##kubaliki
kutimia
##llang
vilivyoko
majuto
akimtaka
mbogwe
230
mashia
amewashukuru
amewaambia
amewaonya
amewateua
263
266
aliwasisitiza
aliwaagiza
##wadiwa
tulizo
njoro
##dhibitiwa
jakarta
itam
itatumika
itatangazwa
zitaweza
zitaanza
zitahifadhiwa
masaibu
288
akisumbuliwa
ushambuliaji
vimeripotiwa
minyororo
tatili
kuchapwa
hamisa
##shere
kinachoitwa
ikaendelea
##swaliwa
zikitolewa
gil
gift
itakavyo
walawi
heshimu
mlandizi
azza
wahisani
mahututi
##rgy
manufa
kulelea
utakaokuwa
##pendeza
wakimtaka
wakimfanyia
zinatumia
ninaweza
1953
1955
duce
##katazwa
##zimkazi
rasilimaliwa
alimtaja
vikombe
ugavana
akisalimia
akisaidiwa
##hemasi
idlib
idrissa
watakapo
nimepata
nimeona
vision
abdullah
santiago
kuchoka
kuchota
aliitaka
aliichezea
kharto
amempa
uwakala
kuogo
kuoana
kuorodhesha
waliyoifanya
physi
sallam
kijadi
wasaa
linatoa
linatakiwa
aliowa
380
yasio
ajto
1941
1944
allaahu
amour
vuga
visasi
ameiomba
uhamishoni
nanyi
##ова
kubuniwa
720
##waalika
maganzo
mtetezi
utimamu
##pangia
comment
commer
##banduliwa
##lazimishwa
kisemi
533
532
##furahisha
utaalam
4000
##ент
wanayoishi
1938
usiozidi
abubakar
uchomaji
walivyokuwa
petersburg
kupasuka
eacc
edin
orengo
orlando
ciudad
uokozi
kufunuliwa
menejiment
inatumiwa
maribe
jubilei
anayoi
hijri
muhanga
mapadre
haitaweza
032
710
460
swalah
inapokanzwa
inamtaka
trl
kitete
1911
kushawishi
##kunywa
##kunjombe
walizokuwa
inatazamiwa
##орд
##орги
kuvua
##safishwa
alizozi
konferen
##tenganisha
##tenganishwa
harry
harvard
bahar
kamerun
issah
mwamvua
msoga
mkwaju
paroko
uvunjwaji
danieli
##wski
kubana
kubonyeza
##pesile
opd
viovu
augustine
generali
management
mavunde
wilson
wilfred
wajifunze
wajitokeze
##tunuku
mwenzako
imejiweka
kufurahishwa
abdillah
ikishiriki
929
msekwa
mccain
swalla
wwf
##sikitika
miombo
860
1885
##usurika
mabwana
murkomen
uchan
uchenj
nakushukuru
##bahce
828
spect
##sunzu
theluji
alioufanya
uenezaji
ueneaji
##ddah
utakapokamilika
scholarships
litakalofanyika
ecobank
wanatafuta
wanataaluma
kulazimika
kilangi
kustahili
kolumbia
kukatwakatwa
atomi
faustin
ocd
silika
bakteria
pascal
mjuzi
skauti
##rdon
##ург
wajuzi
paraguay
fadhila
columbia
kwimba
##thee
##nyima
##umaniwa
parseko
unfccc
kunyakuwa
internship
planrep
##graph
evans
filikunjombe
ombaomba
´azl
malecela
mwakipesile
masanamu
rohingya
techno
click
swt
germain
kitakachokuwa
central
##ские
##kamati
hungary
kapozwa
kupuuzwa
rouhani
haitoshi
##shughulikiwa
kutunuku
klopp
rhodes
uondoaji
##jensia
kinawilo
orion
olympiki
##ные
kuchinja
view
tanzanite
uchakataji
##someka
assump
nanyumbu
tipster
billioni
dorothy
madagascar
kunukuu
##landoto
zilizotanguliampango
luninga
trekta
##sindikiza
kubebea
amemwagiza
premier
deogratius
smartphone
bwire
##pumzika
mwangwi
holdings
regional
barnabas
alilolifanya
catherine
kinuklia
pink
prisons
teolojia
##pumzisha
kuilinda
##heshimika
##lovakia
luhaga
heart
jawabu
cornell
ucheleweshaji
kishirik
lwakatare
mjumuiko
oysterbay
people
snapchat
kuendeshea
segerea
kutengeza
uwoya
karimjee
fsx
khatib
uropa
иванов
midahalo
mitego
laurean
ukandamizaji
getru
kushughulikiwa
congress
jonathan
onesmo
tccia
uchukuaji
георги
##kinolojia
##ديـات
wallonia
marumbi
mwambungu
mivutano
mwakalukwa
ferdinand
ferguson
maseneta
houston
jersey
wezeshi
profile
##yanyua
riyadh
nuklea
ignatus
isalalo
bangladesh
трявна
society
amunike
cndd
fenerbahce
gondwe
hamburg
pyongyang
singapore
swaziland
tindikali
uwenyekiti
##jumbura
yajayo
masimulizi
mwakangale
taathira
tarangire
ta3ala
kocaeli
upunguzaji
wetangula
mgandilwa
nouakchott
ualibino
rasilimaliwatu
khartoum
konferensi
uchenjuaji
assumpter
1st
820
aika
amu
agi
alu
ajiri
area
abel
afua
alas
aendelee
aondoke
adhimu
bsc
cw
cf
cia
cba
cru
curi
dt
dili
donge
dondo
date
djuma
dfid
eta
emba
fungua
fdd
fatima
fdl
gwa
gla
gate
git
gram
glasi
glas
gmail
ij
io
iy
isha
iata
iru
ict
ican
ituri
jengine
kt
kv
kra
kind
kinge
ll
lh
lte
linge
myo
mum
mya
mish
mvi
mumia
mcc
mys
mzuka
mzizi
mzungumzaji
m23
nt
nc
nza
nti
nano
nino
nongwe
nkinga
nandy
niseme
ow
oka
ochi
odu
ongo
our
ozoni
opong
pd
pweza
rt
ryan
rco
rambo
sr
spa
sami
sky
skeli
tin
tsa
tamu
tato
tony
tisini
tren
txt
uza
uisho
uungu
uchezaji
ufe
urea
uzao
uingizwa
usimamia
vena
vinu
wb
wmo
winga
zel
zungu
ан
гв
гр
ин
ка
кам
ли
пер
чер
ям
##uf
##una
##uona
##ugua
##iz
##ip
##ig
##iki
##ila
##ime
##ibwa
##iona
##ild
##lp
##lı
##luni
##zhou
##adhi
##eter
##esar
##kr
##kri
##king
##keni
##hma
##tat
##tin
##tina
##tishwe
##pend
##punga
##pton
##pberry
##gini
##gumizi
##ganaji
##nju
##nywa
##cles
##ctic
##mtaka
##mjua
##shuri
##jishindia
##din
##ddha
##rong
##rmo
##rlu
##ola
##oga
##bru
##bishi
##bisho
##batiwa
##visha
##vania
##fat
##fumb
##fsishwa
##flika
##ywe
##yungi
##аст
##ланд
##ок
##90
##ман
##гор
##را
##зов
##اب
##ър
##عـ
##ـم
wa1
waba
wati
wago
washi
wapan
waanza
wael
water
wahifadhi
wajua
wabaya
warembo
wapewe
watoro
waonekane
walanguzi
##wata
##wahusu
yawa
yani
yaliwa
yaanza
yasin
##kaya
##kale
##kane
##katisha
##like
##lini
##likuwa
##lishe
##lity
##light
kuria
kuenzi
kuzalishaji
kufunza
kuvuma
kuhitajika
kusemwa
kuathiriwa
kuratibiwa
kuongelea
kuamuliwa
kuridhia
kumaanisha
kugeuza
kuenguliwa
kugundulika
kuingiwa
kuandama
kuhatarisha
kudidimia
kwania
kwandikwa
##habiti
nay
nacho
najua
nashukuru
nakisi
nawima
nacte
##ikakati
maki
malo
maro
maang
madhimisho
##kuku
##kulu
##kutoka
##inzi
##insu
##inste
##ente
##enkro
##zitaka
##ziaji
##zidisha
##amoja
##amsha
##amriwa
katka
##bau
##bad
##bavu
##back
##baikoko
##him
##jifungua
##jitegemea
##nasa
##naswa
##kifu
##riba
##ribisha
##yoma
##yonyaji
##toshi
##tomo
##tokomeza
##daa
##dak
##dadi
##tas
##tare
##umta
##umua
##ngani
##kor
##kora
##kola
##kopta
kiri
kium
kifi
kiche
kiliwa
kies
kivin
kihamia
kizui
kidugu
kibarua
kiambat
kizimkazi
##rak
##ra418
##lastina
##diriki
##diriwa
##dimir
##yes
##yeko
##lelewa
##sidi
##sikilizwa
mwazo
mwalim
mwamoto
hichi
hiyi
hills
hiporatus
##jawa
##jaza
##jaliwa
haro
hasan
hart
hahukumu
hajui
hakina
##mera
##fuku
##fufuka
##fufuliwa
##keze
##huu
##hushwa
##fasili
##muomba
##muuliza
##welu
##welewa
##bury
huji
huweka
hudumu
hujitokeza
huwasilishwa
hujenga
huchagua
hupelekea
huhesabiwa
huathiri
hutofautiana
mkungu
##zona
##zora
nica
nimon
nitoe
niombe
##saa
##sas
basha
bapa
balama
##aniva
kuwang
kuwafi
kuwafuata
kuwatembelea
kuwataja
kuwakata
kuwarejesha
kuwatambulisha
kuwarudisha
kuwatafuta
kuwasalimia
kuwapunguzia
kuwaondolea
kutofikia
kutoamini
kutofanikiwa
kutotangazwa
kutoshana
kutowasilisha
kutojihusisha
kayo
kaza
kasha
kadhi
kabo
kasim
kasisi
karamu
kafara
mianzi
mizuri
mihula
laa
lager
lazio
lazaro
mkopaji
vitano
virefu
vitokana
viunzi
vigae
##point
##teo
##tema
##tech
##teketeza
##gow
##goo
##goya
##gongwe
alijibu
alichukuliwa
alijua
alizindua
alijaribu
aliamuru
alisifu
alirudishwa
alifichua
alisimamishwa
aliachiliwa
aliyataja
alimalizia
##tusi
chagua
chagongwe
tala
taca
taswa
talan
##chan
##chuma
##elerator
say
saidia
sapoti
##anao
sex
seba
seth
seven
sessi
secon
204
209
mue
muka
muhuri
must
muhusika
mundu
iliku
iliongeza
iliweka
iliongoza
ilipiga
ilichaguliwa
ilipewa
ilicheza
ilitumika
ilifikiwa
ilitekelezwa
iliingizwa
ilianguka
ilizua
baaada
##gui
##gur
##guza
##gula
##gubikwa
kutokaa
kutokata
##reto
##resa
wifi
wiper
wiyani
##chari
##chafua
##chawene
##rushia
##ungwana
##ungumza
##shida
wanafu
wanavi
wanaingia
wanafika
wanaonyesha
wanaeleza
wanaongoza
wanachangia
wanapewa
wanahusika
wanaccm
wanashirikiana
wanadiplomasia
wanablogu
##sera
##doo
##dozi
##dokezwa
##shtua
##shangaa
##shumta
##chilia
sikuwa
siro
siwezi
akiv
akifundisha
akionyeshwa
akihojiwa
akihitimisha
akijiandaa
akiwania
akipambana
akitumbuiza
akitibiwa
akimpatia
##onja
##once
##ishano
##picha
##pitika
ameku
ameki
ameshiriki
ameshauri
ametolewa
amefikia
amefika
amefanyiwa
ameondoka
amekufa
ameteua
amekabidhiwa
amehitimisha
amefukuzwa
amehamishiwa
amefichua
amewasihi
waliamini
walipaswa
walifanyiwa
walikaa
walipigwa
walijaribu
walihukumiwa
walikimbia
waligoma
##rol
##rodhani
inapita
inapokea
inarejea
inajengwa
inaanzia
inaangazia
inashughulikia
inaitaka
inahimiza
##amuwakilisha
##dhaan
##bwaga
##sukumwa
##atie
##atiki
raj
raza
rage
rachel
##pantok
umita
ulim
ulipa
uliingia
ulipokea
ulifika
uliongozwa
ulitangazwa
uliondaliwa
ulimboka
##vyofanya
##bit
##fichwa
##amie
tank
mwin
mwungwana
##isahau
##mic
##gida
afc
##bok
##zekwa
##fanywe
tui
tut
tupa
tukuyu
utachangia
utaleta
utahusisha
utapunguza
utasafirishwa
##vuja
##umaa
##silimu
dari
dakta
daud
daghe
dakar
##geyo
matan
matambi
kuhujumu
##mos
imefika
imechukuliwa
imeandaliwa
imekabidhi
imepangwa
imezidi
imejaa
imejenga
imepelekea
imetengenezwa
imethibitisha
imefunguliwa
imehifadhiwa
imeagiza
imefuzu
imewekeza
imeahirishwa
makahaba
makachero
nyamu
nyami
nyanga
nyange
unapita
unafaa
unaongezeka
unaamini
unachangia
unaleta
unadhani
unabaki
unashauriwa
iliyohusu
iliyotakiwa
iliyohusika
iliyohusisha
iliyotumwa
iliyotengwa
iliyozinduliwa
iliyoharibiwa
iliyohudhuriwa
kamari
tit
tim
tib
tian
tille
timela
##dus
jib
jiunge
mwanajamii
mwanahalisi
life
liber
lipesi
libere
kupungu
kupingwa
kupindua
wanatu
anako
anaenda
anashiriki
anafaa
anapiga
anakubali
anashtakiwa
anastahili
anahukumu
anakumbuka
anashikiliwa
##chomwa
##umizwa
umeu
umeongeza
umewasili
umechangia
umetokea
umeongozwa
umepanga
umezidi
umeongezwa
umetengenezwa
umepangiwa
##chukia
haliwezi
rub
rudi
rukuu
ruth
walioweza
walioanza
walioweka
walioshinda
waliobaki
walioajiriwa
waliostaafu
waliobobea
ujumu
massi
masista
##mbeza
ziwe
ziwani
zichukuliwe
wamepita
wamechukua
wamehitimu
wamekuja
wamepanga
wamekaa
wamepungua
wamebaini
wameondoka
wameanzisha
wamethibitisha
wameruhusiwa
wamelazimika
wameahidi
wameungana
wameambukizwa
msami
mstakabali
uliona
ulioisha
uliosababisha
uliotokana
uliotengenezwa
uliochapishwa
uliojikita
uliozinduliwa
uliozuka
shekala
shekifu
sabas
bosco
body
boute
wakiume
wakirejea
wakipelekwa
wakichagua
wakijadili
wakibadilishana
wakilalamika
kusambar
##ishwaji
kuuwa
kuuzindua
uchapaji
mthamini
manzuki
ende
auck
##wiri
kobe
korongo
kombora
kolandoto
bit
biote
majipu
poac
poyn
mepi
mede
mezani
metho
meksi
mererani
mweupe
mwepesi
jambazi
##kelezo
tochi
total
##lut
hou
esd
##pitali
kufutilia
inclu
##vita
salaa
kuiomba
kuibiwa
kuifungua
##atollah
##gharibi
akiwataka
akiwapongeza
akiwakaribisha
##angan
kimatiba
upl
ups
upishi
upatu
upweke
lugano
kilima
kilivyo
kiliandikwa
##lamuun
mbia
mbatia
marek
inayohusika
inayohusisha
inayohitajika
inayozingatia
inayotambuliwa
kutathimini
kutambaa
kuthubutu
kukanya
kukasimisha
kukaribishwa
kumtumia
kumchukua
kumhoji
kumtaja
kumwakilisha
kumchapa
kumchukulia
kumsalimia
zilisema
zilishiriki
mkamilifu
##noa
papua
pallang
pareto
mpu
shilling
shifti
yes
kulifanyika
kuliona
kulitokana
kulipuka
joe
joho
kipenzi
anate
yaliongezeka
##kiona
zinafanyika
wanaofaa
wanaofanyiwa
wanaopatiwa
wanaojiunga
soya
sosa
sost
sokwe
solai
fully
algori
##hofu
##hodhi
##gondogo
fau
itapokea
itaongozwa
itawezesha
itaruhusu
itawezekana
itachezwa
##walaumu
##ambue
##amburu
##ambulia
##sts
uthabiti
wakiwania
sus
sudani
award
awamata
uswizi
jeuri
##pea
##pembe
##peran
aliyeko
aliyeweza
aliyeshiriki
aliyefika
aliyeongoza
aliyedai
aliyehusika
aliyemaliza
kijo
kijumla
keko
kevin
kebs
##ulizia
yanafanywa
yanalenga
yanafanyikia
mtungi
sh6
roel
roketi
amini
kunasa
kunakili
kunaleta
kunasababisha
kikanisa
bura
bubu
bucha
busunzu
bujumbura
wembe
wester
##uzilia
resea
revie
msahafu
temp
mahaba
kitalu
kitafanikiwa
kitashindwa
hukutana
##bart
##bard
kane
kanye
bena
##els
arua
archi
armenia
msigani
shah
share
shabani
zilizoshiriki
zilizofanyiwa
zilizotajwa
zilizojengwa
zilizosainiwa
##ratic
hakimiliki
gay
##tolewayo
provin
propaganda
alipokua
alipokelewa
unyi
unyama
unatoka
unatajwa
unusu
unategemewa
unamalizika
kass
kasri
kassimu
kaswende
besi
##kwea
##kwepaji
makuhani
##yange
##barak
kutaku
kutaongeza
kutawazwa
watakiwa
watarajiwa
watajadili
##unguru
river
kujika
##coba
##cord
yaliyoko
yaliyotengwa
hairuhusu
watatoa
watatumia
wikilea
wikimedia
ufukara
##inywa
tumeanza
tumeingia
tumeshuhudia
##forum
ukichukua
hawali
hawaamini
hawafahamu
dete
##dhinishaji
raspberry
mgombe
##thy
mhina
ikifanyika
ikitumiwa
kuteka
geer
gepf
##shindikana
zinazotumia
zinazoingia
zinazochukuliwa
zinazoendeshwa
zinazosimamia
zinazostahili
hapakuwa
malik
maliki
yamesha
yamefanya
yametokea
yamekamilika
cocon
codes
kiulaya
##changani
ataingia
ataamua
ataruhusiwa
##shushwa
dik
diyar
##val
tunau
tunakuwa
tunalo
tunapata
tunashukuru
##terani
nev
nepal
nepad
kuasisi
kuakisi
kunam
kunatoa
kundy
kunyang
##anes
##aneli
unaowa
unaoongoza
unaowezesha
unaoitwa
unaohusiana
unaotarajia
hakufanya
hakutaka
dhaka
dhamiri
dharau
now
noel
northe
##fikiriwa
yanayopita
yanayodaiwa
madda
madrasa
121
wakin
wakongwe
##rakano
zimepatikana
kisare
ndovu
ndogondogo
##inuka
##inuliwa
jumwa
hayahusishi
beirut
waache
mpiganaji
sitaki
fil
fid
fiti
goo
gora
gofu
goliki
gombani
gordon
##yima
vitend
mbaga
307
305
abna
mise
misr
ukoko
led
lewis
165
1600
##leaf
caesar
ngombe
251
##engenezea
usikivu
hatimiliki
nyaya
nyarugu
zoo
ulevi
upole
forodhani
174
magurudumu
mchapa
limeleta
##angushwa
karanga
##rejee
hauj
kilichowa
yugos
nduguti
kupanuliwa
kupangiwa
kinatoa
##ristu
atatoa
atatangazwa
mtawa
2026
sokoto
##lair
##biliana
ugatuzi
theme
themanini
kimas
kimazingira
kifuru
zebaki
kumetokana
ubaba
ubaya
kufaidi
kufaulisha
kigosi
anayeishi
anayechaguliwa
kimewa
kimetoa
kimeanza
kimepungua
kimetengwa
matashi
kutulia
mbioni
mbigiri
staili
chief
mabishano
kuzimia
kuzipatia
kuzisambaza
aliyoweka
aliyoyapata
kibingwa
lililopita
lililofanywa
kutikisa
kilemba
vilivyomo
vilivyodumu
stika
stend
status
mikali
kikemia
ikuti
##hamad
kumuumba
kumuwezesha
kumuokoa
akimpa
akimpokea
akimshukuru
mbogambo
mbomipa
235
##cio
##cion
kushuku
sauna
nusura
amewatoa
amewaasa
##tokayo
##diola
utakamilika
wasiojua
wasiozidi
wasiomjua
##rahis
267
262
mnaweza
mnasaba
hajawa
choya
angalizo
tulip
kukicha
agrey
agrı
migomo
migongano
nilio
nilifikiri
287
litaanza
tunza
tunatarajia
tunatambua
market
mshale
##vunjwa
kuchapa
kidemo
kufidia
kamishina
mliyo
mlingwa
##llip
kupoza
kupotosha
saranga
##tumii
kinachohukumiwa
##julikanayo
ikaanza
ushujaa
walipoanza
zikiendelea
zikichukuliwa
itakapokuwa
##tonyama
298
kukomaa
310
walaji
english
##hitajia
vipuri
mlengo
mlandege
##nufaisha
##nufaika
azzan
unit
ukiwasili
wahindi
wahispania
maambukizo
akilini
akilipwa
sym
##lwale
##lwakil
linalosababisha
vinavyotumika
andika
andrea
utakaoanza
##rudie
zinatarajia
zinatumiwa
odunga
france
franco
ninapenda
jenereta
ramadhaan
yakifanyika
kusudio
kusukumwa
##myr
mwangalizi
##hesabika
yataanza
yatasaidia
vikongwe
hazita
barro
idris
watakatifu
inavyoonesha
##changanuzi
abdulwakil
santa
uidhinishaji
kandokan
aliiambia
khaled
khalwale
arafa
albam
uwajibu
matekelezo
makhalifa
yanatokea
kuyafanyia
likiendelea
samson
magomeni
hatuja
linatokana
mabosi
mabovu
iliofanyika
326
wachawi
kimojawapo
udart
udadisi
kiroma
ahma
msuva
##rono
##fanyiwe
1942
angekuwa
angelina
katoro
zitakazokuwa
zitakazotolewa
madudu
maduhuli
ibnu
emc
emma
kieleki
alivyoweza
eletroniki
kutokuona
kiev
##limishaji
watakaopata
725
mawese
aliacha
shamte
shamsia
mterem
##stor
##stone
1929
francisco
igf
igra418
kisera
kijitonyama
haikuwapo
##komesha
##pitie
action
account
sweda
435
434
##azimia
scand
1935
1936
wakisherehekea
abuja
premia
matiti
##fikirii
walivyofanya
walivyokutwa
ulipoanzishwa
mdomoni
obrey
varis
520
641
udhalimu
kufy
kufumaniwa
edson
eddy
hawakupata
##рав
##рат
##ların
mwakyusa
zikiwamo
zikiwasilishwa
##sahaulika
inatangaza
marie
##isimama
##isimamiwa
610
hayata
##idhin
uliyopo
kumwachia
uongofu
isack
anapohamia
alexis
440
blood
kuwaasa
kuwaapisha
630
777
775
usukani
kushamiri
pantone
waigizaji
waiguru
dcb
##hakikishe
chenyewe
830
##dishe
880
aau
##tengana
wamat
wamisionari
dadake
1901
1905
atakayekuwa
arizona
ameutoa
ameutaka
kamuzora
ghushi
unayoweza
870
akiahidi
ungekuwa
havija
alimueleza
alimuwakilisha
leap
740
oslo
sunni
##wazisha
wanazofanya
wanazozifanya
akimuelezea
akimuwakilisha
denice
denizli
quebec
kiimla
kirumi
augustino
##karabatiwa
mafumbo
willy
wilshere
school
msalabani
##оль
##endanao
camon
stoke
store
duara
ikisa
wanging
##dhalilishwa
taiwan
muitikio
faradhi
ttb
tandari
kikurdi
rahaleo
zilizotanguliau
canter
uanzishwe
##pingana
sadifa
sadick
anavyoweza
tuliyonayo
973
naipongeza
alilotoa
upatanishi
camera
gumanga
mlaji
usevya
##lication
kujumuishwa
##thibitika
wakisaini
ikisema
jamaika
mjasiriamali
##baila
hafidh
wa24
kimiujiza
basata
anawatangazia
nkurlu
tenisi
##russia
kustawisha
tunaposema
accelerator
##rdian
integ
ashatu
ashanti
athuman
function
kukariri
kukaribia
ayatollah
abou
mjinga
troika
kiuno
anauwezo
hamidu
uyogo
##kimweri
vipodozi
rocks
greenwich
scotland
version
kiluwa
kilugha
kilutheri
vifupi
diego
amemuomba
uzamifu
stanley
##ndikano
sinai
washambuliaji
bahrain
inakupa
https
´alayhi
kuzorota
malema
kutengua
akothee
kuinusuru
sifuna
helkopta
backlinks
centre
dhulma
ingia
samoa
kuwatakia
kapologwe
amezitaja
melbour
gaspar
product
##shughulika
zubeiry
dameski
klose
lyaniva
zhyto
##tatiza
kuelezewa
mailimoja
peace
kutumbuiza
freeman
kuripuka
jizerou
project
##malizie
matetemeko
grande
lenin
mlemavu
марк
##damina
lawrence
mangula
upuuzi
madagaska
kujengea
cosmas
goodluck
mpangaji
mchome
tengefu
##prisca
##sindikwa
million
##tunzwa
kumlawiti
khut
mrundikano
kuifahamu
##kosesha
antiokia
comey
##ельно
csr
tangamano
kutelekeza
abdelaziz
anayemhukumu
kriketi
mandla
ntuli
kuyeyuka
mazalia
kigugumizi
mwathiriwa
##hudhulia
limao
mswaki
industry
galilaya
experi
valentine
lamadi
pharmacy
tungependa
ukikamilika
urejeshaji
vladimir
walowezi
hawza
justin
kustaaja
dominic
solomon
unaomzingatia
fransisko
kuelimishwa
kennedy
kudhoofika
personal
continue
ahueni
ajuza
cpj
crimea
fbme
pkk
photo
umaliziaji
مـنـتـديـات
kahawia
kajuna
lahaja
kortini
mbwembwe
kutanafusi
divai
njoolay
girls
electron
frederick
browser
ayatullah
arobaini
dvd
handaki
ithibati
lameck
nzunda
psssf
spanest
matrekta
fernando
kutanguliza
antwer
solutions
malalamishi
kisemiti
spectra
cwt
dondoo
githu
glasgow
mysq
uingizwaji
usimamiaji
zelenkro
##bruck
waelamiti
kwaniaba
kiesperan
kivinje
kiambatisho
nimonia
bashar
kuwafikishia
vitokanavyo
tacaids
talanta
sessions
umitashumta
dagheshi
matambiko
tillerson
timelapse
liberec
shekalaghe
bouteflika
auckland
poynter
meksiko
kimatibabu
pallangyo
algorith
roeland
research
wikileaks
coconut
codesria
northern
golikipa
nyarugusu
yugoslavia
mbogamboga
kandokando
mteremko
igra41836
melbourne
zhytomyr
zelenkroki
kiesperanto
5m
810
ae
ade
angu
agha
aende
afungua
aber
amber
aod
amir
afike
aero
bing
batani
blan
bridge
bball
cd
cga
cele
cpa
clau
dji
dana
dung
dse
dongo
didi
dsc
ei
eda
ema
ewe
edo
epi
echo
eman
emwa
eur
fra
fisi
fanga
find
g8
gwan
guli
gamba
gramu
gita
gamali
gishu
g20
gmt
ghou
gonjwa
hr
hon
hono
iw
iele
ide
itaa
ist
isan
ibili
illi
ibc
ifanye
iongeze
ipad
ilulu
iyula
iwasilishwe
ijulikanayo
jc
jb
jv
jia
jsi
jani
jung
jumi
jatu
jamali
kr
kani
kano
kanga
kisho
kno
khama
kcu
kdf
kond
lingekuwa
lindwa
mmb
mgu
mfun
mde
meng
mdamu
mondo
mgon
mhama
mdaiwa
mkristo
mlali
mhudumu
mkimbi
mfasiri
mtumba
nis
num
nana
nse
nati
natu
nene
nrf
national
ot
obi
ode
ova
olme
okoa
osaka
oromo
ouko
omega
pinzani
qi
qad
qura
ran
rat
ren
rsf
rnb
ski
samba
singe
sca
sono
skimu
slabs
slovakia
tg
tm
td
thu
tungu
tungo
tishu
tps
tbs
tsun
uing
ush
uze
ube
ulu
uende
ufaa
udala
uzuia
utoka
uunganisha
uombaji
urejeshwa
u20
ubomo
uheshimu
uelekeo
ufasiri
u17
ufanywe
ukwepaji
uchanganuzi
wis
wto
where
yı
yen
yon
zfa
zisa
для
иорд
лю
от
ос
ру
ре
са
##uto
##itumia
##iweka
##iwezesha
##imbwa
##lua
##lang
##late
##zji
##ap
##arifu
##afikiana
##elimu
##kg
##kha
##kto
##kwenye
##kisho
##kena
##kishwe
##hr
##hwa
##tche
##tamani
##thubutu
##pat
##phe
##pana
##pun
##pendele
##peni
##penya
##pate
##pino
##pindua
##pport
##pcco
##pambwa
##phosa
##pambanua
##gili
##gele
##gne
##gent
##gles
##gumbi
##non
##nment
##cke
##cti
##cket
##mza
##mish
##mati
##mine
##mwili
##mpu
##mson
##mation
##mteua
##sambu
##sso
##smani
##sca
##jumiwa
##jeleo
##ding
##dishwe
##rina
##risa
##rumo
##rdiola
##olo
##omea
##bata
##bing
##benda
##bwi
##bato
##vika
##vwe
##vate
##fc
##fj
##fam
##fati
##fyatua
##fumbia
##fsishaji
##yd
##yanga
##34
##39
##уд
##аг
##тор
##оп
##оз
##75
##qqa
##200
##65
##кт
##ив
##нов
##ез
##ят
##ся
##ım
##пр
##لا
##يو
##ين
##ــ
##րա
wau
wad
wagu
wachi
waongo
waendele
waongozi
waone
watumia
wadh
wafuata
wauaji
wafanyi
wauza
wagiriki
waharibi
##wakati
##waaji
##waruhusu
yaonyesha
yath
yaibuka
##kayo
##kalia
##karibi
##kaimu
##lig
##lian
##lize
##lilia
##list
##lick
##lican
##likumba
##lipuka
kumba
kuenda
kunge
kuume
kuumba
kukubwa
kurugenzi
kuoko
kuanisha
kupongeza
kuhariri
kuongezea
kufasiri
kuhitimishwa
kushitakiwa
kuangaliwa
kuandikishwa
kuangamiza
kuambukiza
kuridhika
kuhofia
kuhangaika
kuboreka
kusilimu
##anye
##anufaika
##atishia
##hasa
##hakama
##halalisha
nau
naza
nama
nasha
nagu
nafanya
nazungumzia
##ikaji
##ikano
##ikaribisha
maen
maung
maene
mars
mario
marando
makila
maisara
##kujia
##kuomba
##kupenda
##kuletea
##enyo
##ento
##enje
##ency
##zig
##amin
##ambara
katambi
##iska
##iste
##bak
##bakari
##hid
##nardo
##kipata
##richo
##you
##tokwa
##tai
##tawa
##tabiriwa
##tawazwa
##umko
##ngamano
##kot
##kom
##koko
##kosi
##koni
##koro
##komea
##kodishwa
##konya
##kozy
##yal
kig
kihi
kiomo
kihara
kihan
kiindo
kiwira
kichanga
kiwele
kiinjili
kivinjari
##raj
##raq
##razi
##ragua
##ravidi
##lazimu
##dit
##diwa
##diya
##diyya
##yer
##yeb
##yeto
##ledo
##lezwa
##lesia
##lemani
##lezea
##leans
##siwa
##sifa
##side
##sius
##sifia
##simikwa
mwangu
mwadhamu
mwadilifu
mwamun
##mal
##madu
##maker
##marsk
##jas
##jab
##jalo
hak
haoni
hakua
hall
havana
hague
haunge
##meoni
##ful
##fute
##fukiwa
##futia
##kemia
##tiko
##tilahi
##tiative
##hua
##fadha
##fayika
##falsafa
##mudu
##muhusu
##muonesha
##wed
##wesha
##well
##wekezwa
##bus
##bullah
hue
hukuwa
huwenda
huongeza
hufikia
huonekana
huchukua
huzaliwa
huamua
hull
huandikwa
huhusisha
hubaki
hujumuisha
hupungua
hubeba
hupunguza
huvutia
husafirishwa
hustawi
mkula
mkuchika
##zoka
zai
zaid
zabibu
zaire
zadar
niche
niliwa
nichukue
nimalizie
##sau
##sala
##saliti
##iniwe
bac
bashu
bava
bashiri
babeli
kuwasa
kuwashwa
kuwaso
kuwaelezea
kuwafunga
kuwaingiza
kuwajumuisha
kuwasimamia
kuwainua
kuwashikilia
kuwahakikishia
kuwatoza
kuwatenganisha
kutotumia
kutokua
kutotolewa
kutochukua
kutokubali
kutozingatia
kutokidhi
kutofungana
kao
kaili
kagu
kazan
kagere
mid
miga
mianga
miungu
mirefu
mieleka
mirerani
laku
laana
lauri
lawi
lakat
##ojadili
##ojaribu
vifunga
vifuko
vipepe
vionjo
vihiga
##pol
##pora
##ponda
##pongeze
##pokewa
##niko
##shall
##sharra
##tez
##tein
##tegwa
##gong
##gomba
##gondi
aliya
alipa
alihitaji
aliita
aliunda
alihama
alitoka
alitarajiwa
alipanga
alikaa
alibaini
alipinga
aliajiriwa
alifutwa
aliongozana
alipendekeza
alisaini
aliambiwa
alihamishiwa
alikanusha
alihubiri
alibahatika
aliitaja
alikaribishwa
alitimuliwa
alidokeza
##fanani
##fanuliwa
##fananishwa
##tula
##tuzwa
##turn
##tures
cham
chambo
chaote
chaula
chakavu
tau
tako
tasu
tava
##gart
##gawia
##ataji
##atala
##cht
##change
sav
sali
salimu
salu
saed
salome
sel
seke
seria
sevi
seed
sellal
sebre
##mbania
##mbley
##uara
208
##ongwa
##ongweni
muq
muru
muandishi
murua
muingereza
muhali
muqa
mutha
mubarak
musharra
iliji
ilimu
ilihitaji
ilifuta
ilidumu
ilitembelea
ilikabidhi
iliripoti
ilisisitiza
ilimaliza
iliibuka
iliwasilisha
ilichapishwa
ilikabidhiwa
ilitenga
ilipendekeza
ilibidi
ilihudhuriwa
ilitanda
##anol
baaadhi
##inal
##inas
##rei
##refa
##rement
##amah
##amar
##chagu
##ruz
##rundi
##rudishiwa
##shifiwa
wanazi
wanafikia
wanaelekea
wanakosa
wanahitimu
wanazungumzia
wanakaa
wanazidi
wanajenga
wanaruhusiwa
wanafikiri
wanahimizwa
wanakamati
##see
##shanaji
##shatolewa
##chichi
##ishara
sii
sig
simenti
sihaba
simeoni
##isihi
##isilamu
akipa
akizungum
akiongeza
akimwa
akizungu
akihoji
akitajwa
akitafutwa
wakasi
wakapata
##onana
amejibu
amekua
ameona
amezia
amepatikana
amecheza
amekuja
amechukuliwa
ameshika
amemua
amebaki
amebeba
ameibuka
amepinga
ameondolewa
amelala
amehudumu
ameongezea
amekutwa
amekataa
ameridhishwa
amesajiliwa
ameachiliwa
amefungiwa
amekemea
##ifaa
##ongolo
walia
waliye
walipa
waliweka
walimwengu
walionesha
waliandika
walifunga
walipanga
walipelekwa
waliingizwa
walikiri
walikufa
walitawala
walihamia
walikusanya
walitiwa
waliungana
walilalamikia
waliandamana
walipigana
walizuiliwa
walizuiwa
walishangazwa
walipakodi
##low
##loli
##lole
##losa
##logi
##roko
##rola
##ropo
##rose
inaishi
inaamini
inapewa
inakubali
inaongea
inaangalia
inakutana
inaendesha
inasisitiza
inapigwa
inakamilika
inaathiri
inabainisha
inachunguza
inajaribu
inaruhusiwa
inaonyeshwa
inahukumiwa
inaenea
inapendekezwa
inalika
inajiandaa
inapendekeza
inawapa
inachangiwa
inakadiria
##amule
##pakia
julli
##sut
##suta
##surge
##atimizwa
rau
rayon
##pandikizwa
umo
uliko
ulizia
ulitokea
ulitoka
ulipanda
ulitumika
ulipelekwa
ulitekelezwa
ulifadhiliwa
ulibadilika
##funzwa
##bio
##fidh
##andae
##andar
##amio
##unue
tangi
mwislamu
mweny
mwinjili
huona
##mil
##miwe
##miminika
##idie
##gio
##gile
##gizia
afro
afisini
##box
##bobe
##bouti
##chezesha
##zeri
##zeko
##zera
watunga
watutsi
tuwa
tutu
tuanze
tuseme
tukumbuke
tubing
utaji
utafanywa
utajumuisha
utajadili
utakuta
utakabidhiwa
utajadiliwa
utawasaidia
##umai
##umaji
##mbolewa
##mboleza
kamata
dag
dario
daad
##bei
##beri
##bera
##bela
matata
changi
chonjo
kuhuisha
##moza
##mora
##molojia
imeki
imechaguliwa
imeleta
imetokea
imezuia
imezungumzia
imeshika
imerejea
imegundua
imebainisha
imetekeleza
imekataa
imekwama
imehamishwa
imekanusha
imepandwa
imesitisha
nyamo
nyambui
##angari
##angalala
maazim
maasai
unafikia
unaeleza
unasaidia
unaitwa
unakamilika
unaruhusiwa
unakadiriwa
unafikiri
unastahili
unakabiliwa
unahusiana
iliyofanya
iliyotoa
iliyoendelea
iliyoelezwa
iliyoishia
iliyofungwa
iliyoanzisha
iliyohifadhiwa
iliyosalia
iliyoadhimishwa
iliyoibuliwa
iliyoasisi
iliyonyesha
##wanyika
kamapeni
tigan
tibet
jiko
##baliani
maradi
maraga
marakwe
mwanaki
mwanablogu
mwanakemia
lil
lik
lipa
limo
limea
likis
kupung
kupatika
kupambanua
kupenyeza
wane
wanji
anas
anaji
anakua
anafuata
anahisi
anafanyia
anafafanua
anasisitiza
anarudi
anahitimisha
anaokolewa
##chora
##chorwa
##andia
##umilwe
shuka
shukuru
##ineer
umeeleza
umepatikana
umedumu
umechaguliwa
umeamua
umebaki
umetangazwa
umebainisha
umeonya
umeshuka
umezinduliwa
umetengewa
umezungukwa
##zungumze
mwanda
mwandu
mwanangu
mwanamichezo
mwandege
mot
mod
mosha
mous
motto
halipo
rug
rutuba
waliotaka
waliopita
waliozungumza
walioonekana
waliokuja
waliosoma
waliopanga
waliojiunga
walioshuhudia
waliohamia
waliookolewa
waliokumbwa
waliokutwa
waliovamia
walioguswa
waliofurika
waliobahatika
waliotinga
waliohudhulia
fede
fellow
ujulikana
masta
maskani
masanja
##mbeba
zifanyike
wameli
wameongezeka
wamechangia
wameandaa
wamekosa
wamekubali
wametembelea
wamezungumzia
wametoka
wametajwa
wamerudi
wamefungwa
wameingizwa
wameshuhudia
wamesimama
wamebainika
wameshauriwa
wamehamishwa
wamevamia
wamekagua
offi
msumba
msengi
msmes
ulioendelea
uliochukuliwa
uliotoka
ulioandikwa
uliotumika
uliotarajiwa
uliopelekea
ulioonyeshwa
ulioshuhudia
uliozua
uliohudhuriwa
shei
shell
shekimweri
sababisha
bom
bogo
book
bocco
board
##takatifu
wakilia
wakiongoza
wakipewa
wakiongea
wakipanda
wakitajwa
wakibeba
wakiondoka
wakitafuta
wakitowa
wakiburudika
kuupa
kuupokea
kuuzia
kuukubali
kuutatua
##indio
##indikiza
##anzila
##anzishwe
pick
pixel
mtati
mtambi
manye
manisa
manyama
entomo
aub
autho
##wile
##wick
koh
koka
koli
kola
kopi
komoro
kodera
bile
bibilia
##engwe
majivu
##nesse
pozi
popo
pomp
polio
mape
mapishi
mapambo
mea
mej
mega
meso
mery
mecky
meteo
mwerevu
ukungu
tot
today
##luki
##lusi
##lusia
##luxe
how
hor
holl
holili
hots
essa
##simishwa
kufugwa
kufutiwa
ins
inf
inan
inco
inyonga
invest
kuita
kuianza
kuimali
kuifuata
kuiunga
kuigawa
kuiunganisha
kuigeuza
kuilaza
kuivusha
##atolojia
akiwasha
akiwaeleza
akiwaongoza
akiwasalimu
dart
##yugur
leonardo
dot
douma
kimfumo
kilave
luv
lux
lula
lukumbu
lugh
kilianza
kilijumuisha
##onee
##onera
##energy
hadiyth
mbena
mbando
inayosema
inayopaswa
inayodaiwa
inayokwenda
inayojitokeza
inayozidi
inayoifanya
inayozunguka
inayokabiliwa
inayounganisha
inayofanana
inayoendana
inayowakabili
inayotegemewa
kujit
kujizuia
kujiokoa
kujiwekea
kujiimarisha
kujitahidi
kujifungulia
kutan
kutam
kutatolewa
kutendeka
kukatisha
kukanusha
kukamulia
kumkubali
kumzika
kumfahamu
kumtumikia
kumhudumia
kumkomboa
kumfungia
kumlazimisha
halmashuri
zilitoa
zilitengenezwa
ndizi
mkao
mkaazi
mkarimu
mkabala
pet
hataki
pap
pass
hem
hebei
mp3
mpenda
kisanga
kisunni
shio
shitaka
##hurio
kuliongoza
kulisababisha
kuliwezesha
##hamishia
##hampton
jos
ansari
antal
anathibitisha
##umbeta
zinaonekana
zinadai
zinasababisha
madaba
##ondoshwa
wanaoi
wanaotoa
wanaofika
wanaounga
wanaodai
wanaohusishwa
wanaoshukiwa
wanaotibiwa
solwa
solana
social
ful
fuatilia
furah
allo
aland
alph
##house
waosmani
faya
fahir
itau
itali
itaji
itaingia
itafikia
itaongezeka
itabidi
itahakikisha
##ambuka
##stam
##sting
##stino
utan
utwaaji
wakiwasikiliza
##biagai
susan
awasili
janabi
ukatekumeni
usingekuwa
ushemasi
kuwemo
kuwezeshwa
##indisha
jeshini
uhuni
uhujumu
##pevu
##pert
aliyewa
aliyefahamika
aliyestaafu
mabaharia
kerege
kejeli
##ulize
##ulishwa
yanasaidia
yanachangia
yanahitajika
shs
shy
jali
rolle
rolling
rotich
vyenu
ameni
kunaj
kunawa
kunaku
kunapaswa
kikafiri
kikaboni
buso
wel
were
werra
welling
wembley
##zuilia
##uziwa
ree
refu
repoti
revoc
msasani
tef
tema
tegemezi
kitai
kitabia
##fanikiwe
##barisha
benue
aristi
arturo
arnold
msitari
104
ngugi
ngubiagai
shar
shada
zilizoanza
zilizoanzishwa
zilizobaki
zilizotangazwa
gar
##kishaji
namanga
nampongeza
aik
proble
prosurge
aliposhiriki
alipochaguliwa
alipohojiwa
alipokagua
wasira
mwanamikakati
unu
unw
under
unatambua
best
beth
betty
##wasilishe
makuzi
makunga
makundu
##yango
##yando
##rugwa
mbeleni
kutawezesha
biafra
kusaba
watashiriki
watapiga
watapewa
watachukuliwa
watahakikisha
rice
ritta
right
kujumlisha
##cola
##zingirwa
yaliyoanza
yaliyochukuliwa
yaliyohifadhiwa
yaliyokusudiwa
yaliyoagizwa
akp
akisi
akisimamia
akinukuu
akwila
akhera
haile
hairuhusiwi
haipatikani
watatangazwa
wikiendi
irani
irmt
tumei
tumeamua
kinakuwa
kinaendelea
kinapaswa
kinadharia
ukifanyika
ukipata
ukitolewa
ukifuatiwa
##ambai
##ambazwa
hawafanyi
hawaelewi
dei
debora
deca
deluxe
##mandoo
##dhisha
##ved
##vey
##veta
##vera
##vela
##very
##vedev
##llar
mnufaika
mgoyi
ngalawa
lilisema
ikitaka
ikielekea
ikitumika
ikitarajiwa
ikitaja
ikiuzwa
ikilalamikiwa
kuterem
gea
gerra
##ingewezekana
##kariri
##kaririwa
zinazowa
zinazojengwa
zinazojitokeza
zinazotokana
zinazotumiwa
zinazozunguka
zinazotozwa
##bidhiwa
yamem
yametoa
yamefikia
yamepiga
yamepanda
yamefungwa
yametangazwa
yamezungumzwa
yametengwa
yamebainika
##puliwa
181
kiuha
ataanza
ataendelea
atakua
atahitaji
atapewa
atakuwepo
atarejea
diana
dickson
dijitali
##vasha
tunai
tunazo
tunacho
tunaendelea
tunakumbuka
151
utundika
##rtho
kuazishwa
kununulia
unaopaswa
unaopatikana
unaoongozwa
unaotumiwa
unaojumuisha
unaoendeshwa
unaofadhiliwa
unaomilikiwa
hakuwepo
noo
yanayom
yanayowa
yanayoingia
yanayoonekana
yanayosababishwa
yanayozunguka
majaa
majalada
127
122
wakomunisti
wakorintho
##ambata
ndesambu
uraibu
zimefanya
zimekua
zimeeleza
zimeonekana
zimepewa
zimepungua
zimefutwa
zimeainishwa
aspi
michelle
uchungaji
linakuwa
linavyo
linafanyika
linachangia
linahifadhiwa
##andikiwa
kutekelezaji
mamake
magharib
kitama
kitwala
kitenge
kitambo
waaandishi
waabudu
mpizani
kuondosha
moroko
14th
fiki
file
got
gome
gover
##yip
1300
akali
akatumia
akaingia
akamatwe
##cago
##card
119
11th
mbarou
mbaruku
ablak
misenyi
vilisababisha
iss
islam
ispar
islands
istilahi
##mwagia
kairo
ilivyoelekezwa
ilivyofafanuliwa
ukokoto
let
leis
168
164
##feso
##ference
254
256
usiwe
usikilizwa
zola
zosta
uleule
uporaji
kidravidi
##kumbushwa
mtizamo
mtikisiko
limeanza
limechangia
##mpeleka
matukiodai
hauko
haufanyi
lope
lord
local
nuhu
kilichotokea
yudea
kupanuka
kupandikizwa
uapisho
uasin
simbachawene
vinapaswa
atta
atcl
atatembelea
kusifu
kusifiwa
mall
mtayarishaji
mikusanyiko
mwandamo
wafula
kushangaa
10000
##athir
bilion
kiturki
wol
sprite
kimafunzo
kimahakama
##ambulika
##tarieti
kifusi
kifurushi
isitoshe
kumewa
kumechangia
kumeelezwa
kumepelekea
ngano
ngamia
wapelelezi
wapendanao
kufafanuliwa
nyembamba
anayeji
anayetajwa
anayehukumiwa
anayetuhumiwa
anayestaafu
anayekipiga
kimetolewa
kimeongezeka
kimetangaza
kimeandikwa
septua
mataa
matabibu
kutubu
kutuletea
214
216
staha
start
starti
aprm
chimwaga
chibok
chicago
mauwaji
kuzitaka
kuzifikisha
kuzitafutia
aliyowa
aliyopata
kibonde
wasamaria
##pelekwe
##wasifu
kutiliwa
vilivyotokea
vilivyoanzishwa
vilivyotajwa
vilivyochapishwa
kufungia
mikanda
mahathir
nyororo
mwizi
mwiko
mwiru
uvumba
##urfa
kuvurugika
akimtuhumu
ikomwa
##yanyasa
223
228
229
226
saud
utakavyo
utakaso
utakapokuwa
##jumuishi
406
aliwaeleza
elgeyo
mnayo
mnadani
chole
chokaa
kulaza
kulaani
kulaumiwa
tuliweza
kukimbilia
agness
##piganwa
283
285
280
289
278
279
tunat
tunzo
tunatakiwa
marine
marshall
tambara
mshairi
vimeripoti
misafara
##vunjika
minong
kuchakata
kidete
##ldır
kufiwa
kufichwa
kufichuliwa
hamna
hammarsk
kupongezana
##sheheni
makovu
sarkozy
##tumikishwa
kinachoonekana
kinachoelezwa
kinachozingatia
ikamili
##tropin
walipowasili
zikifanya
mitaro
mitaguso
giz
gitaa
giuse
gigy
itakamilika
server
601
uvutaji
uvuguvugu
##ssar
kukoma
kukomeshwa
kulikuwapo
adabu
akikabiliwa
engineer
vipato
##nut
##nusurika
##anders
##gange
ingali
wahyi
ndungi
##simuliwa
##simulia
tutai
tutaku
tutaendelea
tutaangalia
travel
trafford
linalofanyika
linaloendelea
linaloshughulikia
vinavyofanya
vinavyoweza
vinavyopatikana
adv
adf
adana
admin
utakaotumika
##kiswa
##kisia
##piliwa
zinatoa
guyana
kongowe
dukani
duwasa
##husiki
korodani
455
458
hamaki
silas
ramaphosa
yakitolewa
mfaransa
##jinyonga
kalinga
alimteua
kisiwan
ilipofika
##lins
##mbiaji
kibao
kibabii
haziwezi
barca
baringo
kalangalala
idrisa
nimefanya
inavyofanya
inavyoweza
veterani
msituni
masiku
tahadhali
##yatumia
melinda
341
348
340
sant
902
##logia
aliiongoza
khay
##rasius
arab
kifafa
kifalsafa
uwakili
wajasiri
waliyopewa
matei
wakilipia
keshokutwa
itakayosaidia
yanam
salman
samsun
##ctors
penns
wasajili
ameacha
ameachwa
sekretariati
hatujui
##анов
##анская
mafuru
linatu
linjen
##jengeka
361
365
381
martha
ahly
ahsante
ajli
msururu
##tsche
##ronto
allard
angel
muasi
tawiri
zitakazotumika
zitakazooneshwa
uhamishaji
maduro
mbulu
inayofuataumoja
alivyosema
tamale
##tikana
##rning
mdachi
alialikwa
takataka
##waarifu
maghofu
mayatima
wanamume
mhalifu
comred
mrara
mrajis
hayuko
yasiyofaa
370
379
ijapokuwa
mfumko
535
kijivu
muhammadu
549
gambosi
##komezaji
internal
haikutekelezwa
petrol
655
scat
kioevu
wanayoifanya
wanayoyafanya
1937
1934
1939
usiokuwa
kuhiji
brigh
britania
pretoria
utowaji
utoshele
utokomezaji
elie
eliya
matiko
matilda
uchokozi
uchotwaji
wasomali
waliopoteza
##rror
kukatazwa
application
uendelevu
kuzusha
ulipofika
kupakiwa
kupakuliwa
form
khamisi
mdoe
thra
##kusanyia
590
kufilisika
kichaka
blogs
eagles
edmund
tukifanya
ndikiro
hawakuweza
orleans
##разов
##ları
short
thomson
ukishika
kufunika
maryland
kings
kingston
walimtaka
inatishia
396
##stanti
616
hayato
kusheherekea
uliyopita
033
737
711
unep
464
dennis
inamfanya
ipc
kidijitali
bloombe
kuwaalika
alijifunza
alijipatia
alijiuzulu
1913
1916
632
musyoka
kumwona
586
680
684
uelimishaji
wamachinga
cardi
carbon
carlos
049
initiative
mkinga
oled
sinza
##hakikishiwa
walizopangiwa
walizonazo
great
gredi
nitakuwa
alizokuwa
570
881
kontena
kipofu
mandera
abass
kibopile
msovela
finan
panapo
ulrich
ulazaji
amejitoa
amejikuta
yaliopo
023
patel
kaseja
ludete
brujas
humfanya
kubatili
##burgh
unayofanya
unayoishi
ungeweza
alimuua
alimuomba
wanajifunza
##istics
waliotekwa
mikondo
inayofuatama
765
dell
osmani
sunna
##ина
##changie
wanazozi
ibrahimo
017
018
##bless
kiimani
wilbard
##tumbua
##tumbukiza
ubinafsishaji
wajir
huadhimisha
##chinjwa
kutambulisha
godbless
imewataka
luhanga
kasululu
campus
stock
story
kufurahisha
mmmoja
uoga
vinywa
wamemkamata
capri
haujakamilika
msemo
nkrumah
mabudha
##polis
cross
plaza
##tenberg
muimbaji
muigai
kugonga
zilizotanguliaprogramu
yudas
philipo
##dgs
##евен
naivasha
walichokifanya
waliojiandikisha
inayofuatamfuko
kigwangallah
840
benitez
lumuma
mlale
speed
kuonja
muroto
##sunni
imempa
wakishindwa
fanywa
wadukuzi
wakiwasilisha
litakalokuwa
zurich
##matunda
basra
kulazimisha
makonde
nkuruma
tenno
kuchuliwa
##atilie
katekesi
kilango
##ruski
kustawi
kustahiki
1891
longitudo
alizitaka
intelli
interest
sdgs
##celand
anatory
mjane
tropiki
wajinga
##tegemei
tunayojadili
kuzidiwa
uyoga
wazabuni
##attara
mpekuzi
atakapopata
hydro
verde
##enyana
kalokola
sakarya
##kins
yatatolewa
miembe
porto
portal
palipo
stanford
stanbic
phile
washabiki
kuchanja
kuchonga
kibudha
wanaoteseka
morsi
medvedev
filiberto
summer
inauwezo
turkana
kutengana
kutenganishwa
techni
haitatokea
workshop
samweli
andalusia
oxfam
swgo
kuyumba
laizer
queens
dhuluma
punje
punyeto
slip
slideme
winnie
##ком
kulenge
kuwatawanya
mirengo
search
amezitaka
uliowakutanisha
gasper
haijatoa
fitr
fitina
guardian
guardiola
##tatizwa
##ambaratisha
haruna
##shinikiza
sirleaf
kupinduka
walioupata
hoseah
resource
shariff
kutumbukia
egyeb
mduara
olympi
##fsp
##ныи
kitwana
vichaka
vichache
kuhudumiwa
bonasi
novena
novatus
blauzi
grant
mlevi
tweet
ukwasi
kaaba
mihayo
alituzwa
amisom
arthur
kujengewa
kunusa
chemchemi
ateuliwe
icfj
nzoia
nzovwe
tengeru
##punguze
##prise
kumlaki
pacifier
kumuapisha
premium
deograsius
cyprus
kabudi
tagla
semily
mutungi
holding
shirimatunda
romania
region
barnaba
inayofuataushindani
aloyce
canal
genotropin
udikteta
zenno
##ylvania
ballon
alishawahi
2063
sijaona
imeshatoa
robin
abdelma
catal
mzige
tamil
wenzie
##kwish
waebrania
machungwa
zaragoza
kadama
virginia
helsinki
republic
maharagwe
kujinadi
kujinasua
copy
belgium
celtic
didas
gandhi
разград
kuotea
kuzalishia
kushirikia
virunga
vivian
bolton
gaziante
garden
##yanyuwa
design
fidelice
straika
association
asimilia
akazikwa
cathbert
flanders
ihunyo
lwandamina
nzuguni
oic
плевен
wavamizi
kiitalia
mwasumilwe
hizbullah
bachelor
##tereka
##rejelea
##dhibitishwa
##rotestanti
mwovu
##chekesho
##geukia
boresha
leopards
##sisitizwa
majohe
training
aleksandria
democratic
adhma
cleopa
eatv
iqna
ingiza
mmarekani
ouattara
tengelea
uzushi
uinjilishaji
##zunisha
wallace
kurefusha
zacharia
mijongweni
##tukuka
muharram
mwanachuoni
tokyo
kunyanyaswa
kinyuklia
physics
edinburgh
uchanguzi
atomiki
kishirikina
getrude
iyunga
icann
lhrc
mumeo
mumias
ntibenda
ochieng
oduor
##ilding
##fumbatwa
wapangaji
##lisheli
malori
maangamizi
nicaragua
kayole
akivishwa
titye
tochigi
sosth
province
vitendanishi
misemo
mchapalo
kielekitroniki
kufyatuliwa
##idhinishiwa
wamatumbi
aboubakar
experience
kustaajabisha
mysqli
aodln
cgap
claude
djibouti
emwazi
fangasi
ieleweke
mmbando
mfune
mkimbizi
olmert
tunguu
tsunami
uzeeni
udalali
uzuiaji
uunganishaji
urejeshwaji
ubomoaji
yıldır
wadhfa
wafuatao
waharibifu
yathrib
makilagi
kiomoni
kihansi
kiindonesia
mwamunyange
bashungwa
bavaria
kailima
miangalua
laurian
vifungashio
vipeperushi
tasuba
sevilla
sebregondi
muqawama
musharraf
ameziagiza
tubingen
nyamoga
maazimisho
tiganya
marakwet
moussa
ujulikanao
entomology
pompeo
hollande
investment
lukumbule
alphonce
fahirisi
rollers
werrason
wellington
makunduchi
akwilapo
gerrard
utundikaji
ndesamburo
government
mbarouk
isparta
usikilizwaji
matukiodaima
startimes
hammarskjo
giuseppe
ndungile
pennsylvania
linjenje
utoshelevu
gaziantep
yıldırım
3g
5g
9th
a2
afa
atu
aung
afanya
ano
ave
arabu
atembelea
akutana
afariki
atua
aqu
ades
achukuliwe
aandike
alamuun
bh
bm
bli
buma
bran
bmw
bps
batili
blair
cr
cb
cv
cumi
cran
cate
credi
cnb
dat
done
dena
dlam
dunga
dyi
dhihi
ddc
drop
dzeko
ein
eto
emu
ero
eche
emo
elu
emea
econ
eras
fr
ffu
fami
flu
flani
flat
frida
fans
gh
gr
gwe
gong
gongo
ganda
geni
gho
gur
gonga
gdp
genti
gates
hdi
hini
hone
href
hbot
iri
imu
ifanya
itum
ione
iondo
imali
ily
ipp
icu
itel
iendelee
ijue
ianzishwe
iceland
jni
jami
kp
kma
kenye
kent
krem
kpl
lk
lya
lra
luma
lande
llb
llm
lyata
linus
lcd
mzo
mini
mfan
mnge
mhuri
mkwe
mlay
mbuni
mzalishaji
mzoefu
mct
mdc
mzalendo
mfanyikazi
mtumizi
mhogo
mjusi
mongolia
nh
nn
nm
nun
nang
nci
nunua
ncc
natambua
nrm
nhc
ncp
oo
ore
oge
obe
onge
ost
over
ongwa
olele
otto
phe
puma
pumu
peng
pisto
punda
pul
pres
pyth
qo
qing
rto
rhe
rami
rand
rena
rate
rpc
risiti
sat
sda
schu
sci
stima
schal
tong
tenda
tham
tran
tamano
trini
thawa
tsar
tinde
uc
ure
urika
ufi
utum
ude
uje
ubari
uho
uibu
uzali
urani
uhitimu
uzalisha
utili
ushiri
uyahudi
uber
uanze
ubeti
uingilia
ulanguzi
ukiona
ufanikiwe
utumikishwa
vlc
vpl
vishindo
vbet
vunjo
wy
wya
wili
xvi
yi
yum
yun
zha
zengine
zbc
zingeweza
znp
ав
вы
вел
вик
влад
ку
ко
кал
ком
мос
ни
ор
се
сан
ту
اس
نت
##uk
##usa
##uchumi
##ushia
##utsche
##im
##izi
##imba
##iana
##imb
##imini
##ici
##iwo
##izunguka
##iger
##langa
##lenda
##lenge
##lva
##landi
##lph
##ltani
##ltenberg
##zam
##zba
##zzo
##zamia
##zangi
##zane
##zame
##au
##ach
##akisi
##wd
##wina
##womba
##eu
##eps
##erar
##ezekwa
##kv
##kzi
##kna
##kti
##kenye
##kbali
##khana
##hen
##his
##hmu
##hoja
##honga
##tma
##tsa
##tni
##tine
##twisha
##pg
##phi
##plo
##pinduzi
##play
##pper
##pulizwa
##penyeza
##gs
##gzi
##gata
##gde
##gate
##gino
##gger
##nt
##nye
##ncs
##cz
##cat
##cana
##cing
##cun
##cce
##cca
##cci
##md
##mke
##mpopo
##mwema
##sch
##sungu
##jle
##jni
##juri
##jatoa
##dz
##dra
##dge
##dunia
##dhuli
##dson
##dumisha
##dating
##rka
##ramo
##rumba
##rdia
##ringa
##ramiwa
##ratasi
##rumbeta
##ot
##op
##owa
##oto
##osha
##ofanyika
##ozesha
##ogopa
##bli
##bbi
##bine
##bene
##bles
##bron
##bras
##bby
##batili
##vangi
##vumbua
##vsk
##fwa
##fum
##fye
##flama
##filisika
##yatu
##yne
##yungu
##ywaji
##ygen
##yamule
##32
##ве
##ап
##аш
##то
##рия
##рит
##56
##0cc
##4you
##92
##99
##ковская
##из
##иб
##ико
##иаль
##нир
##еч
##ест
##xin
##гу
##сия
##ıflama
##ري
##اء
##бия
##бол
##ます
##ャー
##€™
##ют
##ция
wach
wafi
waisa
wade
wamoja
wavi
wango
wape
waran
watia
wangi
wafuatayo
waridi
wajenge
wahojiwa
watumizi
wahutu
wahamasishaji
waindio
wasunni
##wazo
##wataka
##wadogo
##wahukumu
yaha
yala
yafanya
yapata
yass
yakamilisha
yalova
##lid
##liyo
##lizwa
##liso
##listi
kuum
kuina
kukwa
kutano
kumbi
kuone
kupaka
kurusha
kuzoe
kureje
kuishu
kuzalishwa
kuenezwa
kugawanya
kugeuzwa
kubomolewa
kudhalilisha
kuburudisha
kugus
kudadisi
kuingizia
kughu
kubanduliwa
kudhalilishwa
##any
##anje
##anyiko
##anmara
##anange
##ats
##aty
##ateng
##atanisha
##ather
kwares
##haa
##haka
##hala
naz
naf
nachukua
naci
nakum
nagra
nadal
mame
maini
maend
mache
maote
mazung
mafani
mazazi
mayan
marua
marsa
mazungu
mahema
mafisadi
mardin
mashoga
##kup
##kunda
##kunu
##ensi
##enzangu
##zid
##ziba
##zimia
##zitumia
##amp
##amche
##amataifa
##amanisha
katoni
katumbi
##isisi
##isoma
##isubiri
##bada
##baza
##baga
##bach
##base
##bagua
##hii
##hile
##hima
##hiriwa
##jii
##jian
##jida
##jieleza
##nak
##nali
##naia
##nadi
##naro
##kiana
##kizungumza
##kizia
##kitini
##kirda
##rif
##riti
##rith
##right
##yoya
##yonza
##tobo
##togwa
##dau
##dary
##tah
##tary
##tact
##tafakari
##tayarishwa
##zake
##zagaa
##umishwa
##uments
##ngisha
##ngine
##nganya
##koti
##koroni
##kondo
##yai
kiw
kiis
kihu
kidha
kilia
kimbe
kitaji
kiweze
kiamb
kifung
kily
kiitwa
kivo
kizigo
kiburi
kizio
kiholanzi
kibul
kiwanjani
kiikolojia
kichangani
kiyugur
kiyanyuwa
kiamataifa
##lac
##lars
##ladel
##lareli
##diani
##dikwa
##dilia
##didia
##dies
##lem
##leb
##leen
##ledi
##lema
##lewi
##letewa
##siden
##sitali
##sijeni
mwali
mwabu
mwafunzi
mwamwa
mwageni
mwarabu
hiy
hidro
##maya
##mash
##jadi
##jail
haq
hasha
haili
hash
haiwa
halam
hard
hack
habibu
hariri
##meh
##meji
##meza
##funa
##fuga
##furt
##fuate
##ked
##key
##ketwa
##kely
##kemon
##kezana
##kerwa
##titu
##timi
##tiva
##tics
##tional
##huni
##huang
##falme
##muua
##muona
##muunga
##wel
##ween
##welo
##wero
##wers
##burn
##building
huj
hub
hufa
hujibu
huzungumza
huendelea
hukua
hupokea
hulenga
hurejea
huzalisha
hurejesha
hutengenezwa
huhifadhiwa
huelekezwa
hupoteza
husambaa
huimarisha
hulipa
hupimwa
huday
hussen
huddah
mkuwa
mkuli
mkufu
mkupuo
zap
zain
zaweza
nii
nifasi
nice
nick
nigde
##saliwa
##saghe
bala
bahama
##hern
kuwas
kuwaji
kuwaonyesha
kuwachukua
kuwaunga
kuwazia
kuwasisitiza
kuwafahamu
kuwasikiliza
kuwauza
kuwateua
kuwahutubia
kuwasihi
kuwatenga
kuwakusanya
kuwakinga
kuwawekea
kuwavua
kuwauzia
kuwapima
kuwashangaza
kuwatimua
kuwafariji
kuwasafirisha
kuwatendea
kuwasababishia
kuwapangia
kutotoka
kutokwenda
kutoruhusu
kutotajwa
kutotekelezwa
kutoridhisha
kutotimiza
kutofuatwa
kutoboa
kutoshele
kutokomea
kahe
kaga
kapa
kalenga
mizania
mihada
mihimili
miyombo
laka
lala
lalamiko
laeti
lady
mkoma
mkoloni
vic
vizi
viini
viong
viung
vipan
vifi
vicho
vipu
viii
vibon
vilui
vicoba
vichekesho
##pota
##posh
##pogi
##poanza
##porti
##poromoka
##nic
##nikwa
##shambuliwa
##tee
##tet
##tec
##temeko
##teseka
##tembela
##tegui
##goria
##gomea
##gory
mkuuu
alishauri
alitolewa
alifikia
alifuata
alipaswa
alionesha
aliongea
aligombea
alizidi
alihudhuria
alisimamia
alifahamika
alionyeshwa
alishuhudia
alianguka
alituhumiwa
alitetea
alishirikiana
alifuzu
aliwania
alishikiliwa
alisikitishwa
alichapisha
alikimbizwa
alishangazwa
alikemea
alitoweka
alivitaka
aliiagiza
aliishangaza
alinusurika
##iliza
##iligi
##iliated
##fanane
##fananisha
##tura
##tuama
##tunga
##tupilia
##tubisho
chaji
chale
chavez
tao
taba
tasha
tarifa
tafsi
tafauti
tadio
tabata
##galla
##gard
##atafsiriwa
##ataaluma
##elem
saq
saga
sadia
safia
safisha
sahel
see
semu
sebu
serika
sese
sede
serie
sekela
sehem
semester
##mbano
207
205
muji
muja
mufu
muweza
mulu
muone
musan
muweze
muce
muth
muuaji
mungi
muaminifu
muombaji
muturi
muumbaji
muamala
mukuyu
muujiza
murangi
muhogo
muhamad
iliu
ilia
ilitaka
iliunda
ilileta
ilikutana
iliruhusu
ilitajwa
ilijitokeza
ilifunga
ilikaa
ilipungua
iliuzwa
ilikumbwa
ilipitishwa
iliahidi
ilifuatiwa
ilitawaliwa
ilienezwa
ilivamiwa
##ingana
##inguni
kwenyewe
##gusi
##inafsishwa
##rel
##rek
##reo
##rese
##remo
##rembe
##rekea
##reshaji
##reketwa
##amapinduzi
wir
wilb
##chao
##chalwe
##ruh
##unganika
wanae
wanali
wanaon
wanaenda
wanapita
wanazu
wanaandaa
wanacheza
wanakuja
wanaandika
wanasoma
wanafanyia
wanasisitiza
wanauza
wanawasilisha
wanahukumiwa
wanafikiria
wanaaminika
wanaadamu
wanashikiliwa
wanajumuiya
##set
##sere
##semea
##dou
##dona
##donia
##doksi
##shwi
##shtumiwa
##shtumu
##chimba
##chipuka
##dhihiri
##ishambulia
##ishawishi
six
sira
sivyo
siria
sikio
siangi
simwa
sikiliza
sifuni
sijida
sigalla
sichalwe
##isipaa
akianza
akifika
akipongeza
akipenda
akitoka
akijua
akitangaza
akiondoka
akiambatana
akitetea
akitazama
akivuka
akipima
akiolojia
akihimiza
akifurahi
akifatiwa
wakaanza
wakaingia
wakatika
wakamatwe
##onwa
##onika
##onyo
##ondia
##pit
##pier
amevi
amechangia
amekosa
ametakiwa
amewekwa
ameongea
ameketi
ametoka
ameruhusu
amepigwa
amewasilisha
ameruhusiwa
ametua
amelazimika
ametuhumiwa
amepokelewa
amepoteza
ametwaa
ameamuru
ametunukiwa
amesifu
ametimiza
ameorodheshwa
amehimiza
ameachiwa
ameridhia
amefurahi
ameitaja
amevitaka
amesisimua
america
amebebwa
ametwaliwa
ameinuliwa
##ifahamu
walid
walili
waliki
walisha
waliishi
walitia
walifikia
walikula
walikosa
walielezea
walihusika
walitembelea
walifaulu
walirudi
walilazwa
waliwasilisha
waliondoka
walipangiwa
waliahidi
walipitisha
walijipanga
walinunuliwa
walisherehekea
##loa
##loji
##lomp
##lophone
##logie
##lomena
##loween
##ros
##rov
##roba
##rove
##rofe
##robas
##rowai
inao
inacho
inaona
inapokuwa
inacheza
inaanzishwa
inachukuliwa
inaandaliwa
inaundwa
inaandika
inaendeleza
inapanga
inawasilishwa
inapungua
inapelekea
inauzwa
inahudumia
inasambazwa
inadhihirisha
inaungana
inabadilika
inakusudiwa
inakidhi
inaadhimishwa
inaaminiwa
inaridhika
inasomeka
baadaya
vyako
##amulia
##pachikwa
juan
juzu
jury
##sui
##susa
##surance
##atio
##atif
##atiza
##endane
rag
rash
raul
rapogi
##pany
##pandikiza
umrah
umise
umil
umoa
ulii
ulizo
ulifanya
uliweza
ulishaji
ulichukua
ulidumu
ulidai
ulichukuliwa
uliundwa
ulilenga
ulipangwa
ulifikiwa
ulizua
ulifutwa
ulikumbwa
ulianzia
uligeuka
uliharibiwa
##biru
##bizano
##fie
##amizo
##unyi
tangia
taneps
mwende
mwingereza
mwendeshaji
mwenzangu
##isaa
##isadi
##idio
##idiana
##gira
##giiwo
afe
afd
##boro
##cheze
##chezeshwa
##zed
##ishikiliwa
tul
tuishi
tuliwa
turufu
turin
tutuko
tutam
mwenyeki
mialo
utaku
utafi
utahitaji
utapokea
utaruhusu
utalli
utabaki
utapigwa
utasikia
utayarishaji
##vuso
##vutwa
##vuruga
##umah
##umari
##urity
kamket
dadi
daada
davo
dalali
dares
dalm
##gei
##gel
##beu
##bek
##besh
##bella
mathi
mateny
##jem
chat
chika
chumbani
kuhuzunisha
##oteli
##oteuliwa
##kwabi
##mola
##moton
imeu
imea
imepita
imeona
imeomba
imesaidia
imetembelea
imewezesha
imekutana
imemua
imekaa
imerudi
imebeba
imemaliza
imechapishwa
imependekeza
imepokelewa
imewapa
imekubaliwa
imechukuwa
imekusudia
imetafsiriwa
imetupwa
imetinga
imewaagiza
imesimuliwa
makan
makaidi
makavu
makasisi
makaratasi
nyand
##nguliwa
unapokea
unafuata
unaishia
unakubali
unaandaliwa
unawaji
unazungumzia
unaff
unakaa
unazidi
unaanzia
unahusishwa
unafadhiliwa
unasimamiwa
unajisi
unachangiwa
iliyowahi
iliyotoka
iliyolenga
iliyotokana
iliyokamilika
iliyozua
iliyokwisha
iliyofadhiliwa
iliyosajiliwa
iliyosambaa
iliyoachwa
iliyomfanya
iliyotungwa
iliyotembelewa
iliyoswaliwa
tid
tio
titi
##dude
##duras
jita
jike
jiografia
jiolojia
maradona
liu
like
limu
liwe
lite
limbani
light
libre
limf
living
limpopo
kupumzi
kupendwa
wanya
wanami
anali
anaya
anachangia
anaonesha
analy
anawekwa
anakuja
anachukuliwa
anafungua
anasoma
anahitajika
anaripotiwa
anajaribu
analazimika
anahusishwa
anakagua
anafunua
anasumbuliwa
##chosa
##choshwa
##choice
##andani
shuru
wakereketwa
umeua
umepiga
umeandaa
umeelezea
umechukuliwa
umezungumzia
umezindua
umerejesha
umesababishwa
umezingatia
umeshuhudia
umeondolewa
umepokelewa
umegawanywa
umekwama
umeahirishwa
umetupwa
umeimarishwa
##zungumzi
mwande
mwanry
mwanataaluma
mwanamapinduzi
##chuan
##chuaji
##chunzi
mog
mora
mobu
moni
moghe
mosul
mochari
halita
haliwezekani
ruanda
ruge
rucu
rukoma
1900
waliomo
walioendelea
waliokutana
waliopatiwa
waliofanikisha
waliohukumiwa
walioondolewa
waliotangulia
waliokwisha
waliosajiliwa
waliotimiza
walioagizwa
waliopatwa
walioandikishwa
ujue
ujoto
##mbewa
wameki
wameya
wameenda
wametolewa
wameongeza
wameomba
wameuliwa
wamefaulu
wamepanda
wameripotiwa
wameteuliwa
wamepigwa
wamepinga
wamehukumiwa
wamekwisha
wameokolewa
wamezoea
wametiwa
wamekutwa
wamesaini
wamebakia
wametekwa
wamekamilisha
wamepandishwa
wameagizwa
wamerudishwa
wamefurahishwa
##baric
ofsini
msf
msata
mstaa
msondo
msamaria
##jiapisha
uliomo
uliofaa
uliochaguliwa
uliolenga
uliotumiwa
uliobaki
uliowasilishwa
ulioshuhudiwa
uliokubaliwa
uliosainiwa
ulioidhinishwa
ulioacha
uliobarikiwa
uliotukuka
shee
sher
sheka
shemu
shelisheli
shemeji
bou
box
boli
boksi
boiler
wakiona
wakiomba
wakiweka
wakiandaa
wakitaja
wakihudhuria
wakiuza
wakiifanya
wakijeruhiwa
wakikusanya
wakiteta
wakilaumu
wakivuka
wakizuiliwa
wakimbiaji
kusanifu
kusanyiko
kuupata
kuufikia
kuuchukua
kuuokoa
kuutangaza
kuudhibiti
kuukaribisha
kuuteka
##indiki
##indima
##indikizwa
##ngalia
mtia
mans
manan
mango
manso
manungu
manonga
mangida
manisipaa
uwekwe
enc
enya
endo
enugu
##wito
##wiga
##witz
kos
koko
kopa
kova
biden
majibizano
##ners
poli
poly
poul
police
pokemon
jamiii
mapendeleo
mapunda
maputo
meth
mers
mesut
mwetu
mwembamba
##mbikizia
jammeh
ukubali
ukumbu
ukulima
##ktas
tolewa
torati
tower
tobiko
toledo
hol
hoff
horm
estonia
kufuru
kufukiwa
kufurahi
kufukuliwa
kufubaza
kufunikwa
into
inate
inver
insul
inanu
insurance
##vity
salawe
salary
kuiita
kuihusisha
kuitaja
kuikoa
kuirejesha
kuiban
kuitetea
kuipitia
kuiwekea
kuikumbusha
kuiendea
kuitunza
kuifungia
kuichoma
##atorial
##gharamia
akiwaomba
akiwashukuru
akiwaelekeza
darwin
##yuka
##angamano
doa
dom
kimang
kimambi
kimenta
upuli
kilabu
mudava
luse
##tekeleze
##tekelezeka
kilim
kilis
##eneti
mbise
mbonea
marefa
marejeleo
inayohitaji
inayoonekana
inayotakiwa
inayotokea
inayocheza
inayokuja
inayozalisha
inayosisitiza
inayouzwa
inayohusiana
inayozalishwa
inayoshughulikia
inayowafanya
inayokubalika
inayojishughulisha
kujiona
kujipiga
kujijeruhi
kujijengea
kujikomboa
kutishiwa
kutendea
kutenguliwa
kutendewa
kutaniko
kukaidi
kukatishwa
kukadiriwa
kumfikia
kumwezesha
kumfanyia
kumkata
kumtuma
kumzaa
kumpoteza
kumtuhumu
kumfukuza
kumhamisha
kumtii
kumtupa
kumpigia
kumweleza
kumzuru
kumfufua
kumpiku
kumtaliki
kumtakia
kumnyima
kumenyana
chui
eneobunge
##patavyo
halmash
zilifanyika
zilitumia
zilipata
ziliweka
zilipatikana
zilidaiwa
ziliandikwa
ziliuzwa
zilikabidhiwa
zilisambazwa
zilipokelewa
ndiwe
kial
kiaramu
kiabakari
kiazeri
mkamba
pegue
##nois
page
pastory
palace
pastor
paolo
het
here
hepati
hertha
mpambe
mcheza
mcheshi
upandishaji
shiru
pilipili
kulitaka
kulitumia
kulisaidia
kulikuja
kuliondoa
kulipua
##haminiwa
joom
kipili
anatokea
anders
antak
anamuwakilisha
yalioko
yalionesha
yalielezwa
yalikuwepo
yalipungua
##kilimwa
##kiolojia
zinaanza
zinaandaliwa
zinakutana
madadi
wanaoonekana
wanaoamini
wanaopaswa
wanaomp
wanaosababisha
wanaohitajika
wanaolazwa
wanaowakilisha
wanaodahiliwa
wanaosafiri
wanaogopa
somali
solc
munguli
fuat
fuko
fuoni
fueli
fujian
als
alba
alum
alfu
alger
uhaki
uharaka
##home
waovu
fast
farida
itah
itapata
itaonyesha
itahusu
italeta
itachukuliwa
itaundwa
itabaki
itaongezwa
itashirikiana
itasimamiwa
itajadiliwa
itawasaidia
itafaidika
itawawezesha
##stand
utatumia
utatumika
utangamano
suu
sue
suna
sure
support
sulemani
awasaidie
ukamilishwa
usm
##pela
##peru
##peshaji
##pers
##perial
wafanyao
wafanyakzi
mfugo
aliyei
aliyea
aliyeingia
aliyechukua
aliyekuja
aliyeitwa
aliyeshika
aliyeripotiwa
aliyewasilisha
aliyekufa
aliyejeruhiwa
aliyetambulika
aliyeolewa
kijamaa
kev
kembo
keter
kemana
kericho
yanai
yanazidi
yanahifadhiwa
yanahusiana
yanaanzia
yanajadiliwa
mtukula
mtunguja
sh10
shwari
jae
jafari
jasiri
jalada
jazba
ross
roll
rosto
roule
rotte
roberto
rodney
rostam
vyuma
vyengine
##kazia
amwa
aman
amon
amste
amref
kunai
kunakuja
kunahitajika
kikabaila
bub
busu
butt
butwaa
buyuni
bukuku
buchosa
weber
weupe
wegina
wedson
##istocles
##zuliwa
##zurum
##tial
regia
regis
return
msakuzi
msaranga
tea
teme
temi
teso
telli
text
tekinolojia
teresa
tekirda
##mbuliana
hukusanya
muunganiko
kandege
benz
##siaji
arm
arti
aron
arlington
arctic
msikivu
msikitini
ngurumo
##onyeshi
##soko
shaidi
shaban
sharm
zilizoingia
zilizowahi
zilizopigwa
zilizouzwa
zilizoanzisha
zilizokwisha
zilizokumbwa
zilizonyesha
##rative
hakielimu
gabo
gaud
gasto
gareth
namwai
namanye
aidan
provi
alipoanza
alipotangaza
aliporudi
alipostaafu
wasije
wasikubali
mwanamgambo
unca
unyeti
ununuaji
kasama
kasunga
better
beyon
belie
bertha
##engaji
makutu
##hitajiki
binali
kutalii
kutarajiwa
kutapunguza
kutachochea
kutafutiwa
kutawanyika
##onavyo
kusafishwa
kusawazisha
wataenda
watakuja
watakutana
##ungutwa
##cedes
kujisikia
kujulishwa
##okono
yaliyowa
yaliyopita
yaliyodumu
yaliyotokana
yaliyotumiwa
yaliyopangwa
yaliyopendekezwa
akci
haiweze
haifanyi
haizui
haileti
haijuzu
haijumuishi
matope
watch
irdr
ufuaji
ufujaji
ufukweni
kukupongeza
##inyima
tumeku
tumesha
tumetoa
##folewa
kinaonyesha
kinaeleza
kinajumuisha
ukitumia
ukiingia
ukifanywa
ukiongoza
ukijulikana
ukijadili
hawaji
hawato
hawako
hawastahili
hawatakuwa
hawajulikani
hawapewi
dee
deli
dest
deter
deus
##llas
##potiwa
rasta
##thia
##thday
mbilinyi
ngaiza
lilifanikiwa
lilianzishwa
liliibuka
ikitumia
ikipata
ikipokea
ikieleza
ikifanywa
ikiwekwa
ikifuatilia
ikiwepo
ikilenga
ikitajwa
ikijulikana
ikizungumzwa
kuteseka
gee
gem
geti
gege
mamla
kuhai
zinazofuata
zinazoonekana
zinazotengwa
zinazotekeleza
zinazosambaa
mpakato
yameua
yameweza
yameingia
yameonekana
yamefanywa
yamepatikana
yamejengwa
yamepangwa
coin
coke
cost
coco
coimb
##put
##puuzwa
##puuzilia
wadada
kawaidi
##lambe
kiusa
kiudadisi
##joa
##jomba
##nzia
##changam
##changamoto
atau
ataye
atashiriki
atakosa
atachaguliwa
atashindwa
atacheza
atakuja
atazungumzia
atarejeshwa
##shushu
##rdt
dir
diyo
dire
dicha
dirk
diok
diyala
diddy
division
tunaongea
tunaangalia
157
utun
utupaji
##tering
nemc
kuazia
kualikwa
kuagizwa
kunenge
kunamaanisha
unaoisha
unaotoa
unaokua
unaosababisha
unaoruhusu
unaojengwa
unaotokana
unaoanzia
unaotozwa
youn
masomoni
uzingati
nox
yanayoanza
yanayopatikana
yanayolenga
yanayohitajika
yanayowakabili
madam
##umbano
wakisimamia
wakisimama
kwembe
##ambani
kuwasilia
nderemo
zimetoa
zimeendelea
zimefikia
zimefungwa
zimehifadhiwa
zimesalia
asr
ghalani
ghadir
ghaib
johan
kisauni
ndomba
ndoano
ndondi
##mwona
##mwomba
hayako
linawa
linahusu
wakubali
wakurya
##ateur
##ategeme
kitati
kitanzi
kitangari
kitandani
waagizaji
waajemi
kuondoshwa
kuondokewa
142
1400
fip
fix
fior
gol
golo
oklaho
oksijeni
stempu
akai
akakuwa
akafanya
akashiriki
akaanza
akachaguliwa
akarejea
akajiunga
vitamin
##caa
mbaka
mbabane
abdel
vilipo
vilindi
vilitokea
vilianzishwa
isanga
island
ilivyoonekana
change
senyamule
ukodishaji
less
lead
levy
166
card
calab
cavuso
ngos
255
259
matukufu
##engenezewa
ndulu
ndugumbi
nyabag
zouk
kubashiri
chele
check
fokasi
focus
175
172
mawaa
maguli
kilogramu
mtii
limefanya
limeongeza
limeongezeka
limefanikiwa
limepanda
##anguro
karaman
##mpelekea
haut
hauto
hautegemei
low
log
nur
kikosini
kilichomo
kilichofuata
kilichohusu
kilichofanywa
kilichoitishwa
yuna
kupandikiza
uasili
uagizwa
uaskofu
kinya
kinatu
kinatarajiwa
vinafanya
vinapatikana
atc
ujasiliamali
kusihi
kusiluka
malango
malumbano
mtakuja
##star
malaga
malabo
malasusa
2023
wafungaji
wafuatiliaji
##athibi
magazetini
##stice
kitulo
kitufe
women
wood
##laiti
##farijika
mvungi
them
their
kimada
kimabavu
kimagharibi
kimawazo
bandarini
##umbus
kifuto
kifuniko
kumefanya
kumefanyika
kumeongeza
kumetokea
kumesababisha
kumejitokeza
ubadili
ubashiri
ubaruku
wapenda
wapumbavu
kufagia
##harakisha
nyembea
kigoda
anayemiliki
anayejaribu
anayeshuhudia
anayewahukumu
kimepata
kimepokea
basil
matarumbeta
kutuambia
kutupiliwa
213
211
218
##pwaji
bwanakunu
apr
chime
chibe
chiungutwa
mabano
mabamba
mabond
mabondia
##minal
243
245
mauji
kuzimu
kuzifanya
kuzimwa
kuzitembelea
kuziuza
aliyotunukiwa
kibatala
##tishwaji
waswidi
lililotokea
lililoshuhudiwa
##kubaliani
kutiri
kileo
saar
saadani
saalam
vilivyotumika
stat
##ently
mikasa
mahdi
mahongo
mahonda
mahoteli
##dharau
majukwa
ajione
nyoyo
nyongo
mwimbi
##hamasika
##birizi
kumueleza
kumuweka
kumuuliza
kumuombea
mboya
ikoje
ustawisha
231
238
##cik
##cip
##cium
##cius
kushukuru
mashindani
saut
amewashauri
amewaeleza
amewasisitiza
amewataja
amewaahidi
amewahakikishia
huwasaidia
huwakilisha
wasioweza
umayya
264
aliwakumbusha
aliwakomboa
kulinganishwa
drr
elba
elgon
mnazim
hajakuwa
hajapata
chopa
chohile
angali
angahewa
kulainisha
tulisha
tulihitaji
kukipiga
kukielewa
kukiongezea
motomoto
agency
ileile
kumbulu
nilifanya
nilicho
nilitoa
nilitaka
nilipata
nilianza
niliona
itat
itatu
itatakiwa
itatumwa
itanyesha
machifu
zitaku
zitaanzia
masai
masaki
masahaba
286
akisubiri
akisomea
tunis
tunategemea
tunatafuta
naomi
marchi
tambiko
ushabiki
vimeanza
vimetolewa
vimewekwa
vimegawanywa
tatanishi
##ramanmara
kupelekewa
mlingano
##adam
kuporwa
kupotezwa
##shewa
##sheka
##sherehe
makoye
makomandoo
##tumiwe
kinachofanyika
kinachotakiwa
kinachojulikana
ikae
ikama
walipom
zikifanyika
zikiongezeka
zikichangia
gilea
##achilia
##rklareli
tibaij
##vol
serkali
sergio
sergei
kukabidhiana
##rerep
293
##ffel
kukodi
akikaa
mlanda
mlund
railwa
azhar
ukiwamo
ndama
wangapi
kiafrikaans
tutaunga
sydney
linalojengwa
linalotarajiwa
linaloendeshwa
linalomilikiwa
vinavyoonyesha
vinavyotarajiwa
vinavyotambulika
andy
adb
adven
advoc
##gemee
kulehemu
##bakie
##rudiana
##amerika
##ameyang
wakimpokea
wakimpongeza
353
cuanza
fcs
makadiani
guru
gusta
##mont
ninapo
ninahitaji
duku
dujail
##kataza
801
korokoroni
457
452
##zimisha
##ttle
##tting
##tank
yakitokea
yakilalamikiwa
##myk
##jinyaku
##hesabi
alimpa
alimshinda
alimweleza
alimkashifu
mwenyezimungu
##badiliki
ilipoanza
ilipoanzishwa
ilipotembelea
ilipoundwa
ilipoteza
ilipotangazwa
ilipokelewa
database
709
barc
barbara
barbra
uvuvio
iddy
identi
##tibuka
kuezeka
nimeanza
nimekuja
nimesoma
vete
visivyokuwa
masima
##ations
profession
kumekuwapo
import
imperial
##kodiwa
##changanyika
##changanywa
abdull
kitita
345
342
344
sanlı
hadhira
##tambulikana
khaima
amemkabidhi
arafat
maimamu
##kuliwe
upekee
albania
albinus
wahakiki
wajasiliamali
waliyofanya
waliyopata
waliyocheza
waliyojiwekea
wakilishi
itakayokuwa
itakayofanya
itakayoanza
itakayotekelezwa
yanatoa
yanatajwa
##ishutumu
likifanyika
iraki
kijasiri
peninsu
wasagaji
wasasani
tasni
magori
magofu
amealikwa
ameachia
hatuoni
##ана
maboksi
366
banka
banana
bannon
aliopewa
alioambatana
385
322
martini
conference
##lley
##commer
wadogowadogo
necta
ajisa
##tsk
##sses
##sser
kuamka
##khstan
##fanyie
1943
angelo
angeline
zitakazoshiriki
amoris
##wns
pasipokuwa
334
336
madusa
vugu
##shirikishana
kieletroniki
alivyostahili
maasumah
elezo
elektroni
ursus
ameiambia
opec
operation
mohammad
muhimili
iweke
iwekwe
kuheshi
kisukuma
nguzombili
kiviwanda
aliapishwa
shamra
shamsi
shamsa
##msingi
##waacha
##mbilio
haijasajiliwa
utibabu
utitiri
##xide
inawezekanaje
1927
company
555
asiweze
##ondelea
kisesa
zisizofaa
536
kijiti
kijimbo
kijiolojia
kijitabu
haikuwahi
547
kuhamishia
##uzuru
##енская
##енно
##ение
internan
510
access
##ments
430
##lomako
kuepukwa
vinane
hakuwahi
##susiwa
##jammoja
kiologwe
wanayoi
1931
490
492
499
##mekek
kusogezwa
brian
rununu
utomwili
elisa
eliud
uliokuwapo
uwezeshwaji
fredy
zilizokuwapo
kupaza
forbes
560
mdondo
obje
thika
then
thing
vasalatok
##iries
lowasa
594
647
640
anglophone
cement
cecilia
udharura
kufumbua
kufinya
kichadiki
eas
edgar
viazi
viaje
tukirudi
##vinta
mwakinyo
jadida
662
666
cir
##monize
413
trick
aliezaliwa
##rough
inatisha
393
##kumene
##derland
anayofanya
anayoifanya
##perbaric
619
hayumo
muhongo
unapofanya
unapoanza
shabaan
##ssian
kudangan
mapadri
hijabu
uliyofanyika
maswahaba
kufunguka
kumwagika
730
734
twahara
##fuatwe
aliyoipata
tpri
inapotokea
anapozaliwa
inamruhusu
inamiliki
inamshikilia
desc
alexandria
078
ipwani
trc
##sisis
##sishe
kidikteta
merck
mersey
mercedes
unyang
half
halloween
kuwaarifu
kuwaachia
alijikuta
1917
1910
1919
mbaraka
usugu
usultani
ususiaji
##uwasa
##tongoza
kumwomba
782
uekumene
wairani
wamalwa
##holm
carri
040
export
##uble
watekaji
wategemee
walizofanya
inatafsiriwa
009
006
834
960
tbn
nitawa
kashmir
alizopata
wanapofanya
wakikaa
690
887
konokono
mponda
##ukuma
alichokuwa
622
erc
erzurum
##tengua
harmonize
wanavyoweza
915
abasi
##scin
kibona
kuwalisha
wananufaika
1904
wamejikuta
norte
norwei
aries
fintech
mkwakwani
ameushukuru
ameutaja
fikrapevu
kamugisha
patrobas
kasesera
##rushwaji
##lamikaji
892
graphi
uanasheria
aliuwawa
879
onesho
onekana
##lasma
havita
havikuwa
haviwezi
wanajipanga
airco
haukuwahi
oppor
##iombe
##2018
kuvitumia
postdo
744
sunderland
##ины
##инея
lukuki
yatakayojadiliwa
##trace
##hamiki
kirgizia
rusumo
arguments
flemish
tfc
kisomi
hawajapata
hanan
hange
kanaani
scholars
wafaransa
mabeki
kagya
brook
coach
campai
stoltenberg
miguuni
khalifan
mmg
ssp
##linganisha
##linganishwa
##welezea
dany
mselle
uingie
mabusha
perth
796
mcfsp
swaumu
backtrace
massay
haukuweza
brela
janet
mshike
mshipa
##ndoni
##ония
kugomea
rahab
unavyoweza
1882
asiyejua
jens
##nyang
waganda
wagner
uchumaji
upakuzi
upakiaji
upashanaji
##elimishaji
##етен
naiomba
walichoki
waliojifungua
waliojitolea
kukumbusha
frankfurt
kusudiwa
kigwangala
842
kandjii
mlaki
qui
quotes
user
rayvan
imemhukumu
wakishinda
wakisaidiwa
##raltar
darassa
flavi
##ministi
lukas
belle
discount
tennesse
transposh
kuchuana
##atilifu
kategoria
kilonzo
anatuambia
1892
ccp
umewadia
mediter
kiekumeni
avn
bryan
fununu
ndago
ndachi
price
silima
silimia
silinda
##hangaisha
##thal
##ginal
vipawa
mathare
1866
africans
clarence
menon
oau
##teremka
mustakbali
anaushinda
anachoweza
##000cc
mioyoni
almaarufu
##lator
nassoro
haifahamiki
hunywa
parachichi
hyperbaric
kwitega
kwizera
score
scott
##theo
wangeweza
wangependa
zakayo
nimpongeze
kalori
kunyakuliwa
spice
tsvangi
tumishi
##одская
yatatangazwa
kuikabidhi
vitakavyokuwa
vitakapokamilika
##ponywa
walikokuwa
portu
philippe
izmir
philadel
philomena
type
visingizio
##frican
kushindanishwa
kibunu
bahman
badr
moreno
anatambuliwa
anatumikia
anataja
asemavyo
donatus
mycket
##dorora
silanga
silvest
akijitambulisha
inajivunia
boston
inatosha
haitatoa
##ambatanishwa
akombe
adolfo
oxygen
platin
kuliwasilisha
kuinuka
mazinga
##istration
kuwakatisha
laide
help
helena
websi
gervas
sentimita
kinyesi
kinyemela
atamwelewa
centro
dhul
khum
##datering
kidao
kibeta
kibera
mitukufu
mitundu
alimwambia
simai
iliyowakutanisha
kupuuza
kupuuzia
uliowahusisha
jaydee
kukimbiza
gymkhana
ayub
ninam
ninje
olmoton
organi
zheng
##ginta
##имир
kuzawadiwa
##telekezwa
##shinikizwa
sirte
walioutoa
masogange
zilipoanza
compres
kunusurika
ataadhibiwa
ataaibika
egidio
iap
iaea
mzabuni
vitone
alionao
mugla
mugambi
wameaswa
uchakachuaji
postium
totowe
payback
##peperusha
reginald
termekek
##someshwa
projects
calcium
kulalamikiwa
equatorial
iwasaidie
skrini
tweeter
марин
washiali
mavuna
mavugo
##toshelezi
kiwelu
kakola
sailor
walionusurika
rutachunzi
bomboko
billion
artvin
alipowaongoza
akwiline
friends
manila
ngede
when
والم
kuisadia
kubebwa
nicki
baseer
baseball
millioni
##potamia
##chatbot
security
dapper
timor
shanghai
kunywea
atiria
arubaini
bwiru
dink
mmojammoja
nkurunz
##pumua
kushikwa
kiganja
kakunda
taliri
taliban
##fikishwe
birthday
memory
memorial
inayowazunguka
jemadari
nilivyosema
ufilipino
alilolitoa
awdf
awwal
aviv
crack
crazy
dragoni
kroatia
##cineni
yamkini
kuiadhibu
##diriaji
happiness
##kesir
karolo
tayyip
tanznaia
jiangxi
wameshikana
mwembetogwa
luhahula
heaven
kutelekezwa
alichokiita
ucheleweshwaji
epza
fistula
manowari
songoro
##ckob
##умен
waefeso
wakiadhimisha
kuyatumia
kuyeyusha
##atunzwa
##lakna
mwathirika
miripuko
semistocles
ilizotoa
darubini
zikisimamiwa
uppdatering
helium
republican
teknohama
maharage
mnyenyekevu
kuhakikiwa
carolina
children
gibson
gibraltar
linamshikilia
makkahh
kiunzikuu
azaki
ashira
hindus
mngwira
##fyatuliwa
##екс
kuotesha
kuzaliana
mkurugezi
migingo
virutubisho
vivimbe
inaarifiwa
##geddon
estate
kimatifa
galano
county
##rtsenal
wakishuka
akishukuru
tunamshukuru
guangzhou
wakikabidhiana
المنتدى
multichoice
aziza
crypto
crystal
during
gunini
hpv
klara
latitu
njugu
orofa
plane
ramos
sungura
ushidi
wialaya
wonanji
xiii
wakwanza
yabisi
niebel
kuwazawadia
kahramanmara
alimwomba
tahliso
muwafaka
muliro
mwendazake
information
anyakuliwe
amenusurika
replace
uncdf
watatambuliwa
ukimbizi
lililojaa
mgandini
mgandamizo
zinazomhusu
ditcha
kusikojulikana
stamford
kielektronikia
commons
community
communication
bernabeu
mlowola
institute
agustino
astana
creative
cern
dmdp
imenunua
latifa
mfikwa
njau
турнир
##dhoofisha
zayıflama
viuatilifu
champions
muwekezaji
mushy
umilikaji
unaotegemea
masumbwi
tools
##lukindo
esperance
kukasirishwa
kipengere
southern
jeremia
hakijawahi
collins
kiuchungaji
nextgen
steinbruck
manufac
commercial
георгиев
agikuyu
embakasi
fdlr
kindamba
skype
гвинея
ямбол
##ландия
wa100
wagojwa
makiungu
kiumri
harold
##saaba
kazakhstan
laay
sexdating
sebastian
matanki
tianjin
wanatuhumiwa
bodybuilding
kusambaratika
korongoni
method
houthi
includes
reviewed
sharepoint
besiktas
kujikata
detector
dikrii
diyarbak
kuasisiwa
wakinamama
mtawalia
ubabaishaji
francois
ahmadiyya
##ronomia
varisela
##larını
canterbury
integration
antwerpen
anguko
aberda
didier
eiffel
gitau
gamaliel
ghouta
honduras
iwmf
ibilisi
illinois
jiabao
jumiya
kondele
nsekela
tpsf
utokaji
zisainiwe
##pendelewa
wafanyibiashara
##karibiana
nazareti
maeneno
kuwasomesha
migahawa
saluti
akizunguza
wakasihu
##logical
##bobezi
##andial
office
bogota
mtatiro
mtambile
aubameyang
kohler
bilecik
measu
mesopotamia
meryprisca
hotspurs
inspi
antalya
kunajisiwa
busokelo
revocatus
aikman
unwto
bethle
##rthodoksi
majaaliwa
fikiria
ablakvasalatok
lopetegui
septuaginta
tambarare
engineering
administration
kisiwandui
khaybar
brighton
##разоват
bloomberg
kubatilishwa
ibrahimovic
intelligent
swgoh
catalonia
sosthenes
hammarskjol
adesina
cranes
cnbm
dyibishe
dhihirisho
erasmus
gentil
hdif
honest
imalilo
ilyamche
jnicc
kmaishna
kremlin
mfanano
ncic
nccr
ongwae
python
renault
schalke
thawabu
ucsaf
udereva
uibuaji
uingiliaji
utumikishwaji
yumkini
виктор
##4youchatbot
##ャート
waranti
yassin
kuzoeana
kugusana
kughushi
kwaresma
maoteo
mafaniko
mazunguzo
kifungoni
kilyenyi
kiitwacho
kibulgaria
halamshauri
##kelynes
mihadarati
laetitia
vibonzo
viluilui
tafsir
siangicha
simwanza
umiseta
umilenia
dalmatia
nyandindi
unaffiliated
libreville
limfatiki
kupumzikia
mogherini
mersin
hormone
insulation
kuibanjua
mudavadi
joomla
ukamilishwaji
rostov
roulette
rotterdam
amsterdam
weginah
tekirdag
namanyere
beyonce
akcios
haizuii
determine
coimbra
dioksidi
fiorentina
oklahoma
calabria
cavusoglu
nyabaganga
uagizwaji
mabondeni
ustawishaji
mnazimmoja
tibaijuka
mlundikano
##jinyakulia
sanlıurfa
khaimah
peninsula
##commerce
internantional
merseyside
opportuni
campaign
tennessee
tsvangirai
olmotonyi
rutachunzibwa
nkurunzinza
kahramanmaras
sexdating4youchatbot
diyarbakır
ilyamchele
2a
3am
3rd
4e
4k
920
aq
a9
ain
azo
aishi
aje
ashiriki
awi
ajibu
adili
aone
acm
akisha
apokea
atwa
ashu
azali
aziki
aongoza
arusi
achaguliwa
alai
aelezea
akubali
auawa
ainishwa
atiki
atumie
azizi
azer
aingie
apewe
bp
bb
bata
bama
bwan
bondo
bunia
brug
bss
bumbu
brea
blat
bishara
c°
cda
cua
cbe
cris
cus
ces
clasi
dy
dun
duma
deng
dst
dango
dus
dhamani
dres
djam
dhehebu
dns
difaa
ek
et
een
eko
esa
eni
ese
euni
eind
eth
ehud
epuka
egy
ellen
error
ecommerce
fy
f4
fingi
fume
fcc
famili
flyn
fisadi
gw
gp
gs
gv
gri
gul
giro
gundu
glg
gbag
hs
hq
h2
hin
hano
hume
humbe
honda
iha
ichi
isu
ipan
ine
iende
ifikia
ihitaji
ice
itwa
ifuata
ikato
igizo
ill
iiro
ifahamu
ips
ijenge
ikh
ihali
igundu
ianze
ikisi
ifanyike
igogo
ipande
itoke
iingie
itokanayo
iendayo
iheshi
ipeleke
ifutwe
itolewayo
itokayo
ipitie
ipelekwe
jh
jm
jr
jili
jingi
ks
kish
kingi
kang
kene
kva
kyi
kony
kdc
kromo
khat
kingekuwa
khata
kredi
kyando
klins
lilia
lomba
linda
lance
m2
mmu
mmba
mro
mtum
mweza
mbari
mduma
mone
mende
mkeo
mtoaji
mzani
mshika
mmen
mjengwa
mhita
mpanga
mzao
mteuliwa
mshindani
mlog
mgawa
mpang
mlala
menti
minus
mdukuzi
mtekelezaji
mdudu
mjomba
mrdt
nch
nisi
non
note
ngon
nema
nandi
nyote
ntan
njenga
natumia
ndaji
nger
ncs
njue
nfs
nzuki
notes
oja
osha
ovu
oyu
oran
odisha
oct
oleo
other
ofid
pt
pf
png
pye
phu
psa
pine
penga
prt
pnu
pud
pfm
pmt
paneli
prussia
pdgs
qr
qq
qum
qua
qamaria
r6
rang
rumba
rondo
ringo
range
rating
rwasa
renergy
sl
sm
sika
sku
sko
sano
sre
scha
sung
slo
sze
smo
swan
sindi
scm
sena
sundo
sunda
sony
stoo
ssm
sfm
siso
spot
samburu
tua
tina
tati
tisho
tenzi
tene
tambu
tiny
twali
tengeneza
two
tms
tmt
tindwa
tendewa
tambaza
tsip
uin
uata
uele
ubwa
ujibu
unda
ugoro
udh
uita
uly
uambuki
ulli
utokana
uajiri
uonekano
ufikisha
uchanga
uenyeji
utumike
ugawanya
uriri
upokeaji
uandaji
vc
vuma
vel
ves
vent
vsomo
vishawishi
wp
wha
wend
weng
wenga
windo
wlac
xm
xs
xv
zf
zhi
zte
zong
zung
zongo
zeni
zingatia
zhou
zaman
£1
ао
ар
ад
бел
бур
бис
бург
вол
гор
габ
да
еман
ис
кр
къ
кор
кар
кон
кир
ле
ми
мал
мет
ник
нова
по
пол
пет
под
см
фран
эк
اخ
كـ
من
وت
チャート
##ui
##uh
##up
##ucha
##uchi
##udhi
##ulia
##ushwa
##utwa
##uchea
##ururu
##iba
##iji
##ira
##izo
##iga
##ibo
##ize
##itaji
##itia
##ifikia
##itung
##ituni
##iyd
##lmu
##lung
##lene
##zg
##zı
##zki
##zya
##zinga
##zenga
##zamio
##ara
##adh
##ack
##arabu
##alika
##akim
##adhibiwa
##wy
##wna
##wengi
##wena
##wokoa
##wishe
##wsos
##ew
##ec
##eta
##eini
##ekuwa
##eber
##ken
##kla
##krati
##kingia
##kson
##khili
##kise
##ktra
##kkai
##kleri
##kkale
##hd
##hy
##hyoma
##tandikwa
##tishe
##thamini
##tatuliwa
##tendeka
##pr
##ppa
##puaji
##pingwa
##ples
##patana
##pendi
##pindisha
##ghi
##gna
##glo
##gand
##gine
##genzi
##gene
##gendo
##gman
##gamoto
##nc
##nika
##nji
##nana
##nchi
##nenga
##nff
##nings
##cmo
##mka
##mya
##mwe
##mpo
##mote
##mkwa
##mania
##mkia
##mfikia
##msaidia
##mtaja
##mkabili
##ski
##stu
##sisho
##staa
##sang
##songeza
##swali
##switi
##jda
##jata
##jina
##jumlisha
##dn
##dat
##dye
##dma
##dong
##deo
##dwi
##delea
##dunga
##damano
##dley
##dhurio
##rme
##rte
##rchi
##rdhi
##rdani
##rato
##rene
##renge
##rate
##ringo
##rpor
##rindima
##rently
##oli
##ori
##ozo
##oana
##oaji
##ord
##orodhesha
##bye
##bti
##bro
##bbe
##band
##binga
##blan
##bzon
##vt
##vati
##vyu
##vane
##fili
##fina
##fon
##fishia
##frida
##ffar
##ffic
##yen
##yum
##yle
##yma
##ych
##yun
##yenga
##yman
##yataka
##ybek
##35
##ун
##уел
##вер
##вет
##ау
##ац
##ара
##ла
##ло
##лов
##ты
##ря
##89
##05
##4a
##кс
##ич
##ист
##ики
##иль
##нская
##нчев
##еж
##ера
##xen
##xhosa
##ган
##ск
##ıkesir
##لـ
##يد
##اع
##بـ
##بار
##хаи
##クの
##´iyd
##دار
##نا
##نـ
##бург
##брат
##ша
##ها
##った
##ـعـ
##ータ
##テータ
##スト
##ºc
##цкая
##した
waq
wato
waana
watum
waishi
wamo
wapita
wasisi
wachumi
wakisha
wafikia
washu
warefu
waweka
watoaji
waandi
warusi
wahiti
wamp
wars
wafrika
wairi
waet
waidh
watiwa
wahehe
wasubiri
watoke
waangalifu
waongeze
wahisiwa
wasukuma
wafike
wajuu
waluo
watekeleze
##wat
##wati
##wago
##watia
##wall
##watt
##wambia
yaz
yas
yaji
yang
yasema
yalia
yambe
yafaa
yakika
yakis
yataja
yabs
yakisa
yatolewayo
yatokayo
yazid
##kas
##karia
##kanga
##kalu
##kanda
##kataba
##kauka
##karah
##kashifiwa
##lita
##lium
##liya
##litaka
##linga
##lishaji
##lius
##litz
##liboli
kubu
kumb
kuong
kuish
kuongo
kuun
kungu
kutaa
kunga
kuduma
kuyan
kufo
kushirika
kuzini
kulwa
kuzoea
kuambatana
kuchanga
kuchangiwa
kugawiwa
kuchukulia
kugusa
kuendea
kumasi
kukisa
kuyata
kuumwa
kuishika
kukemea
kudhuru
kubanwa
kuvinjari
kuisikia
kuinunua
kudhulumiwa
kudhihirishwa
kukesha
kuambatanisha
kuwinda
kuanikwa
kuyeko
kugubikwa
kunoa
kukwea
kujiapisha
kuinyima
kudharau
kushirikishana
kudorora
##anku
##ansa
##anishia
##anyika
##atje
##atamia
##atema
##atatizo
##atiliwa
kwaki
kwara
kwasi
kwama
kwakua
##haj
##haji
##hasi
##hapa
##hauri
##hard
##habarisha
naj
naka
nari
naya
nara
naja
nash
nachi
nadu
nakata
naishukuru
nadhiri
narudia
nainukuu
nadir
nawasihi
najem
##ikabidhi
##ikamilisha
main
maam
maina
madhi
maamu
maun
maliwa
malu
mazungumza
maendelea
maho
maran
maonyesha
malam
mafung
mabiti
masabu
mapanda
mafungu
magh
marida
maambuzi
maker
maweni
maqu
magiri
maficho
##kuw
##kuna
##kutu
##kufanya
##kutano
##kulia
##kumbi
##kutikana
##inin
##inji
##inini
##inani
##inamu
##ineo
##inrich
##enenda
##enco
##enjin
##ziona
##zijua
##amat
##amwe
##amanga
katu
katili
katunguru
##iafa
##isen
##isili
##istu
##ising
##ison
##isenge
##isango
##iser
##isome
##baha
##baye
##bakisha
##bashiri
##babishi
##hito
##hirwa
##jit
##jima
##jitoa
##jiang
##jizuia
##jituma
##jiuzulu
##jificha
##jitahidi
##nacho
##najia
##nary
##navia
##kimo
##rit
##rir
##ridhi
##rimia
##rius
##riloni
##riet
##ricia
##ripal
##ridor
##yol
##yoa
##yoba
##yofanyika
##tome
##tofa
##tolewe
##tofautisha
##toboa
##daya
##dafi
##tawanya
##zai
##zar
##zawa
##zawadiwa
##umx
##umzo
##umpta
##ngun
##ngoni
##ngamiza
##kov
##koka
##koba
##kona
##kosuko
##kokota
##kovinta
##yasa
##yafanyia
##yakabili
kiin
kizo
kioja
kiru
kidhi
kibwa
kifun
kizungum
kigon
kifani
kiungu
kikula
kimea
kiyama
kifungua
kicc
kipanga
kifisadi
kiinua
kifundi
kirin
kiwia
kikina
kibishara
kiambai
kigiiwo
kidude
kibirizi
kirerep
kimbilio
kicineni
##raf
##raza
##rado
##rade
##rack
##rahisi
##rafuu
##razil
##lal
##lasha
##last
##lalama
##lard
##laita
##dic
##dim
##dith
##dius
##diversity
##difiana
##yel
##yed
##yekuwa
##yers
##yejua
##yeshea
##yemelea
##leme
##lero
[...]
