[PAD]
[UNK]
[CLS]
[SEP]
[MASK]
<S>
<T>
!
#
$
%
&
'
(
)
*
+
,
-
.
/
0
1
2
3
4
5
6
7
8
9
:
;
<
=
>
?
@
[
\
]
^
_
`
a
b
c
d
e
f
g
h
i
j
k
l
m
n
o
p
q
r
s
t
u
v
w
x
y
z
{
~
£
¦
¨
ª
®
¯
°
œ
ȡ
ȥ
ʼ
ʿ
ˠ
ϳ
׺
ݳ
ၢ
‘
’
‡
‰
€
😁
😂
😅
😏
😜
😭
😯
😰
##a
##t
##i
##v
##l
##z
##o
##f
##u
##n
##s
##d
##r
##g
##m
##p
##k
##e
##b
##c
##h
##w
##y
##j
##x
##6
##2
##7
##1
##0
##5
##3
##9
##4
##q
##8
##ʼ
##œ
##wa
ya
wa
##li
##an
ku
na
##ka
##in
##ha
ma
##ti
ka
kwa
##en
##ku
##ri
##na
##ma
##ta
ni
ki
##ba
##si
##hi
ha
##ra
##on
##di
##zi
##ji
za
##la
##da
##le
##tu
##yo
##za
##he
hi
##kuwa
##ya
##to
##ki
kati
##we
la
##te
##ke
##ani
##ye
katika
##ini
##sa
##mba
##likuwa
##un
##re
##sha
##ja
##ing
##bu
##ia
##ana
##me
##mu
##hu
##ho
##go
sa
si
##gu
ba
##ko
##fu
hu
vi
mi
kama
kuwa
##mb
##mi
##fa
##zo
cha
##pa
##enye
##de
##ga
##po
ali
##do
##ge
##wenye
##idi
amba
##ua
##mo
##ina
##fan
tu
ye
the
##ro
##se
ta
##ll
##bi
kwenye
ina
ju
kuto
##er
mu
zaidi
##shi
alikuwa
mo
ana
to
mwa
hiyo
##kini
##kati
una
we
##ch
##pi
ili
##ine
##ru
##ou
ny
##fi
##weza
##fanya
##lo
##st
se
##ne
wana
wao
lakini
pa
##cha
##su
sana
##eng
##sh
wakati
##or
##sho
##ria
##dha
##mbo
##ote
au
in
vya
yake
##du
##bwa
##dhi
kutoka
##uni
watu
##enda
re
an
##wi
wi
##ele
##rika
ch
##ano
da
baa
juu
moja
##vu
kila
##hat
ja
##ingi
##wan
kazi
kwan
hiv
bi
##ende
##pan
##jua
ilikuwa
ra
fa
##ve
##kana
##uri
mara
be
wan
##cho
##pe
##babu
bu
##ungu
##ce
##husu
##ow
yeye
it
that
bo
kwamba
ambayo
##che
##oni
##moja
so
kitu
hii
mwaka
po
ca
##lia
mtu
haku
sababu
aji
sisi
kuhusu
##sema
##mia
##je
walikuwa
he
nyu
##lin
of
##jia
hata
uta
wewe
ajili
li
##dogo
de
##mbu
##ribu
co
kufanya
##lu
kuna
##zuri
me
##one
shi
##ze
pe
##ingine
##mani
##heria
yea
##eni
##mp
hakuna
##riki
##engi
chini
##dani
you
##ss
hivyo
##ona
mia
##taji
##pata
##sili
##ju
go
mku
##chu
maa
su
##th
le
wake
yeah
th
do
uh
ne
##ca
mba
##00
##anga
kubwa
##ter
pia
don
um
##gh
19
##gi
sasa
##so
##liko
##uti
will
ndani
pro
ji
##ene
##weli
njia
no
muda
##ida
miaka
##tia
##is
ga
##hitaji
##ly
unajua
siku
##ld
sio
##kani
te
##wango
baada
ri
kn
kwani
fu
##bo
##ck
je
##neo
eneo
##mbe
##hari
baadhi
hali
know
##engine
and
gha
hudu
huduma
##chi
mare
##mizi
##anda
pi
mw
mwi
maka
##ongo
ke
##pya
ko
wange
##kua
##hemu
ngu
##vi
##fiki
##ent
zi
wali
##ver
##va
karibu
##taka
##ry
##himu
ti
##tion
sehemu
haki
fe
pamoja
##engo
##endele
##sheria
yao
lo
nini
hadi
##yote
##fun
##dhaa
hapa
ame
##taa
kweli
##isha
##onge
usi
##shara
##ran
wengi
hilo
ro
chu
ime
##pen
she
ho
##faa
##toto
maji
##zima
##ink
uwe
##rs
bado
matu
kupi
kan
##bili
muhimu
aki
mambo
mas
##lan
##ono
##am
fi
##wezi
sha
##rikali
huo
bora
##dh
##sia
serikali
marekani
think
##fauti
but
unaweza
##onekana
kupata
##gra
kwanza
kuliko
maku
mfu
##rama
nje
##ght
nyingi
un
man
##ngu
shu
can
mwana
usa
##dili
##mbi
gharama
##ong
bila
asili
##zaji
kidogo
nyumba
di
##es
wote
at
##angu
##thi
##iashara
inaweza
mji
##ty
ambao
##kazi
mwisho
##pu
##ifa
##tumia
iliyo
yangu
hapo
kuta
##ena
##bari
##saa
##rne
##onye
aina
mpya
##pango
maha
##co
kawa
##sta
##toa
kawaida
##shirika
they
yote
maele
vita
tofauti
##lly
kiwango
alisema
sawa
##fe
aka
habari
##yi
##hisi
mb
##yu
mmoja
uha
##siwa
zamani
##kio
##shaji
kisheria
kab
##biti
progra
##asi
mwenye
##shin
##rd
##ts
kile
##ling
##fsi
mimi
##toke
##hou
##buni
maelezo
##chukua
mbili
jo
uli
ucha
on
vile
##lama
##kia
watoto
hawa
ida
yo
nchi
ndi
kanuni
kabla
##shwa
en
vizuri
kus
biashara
##ted
karne
##fanyakazi
maba
##fani
mashirika
##ton
al
cho
hai
tuna
mbali
nili
##lamu
##mili
programu
##pin
jambo
kuji
mali
##sto
##wili
yako
##dhani
##wali
bar
##ue
shirika
##tua
kabi
wazi
mwingine
##andi
mata
zina
##ume
lazima
kesi
##anza
uku
##be
for
##the
##uli
masha
##fadhi
##mla
##ci
ge
wafanyakazi
maisha
hivi
shiriki
199
##guzi
yoyote
##inafsi
fedha
rea
kuka
shirikisho
kusa
kutoa
##rt
mengi
##saada
nyingine
##refu
sheria
st
huu
mada
##pita
nguvu
sta
nani
##rufu
##man
was
du
not
##husi
zote
kita
##vuti
wengine
mkubwa
kiasi
kuona
##endo
mt
##kiwa
ambapo
##poti
nilikuwa
ume
pre
matoke
matokeo
kw
kute
tena
ar
kuonge
##uzi
##mii
kupitia
mfumo
my
##inga
##el
zao
##it
jin
##ble
##raka
pesa
##ang
kuja
ut
##inge
##pande
af
##tizo
##mamizi
mk
kabisa
mbaya
msi
kuku
yana
bara
uka
##dhibiti
nzuri
kadhaa
hizi
##onyesha
mapa
kun
wenye
have
ru
faida
##vyo
##pati
##hidi
umma
##endaji
jinsi
like
ex
##san
##idia
##pende
ve
##zwa
up
just
matumizi
kamp
kwenda
##kika
kutumia
##eno
is
##kili
##mbani
asilimia
##no
##kwa
##penda
kuu
kiku
kituo
kui
us
ita
##zungu
##weka
##patikana
ambaye
##bali
wangu
##hihi
wako
saa
##eneo
aja
usimamizi
cou
kulikuwa
##endelea
mkuu
##fano
bidhaa
fami
##wapo
##dala
tatu
##ut
##und
con
##gawa
##chini
##singi
nchini
mka
maeneo
hatua
##od
maarufu
##fiti
mrefu
mta
##paka
viwango
##chungu
dha
##ane
idadi
##ork
gani
nu
##chote
nyumbani
##shiriki
chochote
hasa
##ung
taifa
ambazo
maoni
wanaweza
##chumi
san
barua
mili
leo
che
fo
nadhani
familia
kisha
##diliko
##son
mahitaji
kari
mabadiliko
hewa
ndio
well
##ting
##rea
msaada
##sc
haya
##geni
kich
new
tha
shule
##lle
mpango
##fua
##haribi
##ska
##kula
wata
##ndi
nya
mahali
yetu
nyuma
ofi
hayo
##rin
ama
uk
naam
ab
zia
##stani
##mini
maj
utafiti
##uala
karibuni
##kee
##ed
##ther
sahihi
##storia
ingawa
##mbia
##reza
##sti
200
anga
##kano
what
##wala
usalama
tovuti
ufa
ran
##sed
ofisi
##kta
##fo
##endeleo
##ys
kib
ajabu
usha
mag
usiku
uko
kumi
zake
mkono
##futa
ndogo
##rifa
##zini
##lme
all
##zu
iwapo
data
##lani
##ezi
mwenyewe
rahisi
kim
##land
##ghu
##his
##der
mai
kifa
mean
##mm
waka
kusi
##kea
##ywa
madu
basi
##ondo
vitu
bei
##ghuli
##dy
##lla
kusini
huko
##pindi
mfano
nafa
uwa
uwezo
kani
##lizo
##sheni
##pendeke
##ingereza
##dwa
sauti
##inu
pata
##tano
wale
##lojia
nde
ulikuwa
##ment
clin
huenda
hatari
##pani
ukaguzi
hili
wacha
##jui
##zali
dola
##maa
nye
nafasi
oh
##jibu
##anya
kanisa
sho
made
udhibiti
gao
##pp
##res
taa
nime
jina
kuvu
hizo
as
##yiko
000
##pungu
kura
##wani
lake
mch
kua
kija
malipo
haraka
##king
ad
mwezi
kaska
kaskazini
clinton
##ransa
athari
shaka
chakula
kutokana
##bio
##us
tek
##ct
kuchukua
wiki
lab
hakuwa
##mbusho
##unia
kampuni
##kele
##mbuzi
huyo
some
mapato
18
##ress
thamani
20
kipindi
##chaka
picha
mape
##bara
tekno
one
##lea
kit
gi
##laya
##lio
kin
time
msingi
heka
##jen
jon
coz
makumbusho
##badili
uju
mal
##les
##mali
rais
##gon
filamu
kufiki
kuha
mipango
##hudi
wetu
##red
##anisha
teknolojia
##rehe
shou
labda
##mwa
##rudi
whi
##amini
hakika
##wahi
##zazi
should
##yari
anaweza
##ber
upande
hekalu
kuweka
ufani
##and
mapema
ambalo
maalu
mahaka
kisa
dunia
binafsi
##hawa
ufanisi
lsc
wawili
ukweli
mpaka
awali
##mbea
##for
##zama
##firi
simu
##ppen
kusema
mtaa
hadithi
utendaji
##tch
##raha
tangu
##itwa
##mbua
##ms
##kumu
got
magharibi
##chakato
jamii
lu
jumla
##soma
there
##huru
kiu
##ris
##ni
tano
##out
fulani
ripoti
chumba
chake
pili
mawa
##diri
##tisha
sanaa
##jwa
##jini
gari
##ven
pla
rangi
never
jiji
##oh
kife
##tumi
kifedha
##hn
##chezo
mashariki
out
##pote
##aji
pengine
##jana
ua
##int
dhidi
could
kichwa
mengine
##jaribu
barabara
vifaa
##lewa
##ls
taarifa
kupan
##indo
kodi
mahakama
##ous
umri
maso
john
zilizo
iliyopita
##duni
##wn
kuo
##yan
##ishi
makubwa
sera
hicho
matatizo
maalum
##anzi
##mea
gue
wasiwa
right
wasiwasi
##uliza
aliku
##cheza
##tt
##ds
mafani
mafanikio
thou
##zingi
##teja
##ree
##as
kisiwa
##ers
guess
chuo
##kaa
kibinafsi
afya
tak
really
##mmy
kuli
sijui
soko
ben
##kiki
##lii
kuele
##ff
inahitaji
ambacho
mbele
##wake
##muzi
##cu
ngo
##mes
hufanya
mbinu
uweze
iko
mar
mifu
##radi
##bisha
utawala
pekee
mdogo
yeyote
kam
make
mwanaume
did
inaonekana
##bore
##gua
wanawake
lina
10
##mama
##rati
kitabu
kuling
nina
itakuwa
##rasa
##zamo
mau
##lima
vyo
bro
viwan
##jumu
wala
ooh
baha
##unua
uhakika
##chunguzi
ute
yenye
historia
uwezekano
wanaume
##mua
##gumu
akili
##ol
kupungu
##maduni
##weze
##bia
##mbali
15
kutosha
##unga
sita
sh
##jawahi
shughuli
kina
name
maili
isi
maja
bea
posta
malengo
##ded
najua
mko
macho
##taba
wame
matukio
##jeti
hote
va
##ssi
bajeti
yali
kuvutia
##ingatia
nusu
kusaidia
hifadhi
furaha
nne
tayari
badala
##jo
##gonjwa
##fungu
tume
cong
tra
##jumuisha
about
tommy
kisasa
mzuri
uchambuzi
jari
mon
get
maana
maga
##ango
##mbele
wazo
inayo
mtoto
mwan
mna
##zingira
milioni
huru
##lango
chan
##siasa
been
ulio
mchakato
##miaji
##fari
maendeleo
wapi
##gha
##tho
kushin
##xi
idara
uongo
##ingia
##ft
ing
##bora
mazingira
##hifadhi
##chama
##yama
kamwe
##ppence
tuppence
ll
##zungum
am
ikiwa
##tions
kule
##tima
ndege
or
##ok
ci
kula
##rini
17
##unda
kuanza
pu
safari
##rata
vyombo
##endesha
##andika
##id
fara
uchunguzi
##gwa
kut
makazi
##sanyiko
masomo
uma
##ence
##limu
vit
congress
halisi
##gele
ngumu
ac
##ziki
hoteli
anasema
uingereza
moto
gu
uchumi
over
##men
maadili
maonye
maonyesho
pwani
jimbo
ukumbi
##ses
poa
ai
wageni
mika
##jeshi
##engene
rasili
kijamii
rasilimali
##ster
masuala
mtanda
##onga
wakala
##zingatia
mtazamo
##tes
##engwa
take
12
chi
good
tulikuwa
tex
##undo
##linzi
mr
##liwa
alionekana
much
##ripoti
pen
##kezaji
##ratasi
##angalia
mat
hisia
##mpyu
kompyu
kujaribu
kompyuta
jua
##kosa
tatizo
mati
yaliyo
with
##cke
ste
##misha
##bidi
##unti
##yika
##cal
mifumo
kujua
bina
car
hutoa
wow
ziara
el
ima
##jazo
kamili
chache
kiji
kulingana
kuondo
##round
lengo
##mw
bun
majira
##rp
mafun
cu
sure
16
##raji
walio
dis
ubora
##gen
kifaransa
##rew
if
##tana
ardhi
##pimo
##ratibu
chagu
##ans
##damu
dakika
kiuchumi
##guu
them
##fisa
##ral
mwe
##fuata
hatima
##ep
maduka
wanasheria
kuongeza
##usi
mbalimbali
##thing
chaguo
uchafu
##saidia
ura
majengo
##ongozo
jengo
ng
##lau
daan
akiba
##jiri
baadaye
##husiana
this
bahati
york
##andishi
##ad
thought
texas
##tty
bustani
mita
##eru
kure
##ridi
##falme
wh
ziada
wastani
##fika
uki
any
indi
##uka
dh
wasi
matibabu
kisiasa
kurudi
ope
hatimaye
kupiga
inafaa
lilikuwa
kununua
##ple
haikuwa
##wo
maua
##que
ange
sina
binadamu
tele
##masha
kikubwa
yu
##pana
##mke
mwanamke
utu
maneno
##lf
mkusanyiko
##kun
wowote
white
zinaweza
##tro
makadiri
makadirio
##funzi
com
kubadili
yanayo
miezi
mujibu
too
##mbuka
mpi
##anguka
##pengele
##thmini
##rani
makala
##ii
sura
fran
##iro
suala
duni
used
kum
ok
huh
##elele
##husiano
##kodi
##zea
way
##tumika
##ant
##end
##angazi
##pania
##zalishaji
miti
medi
kusoma
##subu
dawa
uchafuzi
angalau
back
ala
zinazo
ver
going
alama
##mano
##ring
##chana
see
##rahi
##qu
thing
##mata
##fanyika
muziki
sc
swali
##shing
##subuhi
##ek
then
waku
alichukua
alifanya
ce
##mbelea
mama
ile
asubuhi
utamaduni
miji
didn
drew
baridi
hum
kulipa
##jenzi
kutu
##tive
karatasi
ze
##kezo
pombe
madume
weka
ulaya
##zani
##buri
##tic
kuishi
mradi
misaada
mbu
mis
bahari
love
kukaa
sifa
##katifu
##maanisha
mlango
maju
mazo
dhana
wenyewe
kifo
##zee
uwekezaji
kwake
##miliki
by
##ongea
##gekuwa
wateja
ed
par
##andari
tabia
##stari
ata
##kilishi
fur
kimya
##lli
##indi
bodi
##laha
ushahidi
kupunguza
bon
duniani
##tor
kufikia
kucha
kuongea
##engu
tukio
yes
##shima
##efu
kucheza
imekuwa
kuanzi
mamla
##ley
per
kira
ulimw
mafunzo
mamlaka
##cia
hao
##ind
14
zijazo
yanaweza
##sts
elimu
##gizo
##lls
##unuzi
silaha
ken
said
kihi
##lifu
jaribio
##per
sir
kudu
farasi
##ar
wachache
kupa
nguo
kuonyesha
mtandao
30
jeshi
##smi
mungu
mto
kando
chama
vigumu
##ir
haja
##kimbia
kuingia
##nia
kuangalia
##baki
##dhini
vitabu
##pendekezwa
##ways
##val
ever
ser
##ins
ulimwengu
##risto
usafiri
##ino
##hani
##dhari
kij
timu
flo
##swa
wanyama
##kra
tarehe
##panga
saba
##rom
##ance
##rib
juli
cor
##mna
vijana
adrin
mkutano
niko
##kikisha
mlima
##ny
ingekuwa
uwasili
bandari
uwasilishaji
kuendesha
safu
##kari
mazoezi
tendo
kikuu
nayo
jioni
tunaweza
##she
meza
##angan
198
11
##ur
alikuja
mkopo
pretty
##jaa
viji
##keleza
##lali
##tter
kufu
viku
maswali
watch
hawana
vyu
##choro
how
wanachama
##ler
##babisha
miguu
##jenga
zilikuwa
##yahudi
ndo
vu
##cs
ika
milima
msa
##lizi
ulinzi
kuhakikisha
ishara
##mme
##can
isipo
wakili
huwa
kitaifa
##ktari
kumbe
tru
wazazi
kuripoti
inaitwa
majibu
gra
fun
juhudi
100
##simama
##boresha
##at
kulia
kufa
##pole
mke
magari
##fundi
mti
wor
mit
comp
kuendelea
hasi
des
##pokea
mfalme
mchezo
changa
uzalishaji
##ongozi
kili
heshima
nice
rasmi
kampeni
akaunti
haina
##zito
kutambua
mala
##rusi
##upe
##zoefu
joto
##ph
madai
mwongozo
##gn
kuboresha
13
lou
kid
waha
kushiriki
##yansi
nor
namna
fursa
##cy
mtendaji
mate
shida
##fungwa
##moto
michezo
##shu
kigeni
jana
poiro
off
##ron
##mokra
always
poirot
##sor
kutembea
##late
imara
##mokrasia
ndiyo
sama
mbuga
nia
keep
inahitajika
kushu
uamuzi
alienda
aliye
work
##ps
gre
##bunifu
##kala
##oo
mume
usani
##rura
uzoefu
##vo
mgo
mwandi
kia
from
##rn
mwandishi
her
kipimo
ziwa
ujenzi
mkataba
mjini
han
marafiki
nyo
kihistoria
bra
napenda
mad
viwanja
wanafunzi
julius
yalikuwa
##kubali
##ger
isipokuwa
huyu
hakukuwa
huwezi
maafisa
##ongoza
##rti
##funza
##leta
ushin
##hispania
ushiriki
##dai
madha
ufaransa
wilaya
are
kiangazi
majimbo
##shanga
##onekano
kadi
##zuia
james
muung
day
mingi
washing
baba
##kelezaji
kwangu
siri
##lahi
##tolewa
kutekeleza
jamaa
kutazama
hapana
##our
wanataka
##uliwa
ubunifu
##lt
uja
bush
kijiji
opere
##vya
##baya
vingine
##orge
naweza
##rugen
##rugenzi
changamoto
kuingi
lot
##thibiti
##islamu
##fanuzi
epa
2000
amani
##risha
lugha
kulevya
prin
##mpuni
##chache
##pangi
ap
##juli
##eneja
nga
maslahi
mapendeke
more
mapendekezo
muundo
washington
fri
##sari
makampuni
vipi
uhuru
sen
say
dharura
kuonekana
kutafuta
mbwa
##dge
##roni
##beba
kuhifadhi
jengwa
##sibu
mik
kiraia
cla
rekodi
operesheni
##taalamu
ufafanuzi
utalii
home
##vaa
##tokea
gran
makosa
kuzingatia
##mbana
gho
##fia
inaonyesha
umu
when
##mare
pewa
ada
##gemea
moyo
mitaa
blo
iki
hara
duka
##mon
star
now
visiwa
##mataifa
##marekani
msha
look
ngome
##mzi
##ons
##poteza
##kwe
sijawahi
lea
umuhimu
kupanga
alafu
##endeleza
nao
##goro
##bli
namba
show
##vie
##penzi
majukumu
mage
sanamu
mv
##bert
stu
tri
kijana
##fadhili
need
kuzali
juma
madawa
##llas
##mber
pale
around
##len
kujenga
watalii
sekta
##ste
anataka
unafaa
kika
katikati
mawazo
##hada
##kizo
mafuta
misri
##habu
kukutana
darasa
kuondoka
##cro
sp
##pangilio
masi
##angazo
dhahabu
televi
fanya
kuchungu
hiki
##wishi
mwili
bla
kufua
beach
tr
ushuru
takrib
kimataifa
ukubwa
point
michoro
por
mtindo
kusikia
neno
ilivyo
lili
kubadilisha
##rse
kihispania
mzima
##gas
bili
kiti
##letho
##kiti
alitoa
isra
##zungumza
tho
hatu
benki
huku
kipe
##zeka
kutisha
aliuliza
##ttle
nane
real
rafiki
char
unao
had
wanao
tv
uwan
##tali
zetu
urahisi
##timi
sub
red
van
##tte
tuli
##koa
##biri
50
kind
ujumla
##tiona
sto
let
##sive
##vazi
##sse
unataka
kikundi
##kebi
##duki
mbadala
##giriki
uhalifu
vituo
long
kuch
##llo
audi
china
taratibu
fomu
vitendo
##ens
##maini
##hara
kuelewa
##xt
bunduki
fre
who
kipa
televisheni
##ces
kaya
kwao
##uza
mich
wagonjwa
mandhari
bonde
kamati
##rahia
##pendeza
ninge
##toka
##unt
ingletho
##tra
##kuaji
ngono
kutembelea
waandishi
ele
uhusiano
old
ishi
mstari
best
inglethorp
kote
pende
ukuta
ndefu
sia
tell
##zeti
##wezekana
##ks
mageuzi
zo
mga
##aa
##anii
umeme
bus
mikono
ukuaji
##by
kusho
##vid
##rofa
##sefu
dai
bure
uvu
miku
kijapani
oro
gla
only
kuru
feel
mashu
##hitajika
qua
##fungua
hou
kuendeleza
blu
##wadi
utapata
qu
vipengele
ununuzi
hau
##tea
tazama
##lote
news
kushindwa
kijeshi
kukata
ujuzi
viwanda
paris
iku
kiingereza
ei
salama
lolote
##dhu
##led
kichina
bri
siwezi
zawadi
##bility
##shind
##leo
##puka
##ves
usanifu
imani
##taafu
ila
mc
india
majari
vyumba
nataka
##shika
##logi
fle
##des
##unika
mawasili
ishirini
george
25
nzima
kuingilia
mawasiliano
##mko
utekelezaji
##julikana
kuongoza
very
##raja
kasi
##rou
##reat
kufika
dow
ikulu
cy
ufiki
ghali
kujifunza
mam
##pili
pri
##tiki
left
awa
waki
ushauri
mauaji
mbao
ikawa
tata
mteja
ter
##um
kitendo
##del
uhasibu
##bur
pato
uso
##ppo
kali
damu
##kwazo
min
##elewa
miwili
##al
##ky
inc
uwanja
ii
baraza
kuunda
mawili
big
msimu
wamarekani
mazuri
msichana
ufungu
ufikiaji
fukwe
##less
kale
dallas
maskini
haiwezi
samaki
##hiri
##soaji
jukumu
kushinda
ag
##ving
ukurasa
may
next
##ople
mwanzo
bima
##chwa
inte
##bly
akiwa
kupatikana
tuko
hos
##lie
masharti
kukubali
madogo
##huri
eng
orodha
mbio
wil
kifalme
##ction
##ced
nyakati
ukosefu
tal
##raba
anywa
mchana
vipande
mash
husi
##rumi
uchaguzi
bwa
##duzi
##dio
seti
##cks
##zungumzo
desi
via
##demokrasia
mazungumzo
giza
##yume
madhara
60
mbo
poli
roma
##thibitisha
ushawishi
##fla
##ongoni
brown
##il
uba
kipande
hasira
kuwasili
kuko
##kuja
##ongeza
##anganyiko
wo
kue
people
uni
##pinzani
##husisha
kuche
##zigo
##con
##tofauti
kuamini
##ston
##dd
umakini
dini
kupoteza
##ries
##ker
nyota
ft
197
anyway
lin
##ghulikia
##hoji
care
app
##tilia
##wimu
takwimu
alitaka
won
his
onge
bou
non
hima
##zed
usta
mawe
##kumbu
miongoni
same
map
slate
##hindi
vifo
buru
saint
mikahawa
##kataa
ndu
inter
kipekee
##sm
##dra
mipaka
alia
mpangilio
wataalamu
##siti
##zina
machi
resor
kusababisha
mazi
kabisaa
deni
##labu
##sale
vikwazo
spa
##enzo
1996
##ters
kuchunguza
kufikiria
##gy
##gia
##anisho
cali
jibu
wat
##inti
kiko
mfupi
kong
nyeupe
##mai
kushoto
mtaji
your
##sasi
hospita
treni
licha
fla
kucho
mary
kinyume
cro
##cally
##rembo
kingine
dave
maarifa
makini
mwanasheria
##ili
bye
kambi
him
movie
2001
kukimbia
##idhini
two
makubali
##ongamano
makubaliano
hisa
sherehe
spe
kigiriki
##kebisho
maamuzi
down
kongamano
alihisi
tuzo
##rajiwa
marekebisho
iliyopendekezwa
kaburi
##keza
manu
##tolea
last
kuongezeka
int
##et
kuanguka
mataraji
matarajio
other
##engeneza
upe
vibaya
kuzuia
ms
##don
kilikuwa
##keti
ghorofa
##ren
##tego
loo
figu
war
##here
black
hamasha
hamashau
uliofanyika
yule
hong
kumbu
mn
safi
##eleza
196
##linda
wajibu
##sting
##ture
kudumu
##qua
mchanganyiko
mvua
ako
sco
week
enjo
mashind
mashindano
im
mwamba
##angaza
mameneja
louis
washiriki
vo
upungu
##samu
40
##ner
##ungo
paka
daraja
##kundu
##pla
gene
micro
##erumani
mer
##om
##sikia
hutumia
mkurugenzi
kuunga
kuelekea
mifano
hoja
##milifu
vin
mart
har
##fikiria
##pumzi
mpira
burudani
##rish
pole
##chapi
hana
kuzungumza
vikundi
ufunguo
upatikana
upatikanaji
##rabu
kustaafu
mabaya
kujibu
##tegemea
net
fupi
##kaji
ghafla
##fikiri
es
kosa
kuleta
kiwan
tisa
mitindo
alipata
kuuza
kundi
##safa
peke
kushughulikia
mzungu
##tz
##iri
##ee
##lai
viongozi
mnara
##cent
kiele
takribani
##gan
##haribifu
cre
bay
##yer
siasa
dri
kudhibiti
kozi
##ould
##chezaji
vingi
##elelezo
kijani
nafu
saka
wingi
kuanzia
##rugu
muungano
kupendeza
note
##troni
sara
##deo
##mbamba
nyama
##ser
##eli
wanasema
kuandika
##funga
mvu
uharibifu
kunywa
sti
##mbuli
##baini
##undi
ona
come
sema
##lema
kujitolea
ati
mfuko
pan
angeweza
omb
alijua
##hariri
matumaini
##kilia
ufadhili
anajua
zangu
risasi
vyote
would
##kebisha
taasi
taasisi
sayansi
anaye
##dhabu
kwako
##mika
far
likizo
kusimama
upungufu
##angazaji
kumbukumbu
nyenzo
##mar
##ged
sur
true
##vutio
chanzo
cra
hawawezi
great
maanda
##kopo
ambavyo
kupungua
david
mgogoro
pungu
##rious
##dharia
reli
kutathmini
akasema
elfu
high
mkakati
kusu
##troniki
nadharia
mao
##eneti
ngozi
amri
nyasi
masikini
cio
##masi
##dui
jarida
kienye
vurugu
kienyeji
bono
##siri
agizo
urefu
kujumuisha
masaa
repu
mach
##wele
meli
##tting
##rali
toleo
kupambana
wakosoaji
nyeusi
adhabu
kuwe
alianza
hospitali
uwakilishi
mauzo
##ved
##ness
monu
bor
ilibidi
kulinda
design
kha
##stic
himaya
##jibi
gro
mboga
ajira
base
mabaki
##tors
told
under
sk
##ot
bill
mwanga
kifu
yeru
vijijini
kiwanda
##indu
mari
##vun
daktari
uhakiki
ingine
brea
mgahawa
nika
kielelezo
##salemu
ber
##biashara
1999
yerusalemu
mael
califor
##kuta
wanafanya
israeli
hanson
nafuu
maelfu
misi
aliandika
##idizi
does
500
##lulizo
mfululizo
stree
##loni
maru
kukataa
done
##chan
though
scho
hen
##ward
kivu
miradi
win
##bs
rati
##iling
hakuweza
kutengeneza
ustawi
cans
mzee
ilani
##idii
1990
##potea
##lling
wadogo
jiti
##acha
##vana
##50
##elezea
ziko
upendeleo
kurekebisha
anti
jitihada
21
##sion
##fidh
mbona
kupanda
##fidhina
##paswa
tathmini
pala
imp
pendekezo
wayahudi
mapya
toa
##ul
kukua
##mbazaji
inajumuisha
mwonekano
##ller
bidii
del
##pendekeza
figure
sou
##ful
aliongea
place
mikakati
##uzaji
##rid
mapi
vyama
##ped
jiwe
##nie
##zidi
vye
yaani
most
##jadala
##ders
hatuna
mrembo
mojawapo
uzingatia
uzingatiaji
wate
raha
want
uende
spo
##enza
yenyewe
halali
##gaji
ushindi
men
pepe
kidini
king
uj
##tini
little
sakafu
##sabu
vegas
las
hazina
year
street
video
super
nyaraka
inabidi
##luma
hofu
##ifu
##mina
nata
yesu
##puko
mashine
ndugu
ameri
california
japan
##maliza
##athi
mavazi
##geme
##uari
##sanya
##zunguka
##dea
zana
##ken
hea
exa
looking
vyake
mapin
tafa
1998
mapendeleo
robert
##lath
chuma
stra
nakala
##ches
ea
kuthibitisha
nikiwa
frank
daima
jane
##toli
aidha
yanayohusiana
mapinduzi
mexi
##angia
republi
##kristo
##diliano
majadiliano
ratiba
##furi
inapatikana
ec
upya
##tal
##yal
miss
##cation
ago
sy
flexi
pana
gore
mapambo
mzigo
##ktroniki
self
utakuwa
uongozi
anafanya
tafuta
sala
isiyo
##wood
hawezi
##med
something
##week
shaba
polisi
asi
upepo
moni
kuongezea
uvuvi
here
##kakati
upa
kipengele
nyekundu
##zza
miung
than
bilioni
langu
##lathini
##hiti
##lili
kumu
mchanga
##engenezaji
try
mimea
thelathini
course
##ira
anwani
vyan
newsweek
vyanzo
asia
kitaa
##lar
kitengo
kizazi
geuka
km
viko
wanafaa
camp
mitatu
wakazi
tajiri
usambazaji
mtakatifu
##fanyabiashara
kusafiri
##hau
watatu
##ten
nywele
kahawa
law
##poli
mwingi
hand
kona
upanga
anaenda
kuepuka
##ruki
manufaa
phi
dan
##ord
kuondoa
kilicho
boy
##way
cli
ger
##rence
##onomi
zako
##miwa
##mmer
##kiliza
kuamua
kureje
##shindwa
mkali
jamai
ndoa
jumba
italia
kibiashara
##fanua
##wing
wanahitaji
##zui
##ford
ugonjwa
##hamu
kimkakati
##somi
##toliki
uidhini
##wer
chukua
fin
##rushi
madaktari
mpito
pat
bunge
kai
zamu
aliona
raia
majina
ujumbe
##pendi
ten
##kumbuka
kimoja
##seme
rufaa
either
kal
##riri
kuchagua
wahamiaji
uzito
##ges
susan
doro
kuruhusu
willia
##hama
kilo
##shinda
kuzalisha
zingine
##kers
##sai
##jadili
vina
##twa
##ric
den
tamasha
unahitaji
##soft
husika
wavuti
kata
lao
hukumu
state
mlo
##pt
##wai
majaribio
jumu
town
##shana
wanan
utofauti
##ked
##wezekani
kuokoa
bwana
##mana
##cade
hawakuwa
enzi
##ctly
republican
fir
clo
##gd
kup
wanaonekana
jipya
kelele
makta
chape
utaratibu
ushirikiano
microsoft
umoja
##zing
wal
kutumika
haiwezekani
1997
kilimo
milango
maktaba
tun
popote
michango
##tani
##vamizi
##kwaa
kudumisha
##10
##lam
micha
royal
##anishwa
mtihani
binti
##eval
motisha
##form
aku
juni
mwenyezi
masafa
##lele
mus
##ffer
ban
##mamo
##oney
ruzu
maziwa
mzunguko
mahusiano
##day
baki
##llow
wonder
kumwa
##mbaji
anapata
mexico
##cky
##ssion
kuanzisha
##fanana
samp
vipimo
unaenda
ofa
##rithi
##jili
##tezi
miundo
##col
kielektroniki
mfanyakazi
where
machache
call
makundi
kimwili
##mekuwa
wamekuwa
##qui
kiingi
taka
kiingilio
deli
coun
##zeko
##mbezi
uwepo
ningependa
maandamano
ruzuku
watumiaji
##buniwa
##ned
ang
mtumiaji
ufu
##mvi
hams
amekuwa
angalia
even
wazee
##tuba
##chard
194
rue
kumbuka
linaweza
ae
fer
land
baadae
kofia
los
medieval
##tti
michakato
katego
hatia
##ough
kategoria
1995
michael
mjadala
kaunti
##fanye
unafanya
nambari
aci
jicho
ajali
school
lako
alileta
##luded
##burgh
hamsini
kupima
##fsiri
kujali
cent
##lini
##zation
usahihi
mgonjwa
sma
kids
kirumi
mor
##stra
malay
mashua
chai
harakati
##work
##mas
mwiba
##undua
sor
##rial
bob
##aneti
intaneti
kiyahudi
##jayo
inamaanisha
led
viti
mikopo
##biki
both
asan
##iya
nee
kifahari
aha
ira
mamia
inawezekana
post
##cti
majeshi
##somaji
wasio
##mble
makaburi
amekaa
##lada
pres
##phi
rai
##care
hope
exp
vyao
somo
live
maombi
ujao
starr
22
##chukia
umati
jumuiya
##rajia
hit
##andisi
##kes
ijayo
ufundi
robo
ongezeko
##dole
tangazo
##logy
mataifa
kwe
spi
asante
japo
jaribu
##bani
##meta
richard
##ties
##dumu
afrika
hasara
posho
mapumzi
matembezi
mikutano
mapumziko
wasa
naye
matangazo
misingi
milele
##hojiano
jan
mahojiano
##tembea
##ingo
les
##fore
why
##cus
wasomi
mataji
##ika
##line
mwitu
walisema
after
flexibility
kuuliza
##dish
walitaka
anything
hard
tamaa
japani
mwanachama
vitengo
##inda
cap
house
imebuniwa
##ban
##mosi
tiketi
##pend
matun
uteuzi
mashi
park
glo
##mit
sep
master
imag
tw
##domo
thabiti
ubaguzi
##ight
happen
matajiri
mimba
onye
ngazi
##gemezi
ahadi
##hta
anaendesha
neema
mg
ob
smi
pendwa
waislamu
hamu
kuzi
anachukua
madiri
##rate
##sure
included
madirisha
aitwa
##tan
pepo
uidhinishaji
##jele
kuung
ende
##lex
##wed
west
goes
iliyotolewa
wasanii
lililo
ud
kiongozi
rose
kuchapi
sampuli
lon
##ctor
serious
wanaenda
##house
naamini
gazeti
##sy
##zia
tupu
mina
muse
nguzo
aitwaye
gua
kike
wapo
ilianguka
utengenezaji
##jibikaji
uwajibikaji
kash
mei
ushindani
exactly
mnamo
mraba
misheni
##zote
##rds
majaji
##swada
##koni
kaa
caven
##vai
utangazaji
idea
kupokea
naona
husaidia
msikiti
zozote
vikosi
##deme
mwendo
mtandaoni
chapel
umiliki
kukosa
julai
##onaje
##ents
night
vir
muhta
mwajiri
boti
##ments
muhtasari
##mbulisho
##pha
##kuu
pay
##lala
mwaonaje
ufalme
grand
enjoy
first
oli
umba
##ding
seneti
wachezaji
##rio
##fied
suppo
change
bali
maudhu
##waya
kutokea
reme
shamba
kuacha
cavendish
our
minne
fine
anatoa
##shoga
before
##pishaji
maudhui
hadhi
##uaji
udha
sal
huja
##ones
shuk
cheo
kinaweza
##ping
##bon
##pping
sarafu
kwetu
kuhu
william
##mala
##gopa
chanya
utata
##some
##ket
friend
kuzaliwa
kifurushi
thi
##tain
sikuwa
kivuli
septe
panga
##thic
santa
masoko
##ripotiwa
##gana
##aminifu
##ajiri
wapiga
##place
ombi
ty
##dia
kufurahia
##gs
weusi
##ques
holly
maumbi
##reno
##mbaza
kinacho
cuba
ujasiri
##sihi
##mera
roho
watawa
magazeti
story
economi
mrs
wanademokrasia
jalada
fasihi
years
kuomba
kulala
things
lincol
lincoln
jang
umbali
##ney
##ched
##cau
vandeme
##shangaa
##side
##bila
dub
kinywa
apri
those
vandemeyer
80
##han
##her
##mer
huna
##fafan
riwaya
##umbele
##dro
kii
muswada
rasi
north
ghala
fan
##doa
met
pra
pindi
##van
natu
##kisha
mwele
miunganisho
hadhira
line
##llin
kaba
hitimi
##sababisha
green
hitimisho
##yed
##pewa
kitamaduni
rulema
irish
kuhitaji
yaliyoripotiwa
septemba
rulemaking
##vis
##rong
riba
uliopita
kaisari
mua
plu
haramu
shukrani
cru
##yanya
migo
dalili
emi
actua
##hiki
192
##toaji
duh
edin
mbi
##anganya
##dhali
tete
kufuatia
##min
##vin
##kan
marejele
marejeleo
90
wait
##andaa
ufahamu
city
edinburgh
miongozo
tas
##husika
##cked
saw
##fafanuliwa
##os
kutaka
##badilisha
##ibu
##rie
anaamini
hindu
##luhi
angeles
##hanga
inafanya
##shiria
ndoto
##onda
hel
op
kuf
mistari
better
hotuba
##athirika
70
yuko
maumbile
hakuwahi
##cial
london
nadra
##kufa
fresh
dublin
water
kupu
##inia
uendeshaji
imagine
mj
kas
kiislamu
viungo
para
mago
##table
unafikiria
life
kubeba
##chuku
##rated
##ologi
letu
mshahara
24
anapenda
paa
kulinganisha
remember
aska
tani
were
##ctions
##maru
##pendwa
marumaru
askari
wago
##geuka
njaa
##ctu
naenda
msisi
mchango
mguu
uaminifu
faili
carter
gothic
zinazohusiana
kufuatilia
##sca
kubuni
madrid
punguzo
ipo
##zz
##site
vivutio
abi
alisimama
##duku
##fer
kuvaa
turn
jam
resorts
2002
talk
sli
zenye
watoa
##mbano
papa
##tabasamu
monica
##tawala
##keo
hollywood
ground
late
amehifadhi
dr
bad
medicare
##orca
ulihama
nuru
##tibu
##biliana
msitu
shimo
alikubali
taken
##lity
##ines
drive
##pia
namaanisha
michache
busy
ren
##ffe
washa
colo
pita
job
kuchelewa
300
free
inatoa
sumu
kukuza
##thodo
dia
##bby
kauli
##jali
cau
shika
intere
utoaji
hill
mitano
blue
wazima
##laba
mapungu
193
kukabiliana
vinginevyo
##toni
viwili
alidhani
jukwaa
dole
jumamosi
sing
##bini
jack
uchapishaji
mgongo
##rk
##enendo
sty
##gundua
bet
trafiki
skrini
##gee
##fici
##chagua
opera
brad
onyesho
##toma
ph
##ensi
inaenda
regi
allo
steel
##non
##reva
alikimbia
rec
rest
##fesa
dou
##las
vichwa
miungu
##gate
muonekano
##taliano
wood
kiitaliano
doing
mapambano
mwelekeo
hy
zuri
##ning
kufuata
ladha
mapenzi
watumwa
uchaka
##zuni
##chuzi
tran
kiume
tunahitaji
kuidhini
maiti
##ise
##shati
huta
wanapenda
least
##cis
##shikilia
kukusanya
kufunga
dirisha
sada
##panda
prea
cana
##ging
happ
utegemezi
faragha
eu
spend
unapata
##piga
uhandisi
england
sec
clu
kuki
##gelea
thelu
produ
waraka
##marisha
##kilisha
nyembamba
kuvuta
##wezesha
ibi
ufi
##hafidhina
kirusi
##gue
utambulisho
##thiri
kupanua
wawa
mamili
dada
mkahawa
awamu
area
kukati
##onia
ofunika
sadaka
mamilioni
##diria
suluhi
##ungwa
madeira
charles
kihafidhina
funny
suluhisho
klabu
squa
uelewa
##pal
##andikwa
matatu
caro
kimsingi
rasimu
##eza
##heshi
huzuni
jumapili
mvuto
##iss
alijaribu
kutangaza
monument
##xon
##piki
hesabu
deal
##fanikiwa
##milika
fort
##tary
##reje
##inal
##stan
chonga
uchawi
majani
##fya
maandishi
kikristo
##set
kenne
msalaba
##fully
mode
##mple
##thia
hor
sun
##den
wafalme
walifanya
itabidi
wawakilishi
tan
##sara
god
##rts
howard
kujadili
##berg
##liza
##keli
umekuwa
##vunja
doesn
##tus
tafsiri
##ak
##lti
##ened
makaa
fly
nishati
haijawahi
couple
ara
mashoga
def
kuwasilisha
swi
nasa
kimbia
##tely
##ruba
##ently
chumvi
prince
aprili
hun
wife
27
##dded
makani
##vuta
supp
akam
##my
yasi
wafu
model
wakafuata
south
miongo
suti
makanisa
##mbaa
changu
noti
chem
kiufundi
##inua
##cer
##livu
##wide
wish
hazi
kilele
ait
##ws
mil
wanajua
vijiji
kikamilifu
mte
##pon
yale
kidemokrasia
bais
baiskeli
jingine
sea
kupinga
rena
cast
jela
chica
kumaliza
##anja
kar
malkia
virg
aithuru
ujazo
##toba
##furahia
##gezo
inata
expe
cyn
rennie
alex
hang
##most
shahada
plaza
##teau
chicago
##dri
##rch
##faka
kesho
uhami
##cket
vilabu
utaona
maagizo
matter
whole
##sitiza
cynthia
##tation
muongo
##body
atakuwa
yasiyo
##rwa
kuua
indiana
msanii
money
part
young
##onya
##unds
##tumikia
beat
oktoba
katoliki
##tative
kimaa
inategemea
redio
less
kashfa
kimaadili
mgeni
umbo
##onna
retro
##andamana
aliamua
##fariki
aliwa
##cheshi
##city
ula
anajaribu
gavana
##pwa
##ration
taba
wawe
sn
tai
soma
##insky
##nis
##lina
##boli
##shangao
##sing
napole
katibu
##rubi
makerubi
polepole
smith
tro
##cing
wafanyabiashara
kudai
##hei
mito
fika
program
##rough
##ball
inaendelea
##ined
zilizoendelea
##tional
audit
##issance
fgd
uvamizi
urithi
##sis
dad
dese
##sso
miamba
waa
##ends
has
jamaica
abu
##ddha
kufanyika
##cury
wasichana
every
ubore
takatifu
kutuma
american
mwalimu
makavazi
renaissance
uboreshaji
##xed
aliishi
surp
nilidhani
januari
##enge
vioo
##par
kitanda
bendi
wakurugenzi
mcca
resort
mmiliki
inasema
uchakataji
##gara
comes
ceiling
served
zoezi
agosti
chemche
##insu
##rado
##dau
wea
##gizaji
mwanafunzi
1994
kusubiri
##semekana
lango
kipya
vidhibiti
their
##diriwa
wakubwa
smart
own
##hh
kumbi
##rer
##ongela
gesi
mli
katiba
bau
unapenda
mitazamo
##bri
faini
proba
pick
kiro
##bibu
mikataba
##dhuria
jamhuri
use
peter
team
wenyeji
##pokeaji
##gna
kuhisi
marufu
##rida
##lled
cur
marufuku
##ap
##vy
##muni
##ants
##stone
mikusanyiko
ir
sca
kufi
mab
##gers
tel
ukanda
nimekuwa
classi
kipato
dani
anahitaji
wanapaswa
makaratasi
hispania
inasemekana
machipuko
visi
alijibu
##mbulizi
##pensive
alichagua
alisaidia
differ
majarida
agree
##zuizi
akizunguka
actually
interesting
##ef
kuweza
chungu
mercury
martin
26
laini
hutokea
inachukua
past
1980
iwe
upinzani
##lation
##mishwa
ligi
reali
iba
jirani
nilipata
stand
world
malaysia
umaa
maono
atlan
##cto
##ingu
makamu
mwanamit
kukumbuka
play
mwanamitindo
sent
belie
lew
enough
kurasa
kuathiri
wanandoa
lenye
##ctive
##hadhari
##riti
##vern
wazimu
umaarufu
ilionyesha
rei
demokrasia
colu
round
sitaki
##enzake
lawrence
jangwa
uga
##pendelea
##inali
##shio
mashamba
meneja
kuenda
nafsi
##zar
paul
wigo
imefungwa
uhamiaji
##engenezo
matengenezo
##renna
still
bran
##dda
kufungua
##meko
gar
preamble
sin
upo
wasomaji
kushika
proble
##ressive
##valua
compu
gri
vrenna
##gawan
##grafia
baharini
takataka
bl
wrong
wai
kumekuwa
##kadiriwa
mato
rep
lipa
times
couldn
scr
bradley
cash
piazza
kuhama
kilometa
aga
jene
kris
hajawahi
alitumia
chembe
huruma
##unge
##more
usio
kijerumani
ibiza
awe
ine
##cc
##cker
utulivu
watendaji
##hitimisha
kukatika
mapango
offi
coming
ngapi
wauzaji
##huda
franklin
uchi
##sie
##dokezo
##fanywa
tumia
profesa
##fuatilia
lewinsky
##mic
koma
nilijua
vikuu
kibali
coo
##ths
##thy
noma
kentu
florida
##mbulio
stage
archa
kuaminika
yadi
##rau
ilianza
cathe
utambuzi
kemika
walipo
##anganyi
henry
kemikali
kihindi
inasimama
##stant
colle
dome
barafu
francis
perform
mshauri
##tto
##bongela
humo
busara
walijadili
tishio
##change
tafadhali
salad
wagombea
23
shujaa
napoleon
ee
##ari
kuhusiana
##weo
##saka
##com
nilisema
support
##tomatiki
mana
##cla
mabore
vipindi
mob
kituruki
nodded
linalo
maboresho
mshangao
##ugh
dhahiri
##zaliwa
east
vipa
##lenga
##laka
umepotea
msimamo
wasifu
33
##rible
watakuwa
daniel
##umbe
##nn
##cted
##rop
kusikiliza
kuunganisha
udhaifu
##futaji
mtarajiwa
mail
probably
ibada
iii
pango
##amua
##skini
nixon
##ony
mashambulizi
umaskini
cen
##los
fainali
nox
seems
ub
engine
german
31
##stina
poland
nguru
chupa
krismasi
##fuatiliaji
##waza
##zio
full
feb
die
##sco
##lafu
tok
besi
fujo
##pengee
amini
##bes
watching
maybe
ah
##eld
##inikizo
##rested
huruhusu
viatu
afisa
jun
mako
unapatikana
pambe
riziki
niliona
##anzisha
virginia
mini
##unch
alifariki
wema
iliisha
thinking
peninsu
talking
##munisti
iti
tahadhari
ilionekana
##ously
msu
warumi
sigara
##iness
many
mkaguzi
johnson
believe
mpa
upili
##enga
##tein
vib
1993
publi
nguruwe
maria
shambulio
whitting
blan
et
washirika
##sty
wanne
gold
##yste
##skia
golf
##ville
which
aibu
fda
sya
##gre
maje
##tokana
kamari
wanasiasa
anne
three
##lles
israel
tokyo
besiboli
bre
mtoa
ucheshi
##ouri
##rned
colorado
fra
##turi
##miza
wanaishi
pool
##jury
##giza
share
kujiunga
whittington
##tangaza
##angi
195
##tanga
##eologi
##rose
present
acha
ear
mabo
sipendi
alibadilisha
##heshimiwa
problem
mlinzi
##cle
##ononi
alikaa
chri
bur
coa
alf
zinapatikana
retrofi
uji
##well
##changia
##wano
hakutaka
mont
square
archaeologi
##ddy
methodo
##oned
##badilika
##menti
urais
deri
gofu
##mbie
albert
spring
pande
uwi
ushu
mweusi
##ondoo
general
desemba
run
##times
bas
##fisha
buda
sentensi
kupaka
jumata
neat
msimbo
##ghai
mgombea
theluji
jumatatu
replace
roman
wakulima
allowed
28
ule
tom
usaidizi
vumbi
senti
kumudu
ak
fungu
##ita
sau
kukagua
kengele
kennedy
apa
mgumu
ori
uw
wavu
patakatifu
nyeti
wahindi
##pakwa
wanaamini
wiken
utayari
mfugaji
kuogelea
wikendi
urusi
wazuri
kulenga
chako
summer
mhariri
zu
##spe
miche
move
##fundisha
kusha
kima
fav
book
kutatua
matunda
peninsula
##mbwi
insha
capita
fit
##ongwe
tunajua
mzazi
injini
dogo
akaacha
wawekezaji
uza
uhalali
thomas
raised
##kamilika
##kuli
kiungo
##levu
vidole
imepakwa
nilienda
kuimarisha
focus
ilivyofafanuliwa
uonekana
##ea
##anti
inakaa
shikilia
##shangaza
uonekanaji
##bar
huongeza
##ors
kukamili
trust
mnyama
mkanda
##tumiwa
evalua
##20
##stand
2010
wazungu
naishi
wanajaribu
##pesi
akafungua
ela
mafuri
##ried
mashabiki
madhaba
mafuriko
ufuatiliaji
##sahau
side
ramani
mall
sija
washauri
zile
kiarabu
gp
villa
alianzisha
##shoni
room
imeonge
divai
waziri
takriban
pendekeza
amilifu
##ire
##cou
##inyo
##mbati
vidogo
viumbe
msama
##fy
kireno
##ania
##fanyi
enjury
##ssible
mashitaka
nzito
son
##tha
##tta
##funi
milo
##inema
ram
bega
almost
flat
1960
carolina
##iler
##12
##zibongela
##tuma
vizazi
1992
mkoa
##ront
priva
syazibongela
dho
mahu
alikataa
fal
hawajui
kufafanua
vibanda
35
kuandaa
##rage
wembe
rami
##vard
##omba
theman
sult
key
walitumia
zilizopendekezwa
air
themanini
aa
ww
nile
##eleka
amebeba
sometimes
break
single
##inyi
main
anata
bomu
nothing
mvinyo
maryland
ufichuzi
jones
##lishi
baby
alibaki
comm
kufikiri
##kunde
vyuo
yakini
waj
sekunde
hey
col
##boreshwa
kasino
iwezekana
##dence
##rem
aliingia
##timiza
msamaha
find
put
##teri
fact
starehe
kutun
##tikisa
kuwasiliana
kitaalam
iwezekanavyo
00
75
mafiki
##nam
nipa
sil
##gar
mechi
ukadiria
acid
mafikio
ukadiriaji
klini
kuvunja
##rally
##toi
##mbeni
##kubaliana
noted
madhabahu
kliniki
uandishi
mila
inakuwa
remo
ushuhuda
bru
kanda
multi
nyinyi
iliyohusisha
familiar
johnny
muunganisho
mdomo
rou
sather
dead
mapunguzo
surplu
waajiri
niki
bala
ano
maelekezo
##fect
michongo
bork
em
lan
lote
##uku
##jumaa
##ktadha
taaluma
mzito
uzuri
##remko
sare
##fali
pembe
style
mteremko
surpluses
ijumaa
kristo
tembelea
zisi
##shindani
pumzi
monumenti
##yanyasa
milki
kujia
##ras
##hoo
##port
##sudi
enda
##kelezwa
##fuatayo
wakuu
##via
bal
kitambo
expo
1970
dhoruba
utafutaji
iraq
ulaghai
##alamu
##rdo
vie
utaalamu
weekend
heard
emission
tabasamu
kukamilisha
kyo
##ghe
##mamia
##tumwa
gau
usawa
zilizopita
husiani
kupendekeza
watafiti
ngoja
watetezi
##ririko
leseni
ambo
cow
##gent
kitaalamu
##fute
moo
wanajeshi
##boss
mediter
desturi
norman
##kutambua
evo
mshiriki
veni
##rdi
kamba
kilima
kipaumbele
udongo
produced
budaboss
panda
tin
##head
baya
unaona
##cher
once
kwingine
alikufa
kirafiki
fundi
ramilo
adui
low
meno
##cra
##kufu
##dharin
##pes
count
gate
walikutambua
mandharin
##yuma
tunaenda
dhaifu
mawakala
kuoko
mandharinyuma
400
##gged
##sisitiza
##fakari
njema
hawaii
tunafaa
kutetea
friends
glad
##rabati
register
zisizo
fidia
hunt
##blia
##rimu
##sas
anaishi
##jeli
lee
family
kinga
##ming
##cta
##kitisha
facade
prepa
minara
##lipa
kivutio
wanapata
kulazi
bluu
plus
pm
wapya
##liano
##kuma
##zimi
anacheza
##anea
flu
ly
mpinzani
##ois
kulea
##takuwa
kio
##lers
miza
alitikisa
kutoku
seen
kupita
guy
kipaji
##mbatisho
29
##tical
bakuli
game
makuu
mabasi
kuchangia
##ordan
alfred
aya
ugumu
yard
utajiri
leta
read
maalumu
since
mediteranea
kuwezesha
hiari
shopping
nimepata
block
glass
finn
mccain
iv
nakumbuka
##hili
kuwapa
muktadha
wanadhani
revi
so2
kulipia
broke
wakilisheni
quali
interested
##zen
##mpa
kizuri
##kinishaji
lime
maadui
usakinishaji
ujerumani
##list
##rian
nilia
sikia
tumba
musi
kujaza
nimeona
kiambatisho
kumwambia
nahisi
mwakilishi
##linganishwa
means
##shed
vyema
musee
##mma
##sten
walianza
kutafakari
cheap
natalia
kuchapishwa
aro
aje
art
mmea
wadau
##ander
antoni
afunika
ukim
##shuka
ikilinganishwa
statewide
cele
uana
##jiunga
##yoo
alien
##graph
kuita
kuharibu
tumbaku
dra
##ruari
pas
nilifanya
sandy
mitihani
kuchora
februari
sukari
##box
##chapishwa
kuidhinishwa
ug
zingatia
##dhe
##met
marehemu
iliyokadiriwa
kujihusisha
150
getting
enjoyed
metriki
ou
vol
##15
##simua
##rest
viet
##ros
makali
mazishi
tafakari
cry
oppo
##tarajiwa
##recia
##guliwa
hutumika
##stria
mwenyekiti
kisayansi
wahalifu
www
bandi
mme
mpole
pwa
##ux
nazi
mabwa
reagan
kukubaliana
msisimko
##cen
walinzi
chapa
##katili
##mbuliwa
##cking
rub
vituko
ujinga
kurejesha
ombe
##lika
harusi
##let
jaji
fall
meya
dolla
amerika
msimamizi
walaji
wakilisha
salva
##lip
jozi
tunataka
vaa
kuwekeza
##ganaji
happened
gpra
curi
##irs
##khi
##yangu
wak
##nate
vili
anaandika
nove
fimbo
mitambo
##wor
##sions
##redi
tax
##pie
sugu
angani
wasafiri
kyoto
vietnam
##uze
wach
hud
miili
chumbani
unge
##lley
##mming
##undaji
endelea
##pers
kuwasha
##wis
pete
nilitaka
abbe
tennis
tre
##klia
inatumika
##zes
msaidizi
cnn
##dent
wamiliki
hama
##stru
case
lead
kejeli
choma
ukarabati
uwakala
##herehe
##mivu
tape
nyuklia
kusisimua
maumivu
din
##zone
##hami
alieleza
moshi
toka
##mwambia
disney
wahafidhina
mwajiriwa
another
mchezaji
##tland
##suaji
##kin
kibo
ball
aliha
##kinisha
tea
migogoro
wafuasi
##eling
##jengwa
nahitaji
##oupe
boo
boda
##dilifu
tetemeko
aj
eti
mshirika
plan
upi
##hur
pop
##gonga
val
boring
odd
##iko
##koti
cazar
makusudi
spain
majeraha
pl
##uawa
##wira
rapi
boiler
##fere
uadilifu
shan
waiting
nenda
ski
inawa
##masisha
magofu
venice
seni
hati
##leza
##ings
aliamini
indu
cover
cool
makao
mkononi
ningekuwa
apprecia
upasuaji
engineer
panya
wazalishaji
##rip
samani
budge
cri
syste
hate
##testa
sitini
hivo
bedro
hot
mifuko
central
madi
##tili
##sition
anza
nilihisi
follow
shot
kurekodi
classic
boilerma
nji
##py
kushikilia
##sayansi
##roka
unahitajika
bofya
ghasia
koso
uskoti
zinazoonyesha
akupe
##zimio
600
aven
##front
##dral
kubaini
kiba
chateau
##chambua
##vile
hakimu
##rant
jinai
lililoathirika
##chukuliwa
##lists
aliendelea
gard
risiti
ndiye
kuhamasisha
zinazopatikana
36
jer
mvi
mchoro
##kagua
kamera
juman
##enal
uliza
utani
kueleza
uturuki
jumanne
##uzwa
##dor
##rous
sounds
walimu
ndivyo
kuchoma
abiria
32
pua
possible
proje
##pur
kabambe
que
swe
salio
mizani
pasi
metro
##angulizi
mark
type
lunch
##kh
lau
##vered
shauri
iliyopo
mashaka
bwawa
trying
lady
##ship
anafaa
gagas
imeshuka
shoo
floor
mche
##cts
##hesabu
alipo
top
bibi
pembeni
##llary
short
greuze
auditing
machweo
kiroho
##fereji
55
er
mfereji
##zer
##sb
##kuru
zili
akatabasamu
##zingirwa
wakiya
kulazimisha
dru
##ice
wapokeaji
##rsing
kupika
kusambaza
expensive
inayotokana
mbizi
##uma
##urs
kuti
kufani
kutimiza
kito
fahari
end
choo
dutch
##anzishwa
shinikizo
canada
cathedral
kufanikisha
uzazi
##adhi
##wekwa
alidai
##roo
##enea
mantiki
##shindi
##hifadhiwa
ukiriti
america
opposite
ukiritimba
clea
##takiwa
kisi
jijini
##mbiwa
force
serves
##burg
senior
hers
ozone
##vyote
##ud
wakiwa
waingereza
mosai
anafikiri
santo
give
linda
abbey
kud
chao
tawi
pau
demo
mwenendo
hawajawahi
##cious
adju
wapiganaji
kuchapisha
archaeological
ami
apo
mind
##leni
##rai
inajulikana
vilevile
rudi
##fisadi
##eruhi
##tionary
martini
ato
##matwa
misha
milli
##paa
weupe
##rudumu
mess
##bel
vyovyote
hauna
jordan
kazini
##tage
##wepo
anachambua
paro
##vera
buddha
jim
mfumu
shin
ow
waja
##safiri
cairo
186
jumatano
wha
##llut
##stment
through
door
shauku
mashuhuri
alexander
uhamisho
##cca
##onald
##chumba
##boa
chance
kuruka
explo
uwiano
heru
otomatiki
##fti
##nu
nashangaa
hariri
aliam
##vutia
govern
unyanyasa
madarasa
princi
sense
terrible
aliashiria
##fakafaka
unyanyasaji
grou
saini
jadi
cal
deep
umepata
##pumzika
handsome
kilichotokea
sort
exposure
45
##dua
simba
##faki
tamaduni
beba
##mpli
kusonga
kusakinisha
##mmed
class
##mond
itifaki
novemba
mfanyabiashara
sla
sinema
##plo
##vel
190
amezingirwa
imekamilika
ent
contra
dhambi
##elelezi
##hitimu
##ttish
arobaini
hillary
##ret
ilitoa
wanatumia
inland
ingizo
cata
##cated
manunuzi
while
##lemavu
kuokota
herufi
nunua
half
alite
inaanza
muu
##chafu
##dhamini
tembo
##cused
puer
##deloupe
seli
atta
attesta
akawa
uwazi
mateso
palestina
fremu
qui
away
music
ureje
##lami
##mbinu
tiba
mahakamani
miundombinu
muabu
##zzo
##ografia
##jani
##rates
huleta
dating
buchan
gop
train
guadeloupe
edwa
wah
waanda
najaribu
misa
unasema
wimbo
biblia
soon
kunasa
wasn
zilizomo
yaliyoboreshwa
##tofautiana
noticed
kentucky
eas
psy
trea
vs
##lana
##enu
nita
harufu
buy
jitu
##ongwa
stuff
endelevu
mfumuko
bw
uo
wakristo
mahiri
midomo
alitembea
##row
anadhani
##ondoka
wachambuzi
189
gir
kijivu
blood
economists
bia
ire
mju
ushirika
wapinzani
kufundisha
##rad
huchukua
##taarabu
five
chombo
kutulia
weather
dorca
##rry
##ground
##taki
##tory
vijenzi
might
mizigo
wanted
dire
track
understand
##pher
wahusika
##maland
##riamaland
inta
##endera
##pindu
duke
check
giriamaland
nasaba
bour
ghu
pp
kupo
theo
depo
steven
karf
abudu
mipangilio
##book
##rahisha
ghuba
yame
##jari
alionyesha
##ual
dereva
##lution
##onal
usajili
kuratibu
sote
veneti
##ksi
sabini
pier
malalami
eeh
prepared
ambu
akazi
##ski
kufanana
##zisha
inahusisha
kutofauti
##cheka
deci
memo
proce
sanduku
watekelezaji
express
vilivyo
attestation
muabuduni
ireland
dorcas
cle
##zin
##ginal
yai
##weke
aliens
zime
##vers
mashairi
dhaa
assu
##sters
jamaika
##tore
alinia
wanatoa
mtun
lisi
1950
tells
majirani
kujitoa
ruwaza
admi
steph
kushirikiana
houston
scottish
jackson
aende
act
smo
##cki
##hal
##biwa
nyi
palais
tasnia
office
aliniambia
lisilo
95
##lon
##zinga
##rundi
hajui
##bul
alipenda
##roro
resi
wimbi
##range
fore
kuoga
cliff
kufin
buchanan
pin
upole
##gger
kupumzika
nyongeza
anu
massa
fiki
scotland
dhaahiri
alo
oo
ulemavu
##tari
##gal
toba
##chn
pamba
dea
##andao
mbn
187
##trol
##indano
##heimmer
computer
uhariri
##ambia
##jaji
pit
##ongoji
foot
stark
khabari
county
hersheimmer
800
eee
janga
slo
wine
##amu
##ints
maya
alicheza
augu
boa
mitandao
ghomo
mapana
kisu
##sity
##mere
##kofu
alizaliwa
##mos
##shiwa
##wanga
kabonia
kuhamisha
kikabila
kurejeshwa
hitler
fena
##ege
nato
##enti
saraka
tupa
##choka
start
cheza
kibanda
mnaona
ucho
##ingwa
visa
##shtu
chin
bought
inawakilisha
upu
##lma
##moni
##pped
kugundua
##jifunza
inahusu
##load
miamala
maelewano
kujieleza
nyimbo
mani
uchungu
##mka
watoi
machapi
##mation
huonyesha
mid
##mis
koo
steve
impe
impressive
mashimo
##wangalia
machapisho
##zy
##pr
hutofautiana
kilatini
##chuma
atten
##onyeshwa
jenerali
kondoo
plo
##gani
##mso
mumewe
crose
winter
pho
##lph
chapi
tar
##mbora
card
rock
nurse
ukristo
bright
kukoso
country
dollars
malalamiko
ugiriki
kipo
anakuta
##lyn
stahiki
wananchi
matunzo
antonio
kosovo
##gno
##bra
ham
unaeza
fafanua
##very
amana
misitu
##indaji
##ctures
attention
illin
##40
##kesha
aliweka
inaelezea
##pic
##dumia
light
imeandikwa
jose
france
##mmers
mtiririko
##pham
##vinjari
dry
ubu
ukiwa
kuchu
##sar
alilia
##loh
reason
stress
focused
##stitu
grande
camping
jr
##tafuta
kifaa
##rasi
##lei
maabara
mareje
kupitisha
##linganisha
shinda
##stralia
kabati
##anganyifu
uwindaji
kru
minu
went
kidole
##did
##zamwa
hip
mwake
##fifu
##iii
double
aliamwangalia
##hen
kuhi
##fiana
comb
shiloh
road
notre
meant
shannon
anuwai
kne
mcha
wing
##tuni
##gaa
##rodhe
##wisha
##cep
control
acco
##llie
grow
mabomu
##kw
##cka
##rable
cafe
neo
jeuri
kuelezea
corre
kufinywa
##amuru
illinois
##chaguliwa
gosh
few
vitambaa
jopo
mtaro
morris
##mena
sam
aliuza
##uali
##car
##tial
fumbo
kujipanga
chemi
kusimamia
misimamo
lor
##jaza
##fara
moving
inno
jaco
festi
shabiki
aliharibu
kupenda
mawing
kuwasaidia
box
##cations
marefu
ceo
caught
mp
##field
tembea
telling
##enty
usita
simulizi
hency
assume
mawingu
##zoni
##zao
##eness
matamasha
kuuzwa
kuigwa
addi
utetezi
taswira
sultan
cer
edi
nan
wenzake
##peru
##furia
ref
elect
kuwepo
vyeti
mjinga
remote
ungependa
##ikolojia
adi
upen
##gne
kigezo
##jiki
sahani
barne
anaelezea
boston
##silisha
arch
absor
penn
ukilinganisha
sensa
kuchangi
kuchangisha
dress
mcho
kuba
##rick
topham
gates
chuki
kuajiri
##aaa
pungua
tunu
bendera
##dana
mak
##wers
mizi
nyanya
dame
makabili
volu
twenty
udanganyifu
##gawanya
imeongezwa
ajenda
fikiria
makabiliano
azimio
ekari
ubadili
kau
##shia
##fir
radi
##takabali
standa
ngoma
mustakabali
khi
muuzaji
##lor
##pea
koloni
zipo
walipata
akaamuru
nursing
kuchekesha
different
atlanta
mizabibu
aw
##lv
wavamizi
##inted
##ray
sioni
191
##rance
##mann
umewahi
cont
sant
florence
port
ongea
avenue
puerto
##rich
##sifu
hall
sit
##mbwa
talaka
##chal
fashi
##fikia
alhami
jinsia
##stern
wasimamizi
quanti
##jibika
celeb
fcc
io
##est
##bb
##har
hupata
misu
##ficha
amefanya
akielezea
##ondoa
mostly
hutaki
sarakasi
##jikita
alhamisi
ath
fres
mine
##lendo
##bble
wapenzi
##time
kunahitaji
nema
form
vipaumbele
system
dhi
sindano
ugawa
sar
fak
##thimini
1991
dawati
inex
methodology
balaa
principal
ugawaji
##tp
##lder
##ffa
magumu
##roll
tamu
anaeleza
rela
chenye
##cape
akiacha
mwenyeji
##ywaji
tumekuwa
kushindana
ingia
boule
college
##remsha
adjustment
br
ox
watano
nap
##inte
##mula
kebo
umejaza
zilizohifadhiwa
chemchem
oooh
mayai
dance
une
##lis
kilio
##saidi
ilichukua
madereva
##lendid
splendid
kitaaluma
aege
edward
nk
uda
washindani
kugawanya
huanza
vigezo
##ropiki
anaitwa
##fic
australia
jazz
such
kitropiki
studio
ufupi
martinique
37
ari
##jano
nachukia
vipya
mienendo
alivyo
taji
inf
boris
gas
walijaribu
##fungo
arches
uanachama
waandamizi
aegean
msomaji
niende
##bishi
unaonyesha
bel
pizza
tunafanya
gereza
stri
saying
cream
##athiri
vinaweza
kinywaji
akamvuta
retrofits
kutokuwepo
appreciate
knew
gor
##mcha
huya
tumbo
anaona
##rupu
paundi
unless
##kwama
basically
disco
apple
kufunika
upendo
penal
kaka
##ented
kifua
chagua
these
boss
cale
##semaji
pica
feeling
kutegemea
exchange
##rudie
mitaani
keeping
delhi
swimming
gorge
##vre
##ssa
set
##elekea
came
matamko
##cul
funchal
palazzo
sports
castle
mahujaji
group
prudie
uthibiti
vote
##kanda
##yers
hujui
mwishoni
walienda
waliandamana
church
ndipo
waste
kuiba
##ringo
##phia
olive
slim
trans
mchele
##tambuli
##bal
##lable
hila
mur
vyakula
##eneta
alba
kukamatwa
mkate
##erstein
mwembamba
##cially
worry
nyoka
looks
survi
asiye
center
chapisho
##ganda
##maji
simon
##por
falls
dokezo
##cies
kisasi
guys
matiti
perth
wanaoishi
kuhudhuria
bauerstein
falsafa
cl
kupotea
kill
sayari
##fication
soka
utangulizi
##jomba
leave
aero
ramses
fresco
kukodi
kath
halafu
kuwajibika
concent
usafirishaji
appar
help
wau
##anduku
kupewa
mazao
kizuizi
##kiza
alicho
anaongea
knight
##vic
masanduku
##enova
bond
##talifiana
owned
avai
punda
##isi
##town
##hudhuria
river
imetumwa
kusherehe
major
kiutawala
utun
warm
manage
wakongwe
penalty
kusherehekea
gone
mfungwa
##kshi
##wati
size
cava
carib
ngumi
##vamia
##vals
chote
range
niaba
msisitizo
mshirikishe
mviringo
available
ipa
##tun
##tel
##tekelezwa
##stin
insu
bio
##chea
shati
##stal
milimani
hotel
princes
kivuko
fbi
##mpo
##bc
##58
kamata
tair
bed
dear
proud
##purupu
stry
island
ujue
pilipili
marupurupu
practi
kupuuza
acade
oak
ureno
##din
kubaki
##reta
alihoji
anajadili
basikia
##pper
vitanda
franco
madini
chemchemi
again
mpana
sch
spoti
uch
##mun
##anze
michi
juan
##ching
##rus
cable
rico
dili
premi
porini
united
##minal
counter
vitisho
experi
snor
ugaidi
ambuya
strychn
##pro
mabe
##yororo
vizuizi
##see
ilitoka
ilianzishwa
res
reti
bomba
capi
head
fuvu
##pangaji
samawati
stop
rapier
65
##gino
nidha
nitro
hubby
missi
chaku
wanga
fed
utumwa
##karibia
upate
columbu
standard
bwe
pun
nafanya
alivaa
##vies
joe
rubani
##kwambia
auditor
watangazaji
mmetoa
strychnine
##ec
kupindu
conrad
watawala
mwanzoni
scout
mkewe
straight
salvatore
alitembelea
##phe
##kara
simple
##mita
anauliza
undani
1989
kikoloni
plano
apparently
##nan
##clu
kuhesabu
masu
##rise
##ledi
badili
##full
##mbers
##get
fair
nukuu
##idhinishwa
generali
nikasema
migodi
valua
madimbwi
venetian
nitrogen
funga
mjomba
pine
wtp
##ater
napata
alitabasamu
##fany
##sel
dem
kutupa
kuchanganya
##stings
vinywaji
notes
highway
ubongo
mkazi
zoo
##usu
##gg
##yana
##mers
kuwakilisha
pollut
dim
presi
number
brazi
happens
columbus
##lson
##ppi
##kins
waathirika
makopo
##dale
##sad
della
jean
makabila
mbingu
ustaarabu
aic
mafundi
##angaziwa
vijiti
##lalisha
kukubalika
muamala
private
mishahara
usitafute
volume
chakushangaza
39
700
mono
##wari
waasi
mafu
machafu
##jabu
aliongeza
##ended
dep
local
adver
inayojulikana
kufurahisha
porto
univer
uundaji
##hema
six
huathiri
aliji
tufanye
insi
matendo
kijiografia
usanidi
##kebishwa
unified
magoti
frescoes
pengo
wind
nakshi
vipo
hero
tight
roo
holo
haiba
kuugua
zilizopo
shingo
binamu
festivals
mabega
42
##hy
##rison
simama
patter
bull
##gio
teddy
lori
nilisikia
umeona
ukingo
cir
alaba
bouti
natamani
expect
elabora
cel
id
kor
mapo
kipengee
##heri
baro
prof
kutarajia
norther
mstaafu
beatfull
aicpa
ast
hafifu
##mir
##mited
##lozi
wito
being
leona
imeanza
ext
kuimba
conne
conside
malaika
kuchunguzwa
lively
##ibuka
projections
baroque
01
48
afa
ewe
four
toni
upan
kamu
##mari
##onzi
##key
##ream
##mban
##sus
andi
ameenda
ndizi
encou
chofuri
kufuru
machungwa
garden
kufanywa
kuvamia
##tupa
tathimini
days
##lindwa
jibini
##stahili
nilianza
trauma
khazina
golden
massachu
albamu
wangapi
ohi
##gree
##kutana
##data
##reen
chafu
##dess
kutolewa
wet
##jemi
temple
unye
court
##usurika
ohio
fund
ur
##ffici
##zalendo
##geuza
anth
nyuzi
makungu
kusafisha
predi
dharau
wazoefu
eleg
glasi
##shanaji
goddess
christi
ubadilishanaji
kukodisha
dc
kana
nasibu
##huluma
##mishi
unaonekana
weledi
mtawa
##rative
brother
kihisia
despe
francisco
upanuzi
99
cfo
fru
kutumiwa
nawa
mawi
##enze
hurt
hujikita
alito
tambua
hear
nepal
mbe
stro
2005
##setts
basket
ulevi
easy
##zingati
bwela
massachusetts
osaka
pc
##pendele
waju
kugonga
##kie
##husiwa
##fichwa
wanasayansi
daa
##chell
##angalizi
##sole
amesema
kuteua
dhami
##mentary
tulienda
##play
holocau
98
njano
##bor
##cfa
##rere
##inguni
shibe
fixed
afford
shoot
##zeeka
mlipuko
michellin
holocaust
##kumo
##tarajia
##yard
##self
tofali
wanafikiri
reja
manane
niliishi
##bed
2020
yupo
spika
combined
valuation
machafuko
59
cia
mshindi
ufisadi
##usha
##zilishi
movies
pacha
defici
jikoni
feri
manne
food
188
plasti
zege
kufariki
##shukuru
philip
boutiques
wri
walin
kuzu
kuzunguka
baza
husababisha
ani
marais
hoo
kukusaidia
chemba
fox
ask
plain
mwanzilishi
worth
delivered
club
kuficha
mizizi
hcfa
ven
##vol
yafuatayo
kizungu
##kiri
##reja
western
wanacheza
##ender
ameweza
umewa
issu
##singizio
pensheni
cul
kukiri
urejesho
nidhamu
rejareja
97
py
renova
uislamu
##pd
##milia
##sea
mui
infor
uadui
angekuwa
kiakili
turning
waigizaji
##yoosha
ash
cd
istan
mmarekani
usu
##lk
wab
sambaza
hupatikana
vipengee
alin
alitangaza
muo
wei
zinahitaji
120
grandy
hanging
49
fli
rough
##lou
##cture
##lic
##lated
##pore
tuta
moder
unadhani
##pima
##lord
pasaka
rocky
fight
mbinguni
201
missouri
msukumo
mkandarasi
cowbo
deficits
wabunge
47
kon
uasi
##titu
zabuni
basto
##mbozi
##onist
gorofa
waliyo
uhai
##beth
married
edge
subje
suruali
notice
##perushi
bastola
lini
uto
xi
##mn
wahariri
kimb
##leka
sadda
musa
bir
##panuliwa
walijua
##fede
station
##mand
##bles
abc
kubadilika
kumtumikia
charge
intake
kimbunga
amp
njo
##ig
wafungwa
wahanga
##tever
chatter
##shire
##ory
##wima
prose
rocke
##cio
kusahau
chepesi
kutana
safuwima
explorer
mbegu
eliza
##rana
##gano
##hamini
macau
##unuliwa
tamko
ajiri
dei
kabila
mtambo
nyaya
180
order
kuthamini
mgomo
##view
mnyan
sijaona
government
basketball
elizabeth
43
sna
##ufa
wapa
waridi
kugeuza
hastings
##rey
tulia
##sey
mom
##subiri
dau
imeshindwa
kujisti
##ghulikiwa
mtaalam
madonna
museo
##ourite
favourite
choohoo
mawimbi
kujistiri
aba
dy
##rono
##clo
kufadhili
naelewa
magu
havana
victo
holy
##bet
dubu
askofu
market
uliopendekezwa
aim
sinai
kikombe
stick
kuwekwa
kuidhinisha
bourge
cut
ging
ib
##tri
##hs
##like
##savyo
moha
mwenzake
imetekelezwa
zinaonyesha
##mandu
kuny
compa
espe
mapito
jacob
ipasavyo
kupinduka
38
ls
##tin
##gging
##cco
##tas
anafurahia
papo
popu
pea
tech
stay
kulipwa
kuchambua
##rning
spot
##onyaji
kimapenzi
qualitative
ukimya
quantitative
pattern
saddam
bow
hung
toxi
##stry
##elewi
jacket
fadhi
bona
neva
promena
ameona
iliyoch
duu
mshairi
##ploma
uthibitisho
mingine
##lism
sister
tur
anao
anahitimisha
rein
##onekani
mwenza
##bean
stairs
##ingamizi
tripp
kathmandu
desperate
asa
drop
gree
kuenea
##nal
##rating
##hea
bafu
inasaidia
raj
mkuki
imefichwa
kusikitisha
##inuka
nimesikia
machine
hypo
snow
wajerumani
boilermakers
barnes
gsa
ice
##liers
##sisi
##dal
##unduzi
viba
mill
utabiri
##thengwa
lewis
kothengwa
dick
barakoa
chetu
mbuzi
ugunduzi
whatever
pierre
eeeh
absorber
boulevard
44
gan
spin
##orodhe
##fs
vika
tole
degree
tiles
formula
##cise
178
kikomunisti
happy
matoleo
repres
kujiamini
walinusurika
ncha
pon
swa
waya
havi
##kemea
boys
rise
piga
ulianza
alfa
cete
majumba
grant
upigaji
istanbul
mle
nh
rho
yapo
##tically
##tations
kipoli
chap
utathmini
deer
umwa
walidhani
formed
##xie
crete
natumaini
bandia
njoo
kipolishi
donald
ska
twi
vba
##any
##same
##dom
muuaji
##dudu
sui
hawaku
hawapendi
shr
helms
wavuvi
chatterbox
row
himbo
##point
inaku
ilisababisha
ilipanuliwa
buti
tunatumia
tunaishi
rugged
kuazima
##hudia
ngamia
##ronic
kushona
##mark
maandalizi
mwangaza
landsca
small
kutunza
##orodheshwa
##rium
kikanda
##rac
alishindwa
##vuli
hataki
iliyofafanuliwa
haita
ukarimu
uhakikisho
kalenda
atlantic
yrs
##jeruhi
##60
##kuza
kisingizio
##sikiliza
##unzi
miwani
##doro
anders
kocha
##vity
roy
##pul
tunajaribu
##andiko
kung
##scrip
urafiki
kuzikwa
arthur
caribbean
##pendelewa
especially
kra
ukatili
wachunguzi
##tilafu
kauri
hutegemea
##organi
kombora
amepata
kupimwa
along
madaraka
yanahitaji
##yango
inayopendelewa
modest
marejeo
##ufaika
sky
##cor
naku
nara
##rement
anapaswa
tou
##nes
hodi
unde
rus
monte
skhuluma
mapigo
defini
fashion
elaborate
kamusi
slu
##kte
kuzama
babu
reques
limited
amela
rolling
imejaa
kuvuka
vikubwa
adimu
utunzi
xiv
len
mhanga
tis
##veni
##ctors
##leans
##sely
##piza
ukali
mtaani
somebody
diski
##indua
harvard
credi
curious
ambi
singa
ugo
uratibu
##spi
##cre
nave
##tian
tuka
inavyo
unaendelea
##engano
solo
dean
cock
##funded
utengano
luxie
mnada
olim
mapungufu
singapore
ugomvi
idhini
mh
upin
ubishi
##kira
unaishi
bikira
piano
enter
geor
extra
magni
kufikiwa
chief
utukufu
yanayoendelea
kijinga
madeni
siamini
alors
upinde
900
##66
kidi
sad
mulindwa
ilidumu
utah
dot
noble
sheli
shuka
argent
##zamaji
gray
louisi
tulivu
250
wonderful
moorish
picasso
plastiki
ado
dume
iran
sunda
hubeba
muhuri
##suka
wild
raundi
boom
korea
walitawala
##ishaji
imekataa
choice
matata
wakaguzi
atatu
##aaaa
vinyangu
##chapisha
palace
miungano
phila
akuda
twende
waarabu
gingrich
##rge
##mate
alirudi
alipendekeza
##ruhusu
secon
hell
maajabu
mwishowe
ulienda
usingi
orleans
business
uvumi
mashtaka
##sylv
aerobi
jen
none
uzin
##oms
##liss
kutibu
kadri
haifa
##dies
##unta
##inama
anaweka
inu
daugh
pokea
makes
gui
grade
terra
kuhudumia
account
celebrated
huyaleta
mohammed
olimpiki
##jiza
##lezo
hitilafu
balea
alimwambia
unahisi
bos
##vitz
##yukoni
mtaalamu
##cular
display
ufunguzi
straw
mnyanyukoni
usingizi
##sylvania
od
open
vinga
##konda
##ese
##70
##mal
mike
##semo
sex
##wise
called
gabri
amekufa
stre
ukombozi
bahasha
##tics
term
upeo
kasri
mosaics
iliyochongwa
vingamuzi
##gge
##wri
walia
mac
##jama
sikio
husb
##dona
yep
auto
sol
utaweza
dozen
pipa
koti
##funze
haijali
ruhusu
usps
mawazi
kulipiza
##shes
aggre
bangi
view
evolu
##graphy
naples
academy
husband
61
fy
pingamizi
##tle
##lb
kufungwa
##ente
milan
anakaa
mega
fire
##pinda
forbes
myself
woods
industria
njiwa
##misri
eli
eve
ker
kugeuka
sailing
mio
alifikiri
analy
recon
##pet
##siliana
rober
kujite
kuagiza
byz
##julikani
scott
handle
payroll
pennsylvania
unyerere
nda
ria
sgd
##rik
lawa
##sal
inaisha
##stine
christo
pictures
##vice
amewa
amevaa
##mbizi
gere
mkondo
sand
found
bears
kumpa
click
centre
hazija
favour
mabwana
sgd58
picturesque
mha
##vance
kidokezo
davis
rate
wanane
bosco
##chembe
sound
power
nyuso
peri
shuleni
##unganishwa
broken
hifadhidata
walioorodheshwa
mwema
compan
kubadilishana
blocks
kukataliwa
flash
crack
syn
cataly
ubaya
##leti
##mise
inaadhi
wanunuzi
cater
demand
##than
kno
matakwa
ndevu
##cur
parti
kushuka
working
agano
##ddle
##vuno
##plomasia
##lton
##oi
##water
##likana
##kugawa
##mavu
##wemo
alihitimisha
tokugawa
##nel
resta
juulikana
poly
##mpson
##ishe
##yoteuliwa
##haribika
##muziki
##mental
mweupe
##troller
grass
warsha
gauve
athens
##jeruhiwa
gabriel
##donald
wananew
age
bene
##uu
##wana
##life
##lations
alii
anajulikana
prote
walionekana
amesimama
yanajumuisha
shoka
gusa
ukiuka
perfect
##ttered
daily
vyetu
##politan
kilomita
##lalamika
1920
chembechembe
mpakani
ought
fakhari
##federal
georgia
magnifi
ukiukaji
cbo
swing
##kho
##bin
##kadi
kifungua
##hel
vipenzi
paki
matawi
stan
alikun
##cuse
##ungaji
kuzimu
waterfront
euro
haijalishi
inaadhimishwa
der
mpenzi
umbi
mazu
##lat
inataka
##dhihi
beres
hema
lie
matusi
divi
##therine
zinazohitajika
comptroller
louvre
naogopa
tried
kipeperushi
nduru
kuunganishwa
kiboko
michigan
president
beresford
mheshimiwa
njama
pers
##wart
wakan
##lipuka
mabili
mavuno
##tishwa
##back
##got
vivyo
##room
anamiliki
tor
unazidi
##stle
rap
##peti
vitatu
haijulikani
##refushwa
zilizotolewa
uliorefushwa
okla
senor
quar
realize
stephen
innocent
eyango
gonna
##gle
##dian
##hutu
mum
unatumia
unajumuisha
##net
bishana
lebo
pigo
imekubali
choko
barry
gurudumu
learned
abit
milose
dhamira
eyangomso
62
sci
wenza
##enberg
kis
##tures
tui
legen
shetani
akisema
##shindo
kuteleza
exe
mashujaa
thanks
##waita
vipaji
##ropria
lawama
gerezani
umbizo
futi
msemaji
##fin
##pho
##light
kioo
##lay
##dadi
##inishaji
miga
##bii
angu
ankara
uhali
##ulizwa
arc
foster
uainishaji
kiajemi
wakimbizi
weeks
christ
misuli
fadhila
company
migahawa
amo
mrithi
hat
larry
tawala
kutoroka
reorgani
cae
fugo
##ongezeka
zinahitajika
mifupa
teleza
kumsaidia
mazoea
mgawan
hisani
##zuiwa
##anganyikiwa
retrofit
leonardo
promenade
magnificent
##kusanya
##tai
##lee
##lewe
##inisha
sifuri
##mizaji
alihitaji
pai
##sur
##sumbuliwa
jasho
radio
fede
unfunded
akasimama
##bea
stamp
kiny
yaliyopita
mafund
ceter
ikijumuisha
##trap
designa
thick
fanta
dinner
greeks
amelazwa
mawaziri
milosevic
iitwa
ikoni
jani
tindo
##vua
##rty
##kingi
##rics
##kima
##dest
alikula
inakuja
touri
hekima
kansas
att
kutaja
programs
##rdy
arti
kuitumia
zilizoangaziwa
pub
penta
material
ikiwemo
menyu
kitaasisi
mabwawa
psycho
survive
##fanyia
aerobics
mabilioni
iitwayo
konge
wall
kutua
kuchukuliwa
kuzeeka
##tamani
##rably
##hewa
vibon
##pire
austria
regu
radhi
hawakingi
##bell
italiano
184
202
kupangwa
ornate
1988
housed
superb
sorry
supposed
record
ubuddha
mpelelezi
profes
vibonzo
flan
##spaa
##lized
naval
##ramic
site
hupendelea
aliwaita
##ruka
##ruit
dedu
supu
future
##vable
akihutu
ulifanya
staff
##cula
mifugo
viazi
princess
budget
manispaa
experience
pollutants
akihutubia
aqua
mchuzi
mpokeaji
wamisri
kutumikia
nafikiri
##hodha
sici
huha
vichache
judge
inch
boat
tezi
andrew
##andaki
##lingani
ukungu
umeanza
kulisha
##harakati
basement
mjanja
junk
annette
wavulana
route
represented
evolutionary
##dhihirisha
uhalisia
34
schu
ulin
zabibu
##tosha
##ruhusiwa
anyi
bubu
dec
##ghan
rode
mahara
kutesa
mtawala
182
##funguliwa
acrose
deposition
muigizaji
daughter
72
gang
##ori
##sikitisha
##ually
tour
wanaki
##cess
poda
mtumwa
##casa
pie
ameshiriki
fil
mwanajeshi
reas
2003
mapepo
motor
lilitupa
hatuwezi
##timize
maridadi
recruit
kutofautiana
certi
ain
handaki
mshtu
pwan
sba
ulingani
wol
##zindua
##andani
nafaa
##tie
##baka
kuwatch
moment
cas
mkun
##lding
akim
matabaka
##force
plastic
##tumicasa
##tabata
else
scru
scene
aliyeji
greens
spare
twenze
##cause
iowa
management
oklaho
mshtuko
##tumicasatabata
twenzetumicasatabata
isa
itaka
ifuatayo
ner
ris
##sini
kwaya
##dabani
##mbazi
hupungu
husse
mira
tuma
tumcha
catho
amependekeza
imetolewa
excuse
advance
kitandani
changhan
179
wahakiki
1974
syria
wasiojulikana
nipate
##khidabani
kongeleka
hussein
changhankhidabani
58
alan
fen
whis
##pinga
##kha
##kwisha
##cru
kumaanisha
national
mabon
kiburi
##yes
##yesha
##holder
alifika
wivu
dala
prog
jezi
##vated
akakun
santi
marks
stewart
telekeza
149
1000
trip
modeli
supple
methodologi
##duate
kuchukiwa
retirement
bazaar
industrialist
mabonde
ais
pink
utoke
kubo
naeza
##kusan
##tekeleza
nyani
lit
fema
hoping
##lingana
mashahidi
ukoo
##quest
person
##stein
brill
##quisite
1930
mallorca
metropolitan
inexpensive
gandhi
legend
46
67
idhaa
##zan
##lica
kufanikiwa
##rist
##nah
bag
mufti
anasa
nyanda
refu
because
jeraha
keki
barani
usually
thoughtfully
kurudia
kupamba
stud
bayliss
replacement
dhima
argentina
atatufikia
restau
kuhoji
majaribu
##tazama
nico
##zare
huendeleza
##zona
##ror
inatoka
anauza
ann
dosari
jewe
##vali
##rnest
haito
mapafu
consi
watakatifu
##fortable
mkosoaji
uraia
kumfanya
130
##bainishwa
marijani
bauer
rudisha
alabama
gia
plea
##its
##psi
##ptu
##ysi
##30
##gusa
huunda
hutolewa
virusi
mirefu
##mbs
tosha
liko
mwimbaji
wangekuwa
amejiunga
haionekani
##milivu
msiba
karibi
##resses
##ffs
dhani
kusukuma
bank
happening
aliwasilisha
evaluations
wachina
joseph
definitely
designated
mzi
##bbi
walla
##ential
laha
sikiliza
alisisitiza
unamaanisha
wanaona
dagger
dagaa
##ingilia
miale
mkulima
no4
kombe
##rand
chui
##mbilia
ulimi
ulizo
kukadiria
stone
yanahitajika
mawakili
##olta
shina
##inosa
close
economies
columbia
jerry
adverti
christopher
mgawanyiko
##lize
nai
##ridhi
victor
inn
##mbulia
tiger
feli
amefungwa
ficha
masikio
nonfederal
##hangaika
flying
flytrap
budgetary
queen
mchoraji
##kteta
pentagon
oklahoma
dun
msiwa
##tengene
##ghari
##lisi
samu
bakia
huonekana
chain
##ination
moti
iliyoteuliwa
fast
melaka
imetokea
##gram
##angusha
##ulizo
mpiga
unaothibitisha
ongeza
delivery
naturally
chunguza
funguo
original
pasifiki
arizona
##zingatiwa
rockefe
victoria
louisiana
##gharimu
uti
uzi
##tsa
##ware
waende
kiri
kikatili
hatch
##humiwa
alituma
##ropo
##chen
semi
inan
##dufu
heri
costa
akiongea
##thea
rum
##chungulia
magongo
allen
ones
wamepata
inayofuata
bern
mapigano
##heim
mafundisho
roberts
mazulia
dinosa
mena
##fman
##up
##gni
##pta
madokezo
##orthodo
petro
nilijaribu
confir
175
ukitaka
kuanzishwa
kashmir
nikiangalia
kufarikisha
credit
second
atimize
ube
vene
##wazisha
katuni
kime
hal
hamp
##jiji
alisikia
tukiwa
##own
points
mtume
lis
nobody
gal
kodwa
hakiki
usafi
gum
vocha
birth
sunday
dhu
fua
iolta
tony
vuka
##au
##ccu
kumiliki
##rica
##dishaji
##une
bac
ville
anadai
pazia
waliishi
##state
kusawazisha
yanaonekana
foo
founda
kuachana
beauti
pur
##iiii
##tters
quin
##rejee
visima
kentucki
kuhimiza
protestant
wallace
msiwarejee
rockefeller
foundation
96
epi
utoto
wadudu
kuzingatiwa
hills
##jamin
##meka
sato
hukaa
##mitte
alianguka
##mous
tutakuwa
unakumbuka
inde
ret
##cheke
##mps
##gilia
ted
fully
lost
kupigana
archi
mapadri
##zul
benjamin
##ssions
acro
comfortable
corri
##mont
kupumua
alexand
capital
ukimwi
##piece
akaziona
khitalifiana
capitano
restaurant
emp
lengwa
qa
##rent
##pre
##yre
mars
alichungulia
turuba
anahisi
anarudi
willey
##endeshwa
mema
galle
kupigwa
##pino
##cidence
kuigiza
confu
##ready
kitenge
places
vacation
125
kupasuka
niambie
henri
walk
everything
shareholder
bedroom
wakiyachuma
daudi
russia
odds
wanakijiji
turubai
dua
epuka
pru
sq
##yonge
nahodha
##ridge
##tained
kil
##sional
##rak
##saki
##uno
sahau
pari
##sura
rationa
##onists
##eneza
waliona
##endelezo
imebaki
kutazamwa
akageuka
uliona
already
screen
1987
mcdonald
season
##funiko
##terior
crime
moderni
cowboys
bourgeoi
aggregate
bourgeoisie
edo
ron
sungu
##osity
##fte
alim
##dos
posi
living
peti
##vizul
ford
mkweli
ukovizul
mailers
wakali
faraja
kutanga
waliokuwa
versai
kufuli
elekea
esp
ufukw
uhamishoni
kukosolewa
umewaondoa
sungura
ufukweni
73
amu
fon
peru
malo
lafu
##tee
tajwa
##pigwa
cobble
ride
locked
kujitegemea
maliza
##beti
umerundi
rangers
wakae
shru
wilson
impor
##serve
##polis
doug
diesel
breed
zulia
##kusanyika
karibiana
beautiful
lafudhi
cran
equi
gy
##sen
wafadhili
kuchaka
maandiko
##mart
kishindo
##die
sielewi
inazidi
##stro
inve
fat
deter
mkongwe
kikuli
inayopatikana
##mente
##inopoli
##atre
haute
women
kikorea
mnyororo
mvuke
##bainisha
dansi
tunge
tank
##sieur
##stantinopoli
coast
mjuzi
konstantinopoli
bron
ic
mtaka
uone
##vine
kushangaza
kuhitimu
##tered
##geuzwa
tara
its
##mbur
##mbufu
peer
imewekwa
mwanae
rush
monsieur
vitongoji
penang
##rahim
samahani
##works
matope
ibrahim
toledo
progressive
71
nc
vyangu
nakubali
kafara
##top
##kera
sab
vichapi
alikagua
soda
##ssing
kaboni
kuiga
kusisitiza
nimechoka
isiwe
kutangu
ujirani
moore
limestone
njiani
wahyi
direct
kentuckian
versailles
vichapishi
gd
geni
mchumba
##fc
kuisha
kuitwa
kavu
kirefu
##dada
villas
##ery
unapo
java
cold
coco
shakes
exquisite
kuachi
1986
graduate
mitende
kidonda
breath
wasaidizi
diamond
public
sena
ufanye
##imarisha
##ets
##cano
nawe
##sikini
sign
bai
miller
tuone
##bishana
##fish
##nett
hobby
also
ready
ofisini
##minifu
majonzi
kitchell
##anzia
mausole
umasikini
complex
greco
##laiti
bread
clois
obvi
jangwani
difference
maintained
wajinga
crystal
kupona
##titude
lisbon
gwari
oxi
##hana
##west
mwao
nyundo
repa
sukuma
walikusanyika
kanusha
iliyofuata
umeamua
nafaka
viwandani
vaul
magavana
channel
##ckers
##tives
words
opm
cause
christian
akakunyoosha
gwaride
41
bingwa
eat
lind
##zindu
##cers
waheshimiwa
max
##tambua
##jipinda
##tofu
aliyo
morning
anaonekana
##sthe
cara
hatarini
list
gov
jeans
fira
mwanasiasa
usoni
##dway
mchina
inayojipinda
pul
yaliyopendekezwa
offset
muungwana
appropria
udhamini
styles
supper
coop
publicity
niliamua
pasua
procedu
elegant
##zinduliwa
52
ale
geno
mchunguzi
##bt
##tish
##endy
##lets
##budu
bata
huinua
vifu
tuwe
##shirio
waombaji
fagia
leg
teremsha
zifuata
hop
kujificha
prescrip
cour
ukomunisti
ualimu
hifadhiwa
zea
vuta
kuchanganyikiwa
feels
viashirio
dancing
thirty
kulalamika
silver
zilipendwa
paula
parole
gordon
weird
procedural
zifuatazo
cs
clima
vam
waweze
maine
matano
maege
kipu
##bab
##jio
mijadala
wizi
face
bother
gogi
dog
roll
##landers
kukaza
madaraja
umesema
adhu
kitongoji
yaliyodhamini
##oooo
unaohitajika
born
supervis
korongo
kinyang
anyiro
maegesho
yaliyodhaminiwa
genge
kle
uangalizi
##tenda
##longo
##ez
##wia
##lilia
kara
##histo
##dari
##kozi
viking
##romise
tale
wanadai
reed
annie
##wick
dell
stake
ukodishaji
marina
160
kupalilia
compromise
handed
vinci
kurejea
mlolongo
ufuo
obse
kiotomatiki
rubin
stretch
catholic
##smo
##gene
##kkubali
##kura
kicho
hapendi
##lotte
fainted
##velo
wanyonge
##onies
mel
##onea
propa
##chimba
amekkubali
shut
##cian
itali
cons
conver
walemavu
months
charlotte
woman
heart
finest
uwongo
girl
francois
mafupi
issue
bha
emb
fr
gundua
nf
##umu
##gro
##gman
wabaya
##making
##lezi
##shabab
##pas
mona
anatumia
##riadha
inge
##dul
##chester
soft
pic
##graphi
iliyozinduliwa
alshabab
upelelezi
kuifanya
##potevu
kupandi
##wns
##ssippi
trump
kusudi
patron
mississippi
badilisha
usumbufu
gun
jeru
upanda
##veness
##fri
##boni
##wak
maxi
##tist
kiche
##sians
##kim
mikoa
##moza
paci
##shot
rede
callie
cop
##somea
tim
##onyeza
akaweka
prehisto
exterior
##chunguza
##badilishwa
##aminika
inayoibuka
1982
malazi
shows
kikatoliki
michwano
landmark
##crat
extre
philadel
fuata
adhuhuri
upandaji
93
mandari
woo
##tiliwa
kachumba
haza
##heka
##sajili
##mbai
sale
tuba
juzi
pal
poste
imebadilika
uncon
benji
mwekundu
aliyeidhinishwa
kukome
kuchomoza
##ajiriwa
mitoko
##hhhh
irre
kufilisi
reich
kurekodiwa
pakistani
sicily
aliyejisifu
hakikisho
kachumbari
ane
achwa
mpangaji
orange
pr
##tina
##oa
##ctua
yamekuwa
##liti
##lish
##kata
maunzi
##sian
vifungo
##pori
##lome
paper
behewa
##jufu
##gie
gali
sharp
forget
##cie
press
thai
185
simulations
128
cef
kushuhudia
##stered
wanaohitaji
kucheka
ustahiki
grown
theluthi
evaluators
imeongezeka
kaufman
circu
kuthaminiwa
mioto
mausoleum
85
jeni
nbc
song
uondo
uhifadhi
urembo
##ist
##jing
##lier
kuvi
nasi
##rito
##takia
saikolojia
alisoma
aliruka
july
indo
dolph
neu
nelson
1900
##boto
jesse
pirates
ameajiriwa
uncle
rutuba
dhamana
170
scra
misimbo
vikombe
cruise
horrible
kimaeneo
kujiambia
masufuria
anderson
duara
appropriation
cit
honda
wy
zel
##fts
##spo
##dging
hami
mild
aliingilia
theatre
kutokuwa
must
##lore
catherine
cost
##ison
ritz
amegeuzwa
uny
akapima
kukamilika
kutekelezwa
arkan
##songa
bennett
marga
marco
kamanda
##lenia
eilat
kieleweke
fancy
inataste
board
striking
generaliza
shrines
professional
arkansas
avi
crea
fred
gr
##sted
##hakiki
niwe
nilin
kiorthodo
hire
kuwaambia
##sekana
judi
mumbai
unapendeza
ilire
wit
ridge
jeff
akikagua
kukupa
abs
advan
cita
##mented
cute
loved
williams
aimd
nonex
##mittee
kiorthodoksi
appen
bango
sni
wingu
##mine
##heni
making
##ript
niseme
kibaya
##huma
hukua
##mou
inapendeza
pays
rega
jaffa
##pesha
cohen
##siliani
nets
feu
shah
kusame
kisaikolojia
trail
kijijini
compo
kubadilishwa
grey
quay
hauwezi
kikomo
cross
martha
ujanja
##chukue
rouge
volcano
death
##leiman
division
##chekesho
philadelphia
uondoaji
netscape
hour
nju
##dan
##rm
##xing
kume
mataa
##date
##anidi
milenia
aliondoka
toyo
##pit
cook
##lus
meta
miadi
##landi
ulisema
arche
shop
nimesema
month
kutengwa
umakinifu
crop
junior
1940
##scar
##nings
##spect
curiosity
hamasa
august
kukosoa
shakespea
njugu
kl
yachuma
##kimbilia
##anic
battle
tasa
ilitekeleza
##fications
sevi
kunaweza
sul
games
##chio
hakikisha
ameshinda
kuni
nimeshinda
vatic
cite
yaliyosababisha
##tively
##kubalika
adam
specta
kifupi
walter
woodward
elasti
privati
bruce
volk
boilermaker
encoura
haviku
catalyst
advantage
shakespeare
88
cr
ie
manda
##18
kapt
##tura
##temeko
salamu
aligundua
sekonda
instru
relie
rapha
boma
tisha
lott
imeisha
akarudi
##theri
majanga
brook
chic
bloski
quality
##salem
misikiti
upyaji
##worth
kutofautisha
phoeni
alfajiri
tourist
vifurushi
havikusumbuliwa
kapteni
sekondari
57
gen
mino
oscar
pano
span
seneta
##able
##ith
##tis
##tar
hayana
hur
##poa
anakumbuka
##logia
##sury
##endao
##endary
anna
wiza
##eleweka
dark
copy
sufuria
##sota
tegemezi
mwonyaji
kemun
kobe
shady
iliyotumika
##husishwa
##llar
ukienda
ngao
uwanjani
603
inatambua
jenereta
ujio
marketplace
legendary
jerusalem
##hakikishia
ilirekebishwa
kemunto
equa
grin
mshika
karata
hija
hugo
misemo
##llen
##stream
##ghter
unda
dimbwi
statu
dhati
randy
beijing
##culate
mkoba
##ourg
homeland
price
kikosi
##angilia
fitina
kruse
peace
chokoleti
supplementary
hampshire
gdp
genius
csr
vatican
dhiki
epon
imen
jf
thu
##fp
##gun
##ctic
##38
##likwa
##lipino
kuongo
##goda
satheri
siege
miraba
##part
##rors
##ering
mugha
anakubali
tough
##chy
ilijengwa
settle
rever
chungwa
cole
##takaye
imegeuka
field
mandra
iliyochapishwa
enga
enforce
fortu
kusajili
madame
duty
kitambaa
nyati
##ressed
kutenda
carpet
kuondolewa
ukifika
wanyamapori
1983
aphis
letting
kukoma
manufa
##vunjwa
asisi
natural
lyon
period
##tengenezwa
malori
propaganda
eponine
banda
ganda
mshindani
##ating
##tsu
##vant
wapendwa
wahitimu
kuinua
nasema
##gos
savo
##gus
kuwasikitisha
yet
theory
moun
unakaa
ilienda
ilichapishwa
pass
boot
utaifa
leon
##gika
##lds
##fikie
##rang
##lang
##houses
precious
##stics
angazi
kuhalalisha
shani
##llion
compri
##shughulikia
ques
cypr
terre
souveni
janet
lenyewe
cathedra
saudi
bedrooms
treasury
hypothe
shrubs
firauni
kufilisika
cyprine
78
mun
treat
windo
##tengeneza
##uzu
##gli
nar
says
hupokea
alimu
##roa
kutoza
anaji
anakemea
semina
demu
coin
mwendelezo
zimekuwa
dist
watazamaji
kuala
interview
import
##tenga
raila
minnesota
inatarajia
mosaic
anthony
strawber
greenspan
jewels
##theast
prehistoric
kukomesha
citadel
nonexchange
appendi
##uzulu
68
##vor
##where
kub
nazo
nakubaliana
##oner
hiking
##wea
vichekesho
mixed
inahusiana
thin
##ongoa
imeenda
##come
alpi
albri
niliskia
excess
upana
kuiona
kichwani
amazing
1500
acc
##quid
kufufu
ghost
wanaogopa
##dding
economist
kiroboto
kutunga
kutishiwa
tisini
wakanyanya
hupunguza
kusamehe
final
##sses
##wazi
wagon
nam
##enzi
##tally
##rah
##turn
##hofu
vidokezo
##fast
##pou
##sees
##mphe
##cas
walikuja
mabafu
nilitumia
##thed
mashati
##rtha
stru
dudo
mtengenezaji
##ression
##ratibiwa
mkoloni
trace
subcom
willing
realized
##style
sultani
cleve
electronic
subject
requester
bin
blin
##mped
##xas
wamo
##lies
mababu
kambo
kifuniko
##lello
later
##burn
aliuawa
moves
rather
mtumishi
rider
##verly
strange
umetisha
##ondolewa
kuolewa
151
printed
thompson
mgambo
designs
kilichobainishwa
richardson
emily
fungua
kushawishi
attached
##kwenda
brazil
reorganization
ulinganishaji
alexandria
tubacca
dudovitz
89
aol
fwi
funds
mpendwa
##tengwa
wataka
kuandamana
##nard
kicha
##unue
alitoka
##dou
##gest
##rome
ray
sober
coca
temp
rick
jeo
mwendesha
ametoa
fish
joy
rudufu
kuitumikia
majeruhi
##ressi
puto
kijin
matetemeko
porte
setilaiti
saratani
suppliers
kushambuliwa
contrast
vilivyounganishwa
##tambulika
muosho
toxicity
skauti
mhandisi
caesar
regular
zelon
hhs
jung
mcheza
pha
mamba
##rity
having
##kezi
##sary
##sharan
vio
alichangia
##mor
tuhuma
##roli
inabia
##pid
##mboo
##gis
##giji
lobb
matuta
iliyobadilishwa
##cians
russe
random
giants
kins
vazi
tracks
chimba
pensions
kikaboni
menorca
amiga
##belgiji
considerable
##zarek
aviv
volkeno
wizara
cleveland
##sharanje
inabiasharanje
atu
ich
pundi
##limisha
kikwazo
##dium
##teria
sijali
bat
vibeba
alitu
wepesi
wanamuziki
paid
japp
fahamu
beth
cage
nyumbu
##onesia
##jue
hood
maseneta
##nguu
affect
concer
kuoa
maumbo
machozi
magaidi
kupaa
1984
word
compli
##gnment
northeast
mateke
kinachoitwa
june
apart
balc
democrat
vikapu
exemp
obsession
toyota
albright
vibebaji
92
gli
grid
##ob
##fing
##48
##wada
warusi
nasoma
kagua
kaunta
kwaheri
nifanye
##dic
kuwarundi
alipokea
rem
jalan
lite
goo
##solu
##enerali
gary
pima
kelly
walijiunga
titian
shahidi
##yuka
alsa
tunaamini
kujifanya
duo
kukumbu
folk
##keeping
kufikisha
lub
chipsi
uraibu
zinazotumika
grave
minor
special
escape
##eeee
border
fernan
anatazamwa
teach
relaxed
gorgeous
##tambulisha
windsur
afadhali
andika
##fficien
anaogopa
mlevi
quarter
advertising
oxides
feudal
sevilla
encouraged
reliefs
kruseda
kuwarundika
54
77
este
##ats
##tton
##uo
##mlishi
##lici
kukwambia
kuendeshwa
##onjwa
##unted
balti
huvutia
##fafanua
alisafiri
jumlishi
topic
unacho
ilimu
leve
dol
nobel
tig
fellow
lotus
hodari
disa
##fed
haija
barr
gee
nyayo
magonjwa
shangazi
specia
kingston
##someka
itikadi
akbar
udahili
attend
raphael
baltimore
##ity
##gin
##gina
##mpi
##bent
##ancial
kugo
kubali
natumia
lap
##ingly
##furahi
husus
tukufu
##fishaji
vyako
##ingizwa
fau
bui
buck
##lux
##onable
##chua
lear
##gic
pitia
homa
shape
hair
linahitaji
discre
kikao
mashinikizo
kumuuliza
nightclu
mbichi
uchovu
information
daladala
dhulma
kutangatanga
balconies
hususani
ass
bheka
gins
yate
magoro
##tier
kalamu
##yoya
histo
##pot
anashikilia
unaamini
wanatoka
ingi
bite
##pangia
botani
level
dock
walihudhuria
imecho
ukabila
##scow
##pungua
1800
overhead
further
worked
##mbanao
tulipata
flew
kieletroniki
mvutano
watexas
friendly
wagombanao
diego
kiolezo
qualify
##pieces
bloody
mchawi
lorenzo
universal
magurudumu
certified
##crumbs
petroli
cobbled
kuachiwa
breadcrumbs
magorofa
czarek
##liana
##enna
##rical
kipi
##rations
##anika
bamboo
huweka
vivuli
chambers
modi
moscow
ilikuja
nyangu
##loa
##stries
wanakaa
##onism
calle
##onesha
ameomba
ukuma
presha
cheke
majenerali
ukomo
##respon
nimekaa
##ttany
anymore
corn
trio
masiku
leteni
audited
apply
##market
landlord
global
physi
clue
##heshimu
##gawanyika
matofali
akazipangia
correct
uzinduzi
haifai
kujitetea
kuongoka
lobbyi
furthermore
nyangumi
66
crew
mno
ronald
spu
sketi
##ners
##gong
bati
baraka
mission
tawan
##ruru
##fight
##unifu
memp
neti
jimmy
gala
pika
##fundo
attitude
##puts
kuhamishwa
beau
uliopo
amended
176
chifundo
majukwaa
##shukiwa
mshamba
lilisikiliza
charlie
mtajipanga
mnene
seriously
doubt
hutafuta
official
landscapes
mkunjo
confirmed
obvious
chekechea
afanye
oun
ore
rent
xv
zen
##meni
yaya
waundaji
mashin
marudi
##lating
##tete
##misho
charac
inakaribia
##shwe
##dhimisho
burn
##onary
maadhimisho
##likosa
kes
tija
ross
manhat
manual
akainuka
alone
presor
upwa
##llers
##lmer
##zalishwa
traf
edger
kushughulikiwa
unaotambulika
quaint
british
speci
underground
marie
impro
mapishi
missing
finyu
msururu
football
kuhimili
margaret
important
kijinsia
mashinani
ernest
lane
mfa
##tr
##win
##xes
kueneza
naga
##rers
##hubu
##koff
hujawahi
mish
##gae
alipewa
##geant
table
ilii
wanariadha
lifti
comba
jianda
akizungumza
mwanasayansi
kutafsiri
niliuliza
cheat
teksi
##rudia
kikapu
aliacha
##tania
pressure
crusa
##ference
##stency
crypt
muujiza
upuzi
consistency
felipe
yateremsha
memphis
aza
grea
ghel
omba
pbs
vel
##rua
##era
kuzidi
kugusa
nafikiria
##rix
##yeyuka
simpli
##guvu
vipendwa
anakataa
anafikiria
anatembea
austin
##eless
wanywa
fuji
wangeli
lobby
usiwe
##puzwa
##tual
##refusha
mtende
arts
exer
kuupuzwa
##ppers
##menia
vuguvu
##logical
interi
##kumbusha
harris
khali
isiyotarajiwa
everybody
kipuuzi
imenunuliwa
wanywao
lobbying
vuguvugu
69
bland
evi
fron
igno
mhhhh
uhispania
##imba
##vunia
##zzi
##bber
wavi
kugawa
kurefusha
naibu
kifungo
laana
vito
##popu
##suku
pot
pozi
##luki
sikukuu
kofi
mfupa
nilipo
kujiuzulu
formation
stala
nimependa
2015
##tumie
marcus
israelis
orien
deadline
normandy
vsl
girls
hamta
minutes
culture
byzant
joyce
pundit
imechorwa
##gongana
manhattan
traffic
jiandae
achana
fina
gent
hmos
sle
whe
##ums
##danganya
##mfu
warned
nashukuru
mah
##kuzwa
##himili
zamba
vicho
##mid
##pari
##moise
turt
anakuja
anachukia
##charge
insure
institu
anan
jaha
pointe
utahitaji
loan
amechoka
hold
diana
akaona
staha
italy
##zungumzia
background
hatutaki
unaoshukiwa
brittany
##shindwe
career
kumwaga
prado
actuarial
taiwan
ayalandi
niliacha
tapestries
zambarau
dweo
ushoga
##ign
##zon
##blo
nash
mayo
##taking
##tuka
##anism
##mbavu
barik
##dore
##rofesa
tarajiwa
inakubalika
anaangalia
unaanza
ilitokea
wanaanza
fake
##peri
dete
deco
##ghani
##gir
##ism
test
jema
walikufa
##lance
ulipata
##tuary
former
gif
linapatikana
ninapendelea
##ssie
mwanangu
huruka
carlos
coroner
friday
blow
lilitokea
##shindana
maprofesa
mnunuzi
patrick
sorbent
##ffel
arabia
mtetezi
castro
draw
atop
million
snoring
celtic
wajukuu
dweores
ashindwe
ev
honey
ibaki
mfanyi
phara
scul
##igh
##bson
yani
kuyeyuka
##enz
haw
##hed
##tos
##kets
situa
hub
inath
toroli
ans
jai
factor
sophia
powell
jere
mwo
walitarajia
chupi
##tsburgh
alle
alley
kujitambulisha
wazito
afghani
##dermere
someone
##rissa
zilizozalishwa
kuogopa
marsha
eiffel
comedy
windermere
philo
uidhinisho
##saic
guard
##herent
##tangatanga
stephano
##aaaani
waumini
alichora
entertain
balearics
ndaaaaani
hazijaingizwa
birthday
kutanguliza
kicheko
generalizability
fernando
oregon
inathina
gon
mkia
mpwa
##iled
##vhu
##ovan
##ying
wadhamini
##lim
##lizing
kuangusha
mae
##tious
##bati
bao
balozi
humw
vish
kuwahakikishia
##rood
tairi
unatafuta
##loon
jaza
poz
pomba
pooh
fulika
jera
amegawanyika
undi
akaji
barto
formente
mashambani
##patikani
kinyama
lulu
kuopoa
guka
##mwor
grafu
mamluki
farmwor
aesthe
##mosis
ufilipino
kufichua
plotz
nawatch
holyrood
jungle
vishnu
formentera
02
ald
cano
genti
gown
nin
skia
##tru
##rchi
##ggia
wami
kuvua
##rald
##resti
sick
huvuta
tusi
##bir
papers
raba
likiwa
mezani
jiko
matuzo
ndimu
kusasi
##mane
##mande
dur
kusitisha
##risk
wamekaa
org
chips
ukipata
##rings
145
sergeant
##karibisha
kukosekana
densi
##straction
ubinafsi
demografia
shinto
tupate
kipofu
northerner
frustra
kuzuga
alinunua
desperately
reverse
az
ally
beni
idio
minia
##ituni
kuvinjari
##kewa
batu
mills
middle
alishika
tud
anaku
seven
##mboa
inches
poor
cars
liquid
goya
zizi
walibaki
lock
dilution
mbunifu
constitu
##stically
ranking
assi
kuahidi
civi
##kunja
english
1967
defen
tabaka
computeri
bandits
lighthouse
kaure
alichomwa
synthe
56
banzi
ef
ganga
jour
sani
trou
##lts
##dre
##tio
##main
##simamia
hide
sao
##mbled
alimso
##sers
inatisha
murp
mou
wanamaji
inani
##vuka
potter
##onel
promi
imefanya
shairi
iliyobaki
##compli
akae
##cities
2004
##lands
clini
##rism
alikumbuka
waliopo
1981
msafiri
##lessly
otherwise
crazy
mabinti
early
trek
kitovu
herode
mapokezi
alitoroka
question
ginsburg
##moiselle
alimsogelea
lana
rfp
sl
uge
##alika
##alikwa
##ump
##dzi
##rc
##hand
##hmet
kuheshimu
##rizi
##rakia
##ond
##oning
chati
##pali
alibainisha
##romo
muhindi
packa
##onic
hebu
heal
##zembe
pitt
walivyo
robin
sher
homo
unga
dig
barga
arca
msile
##undwa
kurudisha
triump
kijanaa
ilivyotarajiwa
##sser
cyp
kuegemea
microwa
driven
turner
atomic
##shtuka
practically
mtawalia
nevada
vibao
alikunja
mshikamano
cocaine
edgerton
droo
eva
gut
kheri
mza
nondo
panic
udu
##mngu
##pm
wauaji
wapangaji
kaha
##rians
##tated
##govern
bap
alican
##moo
##roi
taya
tower
nyanja
##low
automa
rarua
##jumla
amelala
hol
onyo
islanders
mademoiselle
kuabudu
broad
monday
acre
yaliyopo
##ltani
##mbanaji
##dden
##tzer
craw
khai
ulazima
brand
##court
kwingineko
passaic
knights
considerably
##marishwa
amphi
mountain
alicante
##ation
##zine
kuhusishwa
##master
kimo
siko
aliinua
mood
unaelewa
##nesse
wanaitwa
inven
chris
jard
##ingiza
falme
##choroni
dere
decent
##mbuki
##case
prove
ridhaa
ameshika
roller
rooney
karnet
##ulize
mkanganyiko
rumande
luc
wamefungwa
magazine
129
wakurdi
kufagia
handy
started
thorough
cylin
biggest
kuchelewe
##sitishwa
watendao
figured
denver
##bania
breakfast
wakiyajenga
krugman
minute
roose
courthouse
kuzurura
prosecu
nhtsa
nakuona
solomon
waliamua
across
vichochoroni
jenga
opp
rh
tone
##tball
wasiliana
kudha
kuzima
kusta
##inde
##ribi
hag
##dad
##hemi
##kipiki
##meji
##husa
bass
##pambana
alipoteza
unajaribu
wanakuja
reco
##wiri
##velt
bell
betty
cares
listen
degas
neut
rio
pikipiki
##endelee
loving
fikra
manyoya
##pukuta
akapanda
alli
barce
##ciden
stran
ruhusa
181
walapukuta
##xist
child
##ckets
angeli
script
##voli
trendy
boyz
onyesha
##rioli
visigino
lenyelo
germany
mjukuu
compare
haitaonyeshwa
amewazunguka
science
subcommittee
lubnah
tawanyika
likiwaalika
msilegee
roosevelt
63
84
band
drea
linu
mtego
uhu
zuliwa
##ggio
##bre
##cting
##jman
##anor
kushangaa
##entations
##kumiwa
##rily
##rists
taj
taking
musso
moy
##rup
pol
maafa
zima
##vas
butler
uncer
cannon
nilisoma
ukosoaji
nimeskia
kuvuja
##thos
matango
julian
kushukiwa
hauku
incredi
ubakaji
uniform
loose
sport
watergate
freeze
ugly
##board
treated
ubuyu
wright
##volved
accountants
ubepari
climax
phoenix
iliimarishwa
crusade
philoso
tudjman
uhuishaji
mussolini
incredible
ahead
eyo
flou
glen
osi
ovyo
##tly
##jeni
kushi
kubishana
maulizo
karani
##matic
zama
##tur
##say
save
huimarisha
alini
##lot
wanauza
ante
dak
ralei
suma
subi
nepd
kero
walitoa
ameku
chuna
akimaanisha
jogging
##cides
strong
mkwe
conf
giuli
156
majambazi
wamefanya
montana
yanayolingana
ceteau
party
leather
magereza
wakisaidi
punguza
1948
##scale
registered
hunters
ukandamizaji
frame
##fying
attack
admire
khiana
uchungaji
asali
judith
##poulos
##solutely
marudio
raleigh
wakisaidiana
due
eye
emera
hon
lang
nene
oa
sche
ubelgiji
##achwa
##nt
kuchukia
nationa
navy
##race
##hura
huvaa
hughe
hustle
mir
mionekano
##pat
yebo
unapaswa
series
##ords
intro
##duct
##enders
kitufe
pedest
##mply
subia
doc
ticket
amewahi
ung
atwo
barn
concur
##llet
luka
gumba
##menin
yanayopatikana
medicated
cord
spee
misimu
antiqui
panama
kumuona
virtual
records
readiness
pause
concentration
wenzao
maharamia
##ridhisha
duomo
byzantini
jahaz
gentilello
microwave
cylinder
linux
atwoli
amm
bring
ere
est
kri
##tmosis
##dza
##mpe
##kono
##75
##35
##waji
##lid
macro
##yaku
katili
lago
##kemon
##unk
##mel
situ
##parti
##dered
anau
##ficial
reci
##pangwa
wanufaika
pokemon
lisa
kunawiri
dodge
nembo
##soa
haliku
mwigizaji
lols
akainama
aller
##thers
reading
amate
kitchen
giovan
lucky
gud
mwekezaji
commi
elements
georgetown
interven
symbo
##fferson
1944
globe
obser
hyper
seattle
uchimbaji
maintain
landed
pm2
clearing
awful
astrono
reasonable
corridor
breathtaking
privatization
remsad
mfanyibiashara
computerized
bargains
ipi
ifi
mhu
peleka
##adway
##iba
##zhou
##sp
##stus
##pelekea
##kka
kumb
##enne
hale
##dist
##law
##meee
saru
##kotoa
hujumuisha
vifa
kamakura
alilipuka
tay
##pika
##pical
fai
bul
##miati
memeee
##gically
imeondolewa
distraction
akacheka
nilichukua
##cipa
kunufaika
given
wamevaa
waliojeruhiwa
mitiririko
florent
ndovu
##llock
uvumilivu
kukokotoa
wool
farrak
kaimu
kenneth
colonna
upuuzi
particulate
artificial
vampire
alsace
afghanistan
kahawia
subira
giovanni
vifaru
farrakhan
hone
iso
songa
xa
##went
yadda
kuon
naskia
kifungu
##siria
##sible
##jitali
hupelekea
chaga
alipa
anaendelea
##changanya
##pira
ilikua
bills
rain
ribe
lodge
loire
kujiandaa
kukula
angavu
kusima
kuasili
##ffy
ingredi
168
service
##ssex
kipara
mbolea
morgan
glow
hunter
brandy
coach
anatafuta
revival
industry
##rooms
bombay
kramenin
bosnia
fenner
kubofya
lahaja
##siriamali
ingredients
aks
bongo
cv
echo
ipm
smar
uweza
##rling
##ette
##yeni
##ham
mahindi
niku
kigo
kishu
kizalendo
##diwe
##toria
sitting
vichu
alishiriki
alishinda
inapita
inaaminika
wehu
watumishi
jahan
bets
boun
sophi
posa
utashi
deserve
summers
jefferson
##mbered
feat
ameandika
rolls
iliyochaguliwa
geo
itafanya
##scan
##raham
overse
lovely
parce
parents
isipokua
kidding
##shughulikiwa
study
unaoendelea
##logists
incor
ubalozi
noncompli
genetic
masterpieces
curves
publications
parokia
mtungi
photo
practical
encourage
ulindiwe
angazisho
windsurfing
nepdg
kishujaa
51
64
link
ora
##ix
##eb
##cles
##hru
##jun
kufunguliwa
##tionists
##mara
niche
nione
##rat
##daku
##teua
##zoea
yellow
muwe
anashindana
##dhimisha
willie
rita
furahia
jesu
amezi
shavu
duru
kwenu
arno
wakomunisti
angaz
##llard
teknologia
kiumbe
bench
kijiti
yanayoongoza
1975
impa
upangaji
royalty
pheno
scamers
##class
evolution
mchambuzi
nancy
influx
klein
statute
bethle
triomphe
ignore
74
spur
tunda
vuti
##xa
##lisha
kuzindua
##right
##tag
##mus
sabuni
saidia
mix
alilalamika
mwaminifu
reese
pet
dom
##cate
imemwa
akiele
masters
shaded
##colate
##stairs
haihitaji
tunatoa
kununuliwa
vau
inayohusiana
walioalikwa
140
kuingiza
unaofaa
mgao
hisabu
downstairs
1964
tennesse
clock
mbiu
washairi
etru
archaeologists
apaches
sijawai
wachanga
##economi
##mbanua
predicted
##born
douglas
italiane
panoramic
appendix
nagasaki
bartolome
prosecutors
ammonia
recipe
imemwagika
eh
ifuata
msomi
omera
tang
##kinga
yameta
kutia
kukera
##haba
mass
mahema
##nas
kiga
hay
hambur
##muu
##hula
baker
##dera
##shiri
##ductions
##ingiliano
body
subur
rich
##bois
roth
imeanguka
imeharibika
hoste
##cos
enyi
haiku
dump
yanaendelea
uswi
wakosefu
conno
constant
##scu
205
##fords
158
inayowezekana
122
stea
step
missed
miswada
##tality
ustadi
space
croa
warren
panthe
skin
campbell
hopefully
greenhouse
mabango
330
fraction
##khitalifiana
caleor
afai
kanali
kanada
chapter
christmas
huhalalisha
retreat
zealand
brooklyn
botanical
pharakazi
noncompliance
ifuatavyo
350
ely
##nmost
##stu
##hman
waume
wadada
##rija
##tate
##ween
##mbatana
##hudumia
vipe
vice
##inadamu
anapo
pollock
lita
##manio
goti
chura
##lings
yoko
liked
exhi
upscale
wakatoliki
kuashiria
lump
marke
kamna
shang
wayne
backyard
##llic
serbs
hanu
ikimaanisha
freshwa
hours
aware
terminal
kuepu
1972
mwingiliano
1929
kupuliza
hilltop
stands
evaluator
mizaituni
##yooka
##boats
imperial
respon
federally
petit
circuit
kuvizia
##fficiencies
taylor
yametawala
79
fis
il
mki
mshu
sanda
uz
upotevu
##em
##kuji
##rite
nike
##rakani
sat
saber
##guna
huhifadhi
##fat
##llu
justi
analo
##katibu
unaongea
palma
##peli
##chemi
deca
copper
maasi
domini
##terna
kevin
akikosa
fifte
mansion
cantina
##cott
join
joints
madarakani
conte
##zushi
##punguzi
kuambiwa
broo
beatty
waliochaguliwa
kurekebishwa
##inos
110
mikanda
stupa
minyororo
presentations
arafat
pamberi
rubens
urejeshaji
udaku
watangazaji10
touch
riadha
akimvutia
nerve
mayowe
murphy
uduvi
akielevuka
constantine
kamnadia
freshwater
mshumaa
fifteen
atakaye
blea
mlang
puri
stua
ujaribu
wp
##bane
##34
kudhani
##bua
simply
bamba
hull
mishika
mipira
##derick
##fande
unalipa
##piti
pack
palla
beef
meet
shirin
nea
pitch
##takacho
usijali
imetengwa
fitz
##pus
ener
nilikaa
ukumbusho
stall
umefanya
concor
abdul
##stick
beaux
valen
tumezingatia
inayotumika
mnapo
gumu
guang
telegraph
floating
appeti
fried
##dges
mikononi
breaking
mchangamfu
walker
##drome
ceilings
grim
sauce
connell
anthropo
utotoni
techno
schumer
lobbyists
simplicity
stephanopoulos
farmworkers
uswisi
mlangoni
mishikaki
shirindza
afunga
eds
glan
opa
penye
utili
##sani
##predi
waba
##kasi
##maani
kiherehe
kitakacho
##tuti
##tury
##tole
##tous
lawns
##saw
##reu
sim
sikh
bake
hudda
##mized
alijenga
##mona
##rot
inashughulikia
anaongeza
inquest
##mania
riche
imesitishwa
kanyari
shaw
unbe
ungekuwa
kutawala
mbunge
barbara
zinauzwa
##uzia
contain
ufala
pure
ngano
mkebe
naomba
charming
uvumbuzi
dowd
vinne
lawyer
phil
1945
phone
defence
##efs
uhalalishaji
##ghed
hotline
kisigino
kudanganya
pittsburgh
alijiuliza
governmentwide
bonasi
rhode
sandstone
wordsworth
absent
folklore
wheel
turtles
humwongoa
miniature
triumphal
honest
lumpur
kiherehere
dro
ring
schwa
##una
yatakuwa
kuchimba
##inting
##tail
##rals
##onka
##tou
##wekeza
laki
##kosea
mig
##familia
moral
##pitia
##pillar
##fies
sepul
##veries
bebwa
##cei
heliko
##link
uhindu
teo
jet
andrea
tip
##ongezi
hook
butter
mabawa
haimaani
matamanio
kunjufu
ruth
mkarimu
##sons
kibinadamu
nimeenda
kuvumilia
##punguzwa
lucas
broadway
172
steele
individ
##kunywa
##llian
persians
##instein
1985
##crow
elektroniki
pristine
craig
ferry
nightshot
blm
uwiiii
kibaka
milliona
slow
concentrated
university
renovation
mhalifu
caterpillar
staffing
finally
answer
kigodoro
amezimia
vutia
helikopta
haimaanishi
afande
cze
eth
mhusika
twe
tent
ubaki
uuzaji
ves
##psu
##yment
yaki
##listic
mafia
##tionist
##ency
##lace
aligeuka
alifanyia
##gether
anaingia
mwaliko
##ruga
chang
soap
##mbukiza
zipi
unpopu
dikteta
iliyofungwa
zinajumuisha
amato
angazisha
nimeishi
plaster
##zingiti
isikoff
##gency
mpishi
prints
nowhere
mshale
##cessary
604
captain
##parte
##siest
##ttoo
aahh
rapids
##saidie
venance
pylon
hawakuweza
tuition
prescription
extreme
comprises
keswick
kigaidi
pantheon
caleornia
guangzhou
drama
edu
ikia
mfan
overa
tender
vc
xiii
##of
##dney
##ggy
wazalendo
kuinuka
naji
nakwambia
mavhu
##encing
##rier
##tuo
##tuliwa
safe
humid
tori
torch
##lod
jasiri
bid
billy
cotta
suspect
rica
walivaa
iliyopatikana
##copha
akajibu
niliongea
stadium
##stication
kinahitaji
mnajua
166
disgu
kumtegemea
ikaanza
graphi
##rnser
ujamaa
adabu
ikishughulikiwa
1968
merri
delta
spornser
roboti
hutambua
horse
makombora
earth
556
sarcopha
brazili
##fficient
alitoweka
ventura
informa
##sameheni
genoa
##friend
##songamano
literally
promised
##mbukizi
uncerta
amekusameheni
sophistication
stuart
mnapokaa
ikiambatana
mavhudzi
bang
bonyeza
msongamano
schi
##gini
##liani
kabu
kiut
##barani
##sitisha
##hesa
##kies
##text
##sation
##bury
sav
hukuwa
vivid
vigae
anasoma
anatangatanga
unayo
unakula
##shangilia
watuhumiwa
dah
bulb
##chers
popo
height
##lum
meda
maambukizi
lecture
doria
nominal
##vish
##rys
ametumia
shel
divid
ulionekana
zinaonekana
##bei
barabarani
exca
##rint
maigizo
kuosha
alikutana
wamefanikiwa
vitani
kupambanua
##phone
mateka
unaopatikana
##cony
mapengo
##inties
hisabati
manusura
dried
surve
century
makoti
mahututi
kibaguzi
clear
insist
dinosaurs
grinned
kufufuliwa
kukumbukwa
nightclubs
ingiliani
frontier
situation
pedestrian
situmaini
##partisan
mfanano
uncertainties
kiutendaji
450
ffc
jona
krioli
leng
omi
##ared
##ipenda
##pri
##bow
##cchio
yach
yatangaza
wataa
wasaa
wafanyi
##lit
hishima
##kew
##hor
tattoo
weld
##lona
papati
pakiti
pagoda
##shano
changanya
bey
beverly
busiest
social
camii
hello
garage
kopo
##visiwa
imeshinda
kupitana
mande
mahal
enya
kujisajili
kukadiri
kuiweka
itaendelea
##real
##haribiwa
ranch
##ppy
marginal
101
brow
kinaonyesha
uliofanywa
##rania
corps
119
118
clark
ikifika
tulitaka
audio
warsaw
designer
flexible
##ctivity
1934
akamjibu
haziwezi
garrison
funguvisiwa
uzao
revisions
apollo
uovu
chemist
oxley
umwagaji
kidiplomasia
terrace
haitoshi
fringe
dolphins
mughal
strawberries
characteri
barcelona
##ebrania
tennessee
##crowded
papatio
agi
aam
ams
fh
fren
ifikie
lc
myahudi
octa
opul
pis
rua
uyo
##vanzi
##zvanzi
wax
wamama
nasty
kizingiti
##hia
##jika
lat
##tele
signa
huthibitisha
miwa
migawan
##fai
##para
##geu
##seu
kutojumuisha
mower
together
unaweka
iliibuka
aux
daras
##chev
lip
leban
amelia
amechangia
kusaidi
states
kunyo
upper
hayawezi
absolutely
nimeongea
##ratic
kutenga
chizi
164
wasikun
kumridhisha
atampa
hanzvanzi
kuingiliana
sturdy
stupid
kitibeti
blues
haulala
##minated
heavy
exagge
strate
tajiriba
##llows
anglo
##ctioned
spiri
##banes
##ctured
inatarajiwa
roommate
process
supervisors
coincidence
macroeconomi
##yakueni
##muuii
unbelie
aammuuii
migawanyiko
wasikunyakueni
cpa
nba
nanga
pca
trin
##iti
##ns
##gned
##eka
##eda
##cans
wabunifu
madoa
##tism
kirk
##backs
##sies
hass
##onso
salu
huiling
miso
##miji
##porating
##sepa
inagharimu
unakaribia
weight
seva
wanaongea
##sumbua
daw
jame
##ingie
buffa
##chelea
socia
kitunguu
pori
delos
mehmet
##mpenda
##julia
nebra
nepali
##soro
nora
##chika
kete
unlike
##ciously
##mans
nyavu
nimejifunza
montego
yaliyoratibiwa
##shusha
police
hospital
spice
thimo
april
mjane
papara
diary
##ungwana
##ctively
garla
upotofu
grill
##tangazwa
multipo
balcony
easter
sarbanes
lsny
skyline
flank
decrea
cloister
nfl
regards
ninja
amateur
pcaob
huilinganisha
nebraska
ivy
kow
mint
ole
pfi
pris
scu
thur
##donesia
##yd
wash
washindi
##iner
##tahidi
##raid
bagh
hula
##fall
alikua
tutan
##rold
tad
taste
mora
ilichapisha
sel
indonesia
shift
dos
dolly
jifunze
##rances
hosi
makumi
##lingia
chocolate
##pindua
stables
arcade
afraid
confi
newt
absu
kusikika
jinamizi
somewhere
plateau
##ffman
159
withdra
graf
##shuku
kiashiria
brah
adams
spun
ilivyoonyeshwa
downsi
patri
deliveries
aliwashika
mccar
inefficient
hawaiian
mishale
##llutant
cliffs
insurance
founding
nilinunua
minoan
savoy
kuonja
yokohama
ubakizaji
buffalo
multipollutant
decreasing
kowloon
amua
bout
rous
uje
ubani
washi
kujulikana
maro
maangazi
##tarisha
nicho
hikers
lace
##reo
vielelezo
kuwait
##mbles
alizungumza
tako
mola
mosse
ilibaki
##stones
autho
relate
##eled
fatal
##gies
waliwa
loggia
imepunguzwa
shei
fishing
kutalii
##fei
##lington
albania
kitamu
umekaa
##niture
trau
accent
##mentation
disbu
yanayohitajika
furniture
desk
trent
401
harry
winters
philli
naturali
transe
troy
zuhura
silhou
bullfight
mwenzao
aquarium
scrubber
samurai
prudence
kuchakatwa
##velop
learn
baobei
giuliani
incorporating
fhwa
maangazisho
aque
bhana
lingine
mcheshi
stima
ult
##cci
##39
waangalizi
##haria
##yago
##meha
sambamba
##mish
alicheka
alikiri
##doo
##geria
##inals
muller
muhula
anavyo
anatoka
anastahili
ilitolewa
wanashindwa
inchi
##dhiri
report
campo
mes
leith
pirate
zip
rocket
hoc
##amka
dive
nilimwambia
nilichelea
kukaanga
stati
wakoloni
fool
nimekwama
gigot
bengal
linafaa
wameenda
wamekufa
chirea
yanayobadilika
scan
ceos
kiatu
hercu
kuchungulia
##tionally
ikawafaa
kiwanja
##marked
machoni
morrison
tetesi
##lasses
virgin
romantic
##fanyiwa
governor
entrance
stevenson
cardinals
elegance
bonaparte
fantastic
qaeda
manufacture
unganisha
kumbungu
86
94
kwisha
tina
tuni
u2
##olewa
##kina
##cdo
##cence
yan
wajenzi
waters
makatibu
##tube
mihimili
mirija
##faha
chakwe
tucked
anashangilia
mwafaka
wezi
seine
wire
wise
faa
fasheni
maradhi
bee
youtube
summa
noto
mwongo
mwanawe
##hout
ulipe
mabaharia
algar
kujizuia
##andikisha
kitambi
kitambulisho
mtangulizi
cheri
ukoloni
wachapishaji
shock
##tten
##kunjulia
##antly
humkunjulia
hajali
##valence
worthy
workload
printer
leaks
##mberland
cycla
wasajili
lililotangazwa
minada
mjengo
##ssocia
blend
makofi
apate
psychi
theore
##books
uchokozi
murray
biology
idrissa
tuliamua
umwagilia
cockpit
nicole
tungeli
tarakilishi
anecdo
hamtaulizwa
evans
jeremy
aesthetic
philosopher
opareta
kabuki
wataalam
tutankha
chakwera
umwagiliaji
512
klay
ling
ove
ryan
wenu
yves
##rink
##200
yaka
wasemaji
kufun
mahesabu
##test
##koza
mih
##mie
##fak
##fare
charis
aliu
alimaliza
##doir
thebes
theater
tamani
unapendelea
unatamani
wel
ilishinda
wanaendelea
##enguni
##shy
chandi
fasa
begin
##onica
cat
dema
##ssy
gain
futball
femini
akifanya
unpro
##theli
afric
##zungusha
conta
##scent
magenge
##berman
kinadhihirisha
##mwonyesha
indies
zinazoendelea
ulimwenguni
148
kupakia
usanifishaji
kuingiliwa
kitivo
stock
spark
##maika
byeee
anticipa
##fakafak
burton
kuwashawishi
##adhibu
##fakafakafakafaka
intatheli
chinja
marejesho
continu
fakfakafakafakafaka
muoga
autorou
angusha
recordkeeping
imported
aliyokwisha
equation
mandrake
russert
ichungwa
aldonka
frustrating
neutral
speech
surveyed
wafanyikazi
fakfakafakafakafakafakafak
coni
eo
epic
iz
kyu
otto
rout
vuli
##ars
##sin
##sky
##bana
naweka
nabii
mame
kathi
##entia
kite
kidau
kivinjari
##jiwa
##lah
##lays
lavish
##buka
##gonal
mitu
##gation
tao
tali
web
wanaharakati
wiani
bis
casti
camera
shirt
##angaliwa
halina
##onger
##ongee
divine
##thian
akaondoka
johari
kutegeme
##bled
mapaja
##aned
cher
kuabiri
##ffing
overcrowded
vermont
atabir
sabah
##julisha
unaoanzia
store
605
watched
sakafuni
kusumbua
strasb
1947
kinachofanyika
realignment
waimbaji
msumari
earl
saumu
zucker
common
flue
1868
decision
pitre
bondeni
connectic
bowling
centrelink
combat
khalifa
trouble
teodoro
vcr
klayman
kyushu
strasbourg
connecticut
khan
occu
ufun
ulikosa
##khara
##bonye
##55
##lida
kudhu
maingi
##nak
##tajwa
kipen
kimbi
##inger
miingiliano
kuwatete
##fair
chau
##gart
##uary
inali
murdo
unafiki
ilifanyika
rev
dalali
damn
polo
subiri
gay
walikubaliana
imebonye
kanzu
dish
disad
hawako
haipatikani
##mant
checked
##scri
adven
##ishia
airy
waliokimbilia
kumsha
bonus
comple
##kubaliani
fleet
spell
growing
kupeleka
##colm
somoye
gloria
oprah
interest
arawak
indianapolis
village
footpa
refle
landscaped
evelyn
haitoshe
mzimba
bailey
engaged
oriental
insurers
kusasisha
suburban
length
ultra
maingizo
imebonyezwa
disadvan
750
87
fro
gwe
spani
##vent
##pse
##ered
##xz
##lifi
kuya
masa
##kusa
kikoa
##tulia
##mbaye
##shaua
##jazwa
##gui
bathing
##gating
##section
sere
wanafanana
##sures
birahi
##urity
busu
soy
lipo
mkungu
dozi
##ckin
ameongea
unfor
kutamba
kujishaua
duba
yanashika
outputs
marking
utepe
vale
amy
177
pumu
kenya
triple
##conne
1976
boudoir
mwambaa
saraga
borneo
each
germain
vinajengwa
##mblers
chunguxz
michel
aache
cowley
drugs
philippe
kidijitali
##financial
deduction
unachotaka
ethno
jonathan
tutankhamun
chandimu
birahimbaye
crom
hindi
lsm
mla
os
oasi
pena
ry
uchukue
wrest
##ffo
##dley
##lities
nami
##halali
##ening
##rith
##rillo
##nation
kiuno
sac
sier
hupenda
vienna
miles
##mbrand
alika
inadai
inamwonyesha
jurors
anae
anawa
anato
mwambie
unasikia
##piya
ilifanya
ilienea
##rum
inqui
inhouse
rembrand
belle
bustan
##onian
solution
cape
domes
gamb
fumbwa
jeep
walikaa
fells
hoffman
kansa
akaja
akaanza
niliweza
shirikishi
upweke
santia
kusikiti
nimefanya
trave
162
dissa
operate
ceramic
mijimiji
parking
##ances
offse
##thibitishwa
hatumka
subsi
kuchonga
haul
safire
mapipiya
upat
spike
spiel
##banwa
parale
weaving
mabingwa
coaching
tiny
outs
##safirishwa
wahuni
clean
resipe
cafeteria
depression
dylan
persua
anguka
itakapo
gumzo
galilaya
cathedrale
kinsley
ugeuzaji
bethlehemu
heights
absurd
##lifishi
sierra
rembrandt
hatumkalifishi
82
ctr
irani
swala
trini
uanga
##tched
##ujiza
##rina
##prise
##cin
##hle
warembo
wachangia
kuw
mauri
##leen
##toweka
lamar
##sals
vime
chaji
##moth
##bidhi
iliju
##ours
chon
ching
bes
pollard
cartha
utatu
lighter
suleiman
jiografia
##lying
pisa
titani
loyal
location
ameuawa
dimba
iliyofanywa
akaenda
ulipo
forensi
mkasa
outlays
marvel
valley
orchi
umahiri
elli
dht
scrip
corner
msafara
kuripotiwa
##ddling
1979
1978
carey
souther
vyeo
brandon
junction
1952
empi
taxation
gardens
shauriana
drudge
discos
premium
urban
enterprise
wildlife
alikunywa
naive
embrace
elasticity
unpopular
kusaidiwa
mccarthy
##velopment
disadvanta
wachangiaji
carthagini
81
bry
effe
fd
kondo
mja
pingu
tribu
xtra
##ishwa
##rled
##mri
##phis
##kondoo
##eing
##tium
##wered
miko
alisepa
##roe
inau
inamaliza
anapinga
today
wear
ree
##peo
##cedes
bols
coloni
collin
##caster
##sos
gai
waliendelea
roya
fitting
unders
##puuza
mabati
tunachunguza
##beria
##manship
ukawa
walevi
nimejazwa
asser
##wahili
outta
marine
154
chios
atawa
atafanya
hajawai
complying
malays
##vos
spray
kuchanga
##elewana
1969
nikaanza
mapitio
danvers
kataza
fertili
betri
cluster
horton
##rdian
##dorm
gallery
invest
souvenir
exercise
mwombaji
alleywa
benidorm
sanifu
jardin
hughes
migongo
sheikh
notorious
algarve
haitoshelezi
xtrail
ary
cris
hmo
pk
penda
send
tene
tended
wto
##lks
##hind
waji
nathan
malla
matt
##nath
##tational
kichaka
##sisiti
haun
zar
##lars
##zawa
salt
sizani
bare
hufungua
visu
mieleka
##ports
tuanze
mutho
##shipa
moat
anaonyesha
anaelewa
ilipata
pati
##endal
rey
wima
rafu
behind
boka
utapeli
mialiko
kef
kera
loral
ameonyesha
shemeji
##bilities
masinde
akakusanya
baron
kukari
kikurdi
karibea
shogu
nimeku
whip
kueleweka
linaonekana
152
yalilipuka
acidi
akibahara
kumpiga
correspon
worst
network
nafurahia
anayejua
shabaha
counts
kinachosema
option
##zzling
latest
sunny
standpoint
kushambulia
##antium
santorini
depress
vibambo
uzinzi
byzantium
bernini
confusing
dolce
discretionary
sculp
##konos
halikusisiti
ifike
kitakachoandamana
mandevu
trauzer
silhouette
taliban
murdoch
santiago
upatanisho
spielberg
ilijumisha
muthomi
halikusisitizwa
76
brisk
eff
fow
phar
sfa
scare
twis
uu
zanzi
##teni
##zmann
naongea
##tafsiri
ki2
kisan
kiganda
##zaa
##yasu
##meter
mizungu
kuwaju
##seli
tam
##loge
ses
wanafikiria
##dhar
reha
reper
dare
jain
mtuhumiwa
hekta
sulli
gaunt
##ongozwa
role
chuck
dip
diet
iliyopangi
mahaba
vitafuni
akadai
##hisisha
nililia
##ulisha
duct
ukaribu
watadumu
malcolm
kuojiwa
kulaumu
1600
angel
yugos
115
workplace
spy
siagi
uvutaji
1966
##waite
delibe
landfi
saluni
hujambo
kukisia
maben
##spector
##hoofisha
##ghest
hudson
appreciated
bweni
chemichemi
suited
samuel
quinta
modernization
importation
picni
chonjo
fowler
twisted
zanzibar
kigandamizaji
mizunguko
kuwajuulisha
vitafunio
yugosla
ambia
evid
ggd
hango
ksm
ndili
pd
pendelea
pane
ptole
##tx
##dle
##lion
##lization
naa
nature
maze
##endi
kilingia
##basamu
##ram
##das
##kis
lala
lalley
##media
##hood
##paper
##pointed
##sei
##seo
##seti
tall
mow
mother
total
mwarabu
wembamba
instin
remar
dash
jay
ralph
father
##vey
boz
bolt
heck
hewani
licen
dee
pedi
miami
suffer
letter
proto
jivu
jiingiza
koda
tisho
njeri
mwanakondoo
kutabasamu
akatoka
##bitisha
kusali
arlington
veto
kuumia
2007
wakasema
asked
##guard
chill
penseli
##quet
serbia
brian
kuelimisha
1965
farm
bernard
antiza
camper
katalogi
muslim
waache
##bridge
ujira
kushauri
lyn
mmehalali
disneyland
sweater
wahenga
1890
memoi
addicted
strictly
dinosaur
causeway
hazard
##mouth
sleep
slender
baptist
amphithe
kusimamishwa
spanish
forensic
ndilipo
mmehalalishiwa
avera
fana
ghi
ky
ndon
##zeni
##dina
##rbi
##msha
##mlo
##peleka
##xis
wape
kube
nakua
nipo
##hirika
##zihirika
##laid
##bui
baina
##fufua
alipanda
tucker
inadhihirisha
muha
paint
inspector
chunga
kazijumla
rawe
marau
sovie
libe
lives
##lumu
##zewa
legi
domed
nebbi
##enes
ameji
akitoa
unan
kutabiri
enron
alright
##beli
##cien
during
arched
mykonos
rando
nimejaribu
hekaya
whit
kulima
benchi
wamelewa
trade
orre
126
gras
bloom
kufuatiliwa
vinyume
surround
maovu
berlin
##zidisha
akutun
irak
imagined
kutokuelewana
avenu
kudzihirika
lorra
innocence
underesti
analytical
tuile
wolver
jfk
physics
detective
frameworks
cromwell
shogunate
pharma
ndondi
soviet
akutunze
asho
oi
okoa
octo
rph
sri
sno
swed
##mund
##ppe
##yanda
##war
##wajua
yata
mado
##kuti
##maker
kissing
kiebrania
##based
##simu
##sides
hako
##letee
ladies
##muishaji
sava
sigh
bait
hudhibiti
vimba
vigo
champa
##llan
kutopenda
kutowezekana
anaripoti
wanafamilia
pain
##chapa
incom
incidence
reu
annan
##wich
bifu
##peana
bohemi
cashing
hei
codi
maazimio
sufi
sumbua
neck
gases
##child
usiwahi
roger
##inkley
##onora
iliyoheshimiwa
reagent
kunyanyasa
ups
ujumuishaji
piliyanda
march
ameno
stereo
yuda
yanayofanya
scen
##llis
##lliant
ikatua
##rons
hersh
brilliant
spelling
voth
kuwekewa
dennis
transmi
akamgeu
yasiyoeleweka
waasiliani
reims
lanes
vieux
mizania
kisituo
##tarians
dhibiti
brinkley
mapozi
gardener
kunyonya
requesters
hatma
piece
without
watakao
##dakuzi
etruscan
octagonal
efflu
kushauriana
iraklion
tuileries
champagne
piliyandala
akamgeukia
einstein
iron
mchumi
oce
pongezi
##tans
##dant
##cele
##hane
##wagharimu
wachi
wahispania
mapita
kaseti
kiju
##bate
##tured
##yoshi
##hear
##kichukia
##kezwa
sali
hugu
vifungu
tumaini
inauma
judy
kutoweka
##ships
anazungumza
anapendelea
unavyo
ilisuku
das
ras
race
poro
nyusi
lishe
detro
codon
dolls
nope
tee
tegemea
##boat
known
makalio
##vara
timing
lomba
homoni
yohane
alt
nilisahau
barge
##bella
##rtz
##kilizaji
conque
mkakichukia
mtafute
##unganisha
amazon
kanisani
kualika
kitinda
maringo
congres
inayoacha
mwewe
commit
zero
atapata
##hania
corral
##rtime
frie
vantage
nonfinancial
anayetumiwa
thank
wondering
kuziba
##ferencing
1936
hype
uchakavu
minimal
blanca
nikienda
forever
tarzan
correlation
clun
clone
alabaster
renovated
kujitesa
kuchakata
spectators
spurs
grease
marshall
waliopora
excava
transept
cyclades
vigogo
ilisukumwa
detroit
kitindamlo
fani
fry
fence
grie
ivo
iden
iingie
munga
ogle
puli
von
yenu
##nor
##mwis
##kno
kuketi
kuharibiwa
kiondoo
##baisha
harp
##jiuliza
##lestina
hil
safiri
basti
##fusion
kuwafanya
alipiga
##uals
tahania
inabaki
inaleta
tours
ilipita
wanaweka
wanasisitiza
##otes
dazeni
budi
poo
camb
nega
andre
##andawazi
##lane
fixing
manning
##mbika
##essa
##feld
##tony
alkaa
kujirudia
utandawazi
uponyaji
##chunguzwa
kimen
kuvuruga
lusi
chanjo
gulf
dispen
##tanabaisha
telegram
kufukuza
compla
blair
##ssette
chinatown
##logist
cyni
appro
sparse
spea
weekends
upunguzaji
anayejali
growers
nikaona
ferdin
kinachowagharimu
1922
turnout
horror
karnak
surprise
origina
##ukuliwa
boomers
drug
alitetea
muumba
decided
1917
##bbing
oliveri
alinukuliwa
wapalestina
benedi
recruitment
bronx
senate
repair
##graphic
pacific
ieyasu
exhila
bakery
opulent
exaggerated
autoroute
dubait
mabenchi
avenues
wolverstone
mungamwis
bastille
alkaaba
mungamwisanga
aani
atoke
cinema
ein
emba
iyo
kuju
kufe
kuzungumzia
##mary
kibi
haven
##lezaji
##wel
laur
laser
##yewe
##mezwa
##mulizi
vichaka
tupo
##bile
inate
tops
involved
dondoo
walikula
tima
imemezwa
##lanta
dile
##rdt
joan
enyewe
kusanya
nilihitaji
ukuu
kukariri
stack
stages
mtangazaji
pretti
kukumbana
fossi
##llable
kanivali
wachawi
gaoas
nimesoma
add
adri
maker
yaliendelea
173
kuteng
##enced
active
texa
carto
alaska
parts
kidunia
madrasa
masimulizi
vanessa
interna
kuchoka
vinyago
gerth
##jadiliwa
ufumbuzi
salon
kuhukumiwa
usiowajua
mpambanaji
blanketi
##grees
nazis
smoo
editoria
gorba
aniletee
archives
vaulted
##enzangu
package
sherman
##governmental
drops
czech
waliwasiliana
dissapointed
empirical
ashoka
scenery
effluent
cambridge
aanike
kibiblia
fossil
aristo
bli
dana
eras
front
kk
mckin
nut
uzima
vvu
##ota
##band
##ancy
nassa
maison
##rican
kipenzi
hadha
##unu
bags
huzuia
hutoka
hubadilisha
milea
##roba
inafafanua
julia
totali
##christ
iliingia
wanam
packet
regent
##wiji
chronic
dazzling
jac
bike
fabul
socie
cotu
meets
sum
nehru
gamblers
##boo
pipi
keeling
##var
timo
hakimiliki
feki
ameanza
imesimama
##amsha
makuhani
ununue
mangro
##thical
akaendelea
hawata
enti
sting
##husiani
arme
yanafanana
expla
##noon
kichanja
watapata
shoti
shorts
onekana
kuhatarisha
##nik
shy
yalionekana
inayofaa
changed
1700
takes
chifu
163
utumaji
##angazia
truck
kiapo
bracele
##gerford
ikichukuliwa
download
antichrist
january
afternoon
##kanusha
optima
alikubaliana
hungerford
##ctory
domestic
1955
comment
dollar
plz
training
awkwa
population
rajpu
stanley
refurbi
gym
courbet
##hubutu
journal
deregu
scheck
downsizing
feminist
anatolia
travelling
kukaribisha
amenophis
prettiest
gorbachev
nassau
hadharani
mileage
bracelet
avant
cin
eric
flip
khofu
mziki
otton
pote
stor
uzio
wrink
zinge
##ols
##ufufua
##mshi
##msu
##mpan
##jou
##watch
##lips
naf
nacho
nashuku
##into
##haus
kashe
##eny
##ril
kizuia
##dar
##hepa
highest
##rets
##melon
##mul
##furahisha
##zoeleka
chart
alijiunga
tau
inasomeka
sear
wanatamani
pambo
##sudia
jambazi
rama
sole
pod
helme
deta
code
##mples
suit
thre
teena
mwenzi
chumu
akitu
mann
manchester
diane
##anguzi
##rdon
albu
tunatu
kujiuliza
geuza
wasanidi
dubois
argue
kijacho
kuhakiki
##guards
155
ciga
127
steep
ukiangalia
kutumwa
majuma
majuto
ataufufua
kenena
bloo
##stead
television
letwa
frederick
eight
msimulizi
policy
1973
voli
sarah
##tenge
watermelon
allocated
carol
ubingwa
springs
empire
kuitazama
ballroom
uoga
1871
addiction
uchanguzi
pollutant
hypostyle
haitajumuisha
analysis
deductions
bernstein
benchmar
hostel
contemp
##reuil
grafton
zarco
muhamma
wachimbaji
kijumba
porojo
kimenyooka
awkward
kasheshe
kizuiacho
ataufufuaje
91
amble
conge
dent
ges
isaa
konda
longer
mzoefu
rungu
y2
##ashiria
##ires
##frika
##snia
##kanya
##hon
##word
kuse
kuvunjwa
##mature
##taja
##sier
##rade
##tuonyesha
##sable
ballo
huge
hufuata
huishia
##birika
mos
anadhibiti
anapredi
toll
mwasiliani
##ouse
rebs
##elea
chroni
date
jacks
##wance
bulls
##chet
sofa
calls
degrees
coffe
pedro
wangeweza
shea
akajua
uliendelea
umesikia
consor
##keepers
luck
outfi
zilizotengenezwa
##yant
margue
157
##mento
1200
disc
yanayofanana
##sher
ikavunjwa
mkesha
kidonge
tulianza
hauta
prime
prison
wakimataifa
aliambia
imeni
impressi
##zuilia
tune
tungekuwa
oliver
##ologist
operas
allowance
preambles
kukiangaliwa
scared
classified
blouse
heyday
brun
premier
snack
confused
carava
vikings
hazai
quayle
kichapo
concern
interior
kriketi
anauangalia
elysees
appetite
jameson
sculptors
hangover
grasmere
sweden
benedict
kufeli
timamu
ambleside
y2k
anapredict
asha
arudi
cbs
emo
efficiencies
hint
irt
lut
mshwa
mpia
oil
pseu
sonora
uzuia
##lun
##spen
##gents
##yments
##lita
napita
##kaki
##tile
##namu
##mated
##tapo
kikati
kisiri
kiwahili
##bay
halles
harold
##rades
##dians
##zary
##toine
bako
bath
hupewa
##derous
##moa
tuseme
taja
inakadiriwa
unapiga
##suko
##dhiano
rehema
antoine
wicker
dated
raja
buffe
##onized
position
powers
##mping
levi
##cative
promul
gaul
##vation
matumbo
manuka
mwanaharakati
kutabirika
almasi
alterna
chow
nilijifunza
##uela
kukatwa
uthubutu
nyara
##menthal
hatarishi
brock
overdo
custo
##laugh
##quez
kupakua
printing
spra
##rsement
unaohusiana
wanaofanya
subc
tuliishi
kuchunga
glamo
blumenthal
usome
minji
maridhiano
nikakumbuka
##llings
natarajia
syner
salaman
banks
##lines
gloves
##ppings
1923
3000
between
canals
aliwaza
##parna
montparna
commen
deadly
kristol
ballmer
venetians
midwest
fashions
oxy
against
cowboy
wapaza
balearic
alimkaribisha
ncp
kichoche
palm
kumeza
presort
mishkaki
lagoon
mamelu
mitume
iliyopangishwa
kodak
orrery
ferdinand
mangrove
##kanyaga
mshwari
uzuiaji
kikatiba
manukato
83
eg
eman
elewa
mda
oira
##mlisha
##bing
wasee
kuhitajika
kuhusisha
##makers
nick
##bases
##dial
##lap
##temeka
##rection
sighed
##guous
##mbini
##mitego
##pokele
alikosa
alichaguliwa
inaruhusu
juries
##erre
anakuwa
anamitego
welles
##outs
seed
paja
refor
revo
sokoni
defe
co2
colla
##ssin
##thwaite
##vier
##rans
imezuiwa
uwekaji
fili
tunaea
tunatuma
matairi
forty
kutetemeka
mapacha
isle
databases
mchungaji
giot
##nifer
##wezeshwa
chanua
changes
##fariji
orche
cuzo
commo
alarm
mitchell
classes
nenosiri
hukusanya
charle
subpart
eleven
eigh
kukomaa
1977
aliambiwa
score
genes
esca
##served
wouldn
kifuani
nikae
##minations
upamban
finya
patan
vinapatikana
702
##ctum
abuse
mabotini
brush
skimmers
engineering
muuguzi
mtungo
foreclo
##ception
electroni
makka
1919
premiums
missionary
vipofu
northernmost
2018
andersen
jennings
##writer
methodologies
motivated
##iiiiii
pacifi
fortune
kugombea
gifted
hideyoshi
##volitaki
observer
hassle
fasab
offsetting
uangalifu
kondomu
evidence
kissinger
bohemian
griezmann
volivolitaki
##pokelewa
tunaeatakia
upambanuzi
ao
ayi
a50
dj
dor
dona
nons
tanga
udhi
##cp
##kably
maland
kaptu
##masters
##rab
##zika
##jiliwa
##lass
##kisa
lac
##tembelea
##tetea
##mum
bays
miujiza
kuwahi
##dow
##rosha
juani
mutta
anaa
anatanabaisha
ilifika
##lows
##shtakiwa
##shops
jade
belt
cam
catch
mere
gogh
leva
thri
##mbee
kemia
lounge
amefika
imetoa
imeload
majivu
fies
unyama
diplomasia
statuary
mkristo
cousin
##llets
clinger
ninapo
inayotawala
174
compe
serb
kufukuzwa
vyuma
138
kipesa
eleanor
georges
intermedia
kongwe
monitor
##lilisha
vitimbi
raiders
##cussions
glowing
makovu
apache
kutunisha
gauge
wakanda
##struction
oddly
quick
yameanzishwa
mtunzi
stroke
mlezi
ambitious
viewpoint
menace
kimetuonyesha
karakana
thinker
building
evide
jahannamu
kuepukika
french
aqueduct
africans
ufunuo
ellison
sullivan
wrinkles
muhammad
consortium
caravaggio
montparnasse
giotto
malandlord
kaptula
53
ay
akini
asema
akani
crudi
ethi
easi
gru
ilo
pang
sne
##zana
##ffi
##pline
##keni
##bbed
##liweza
kungu
naka
nauli
mahat
##tivity
kada
haunt
##rase
##rabuni
##rators
##racti
##jiti
##tovu
##kimu
##kel
##sama
##safisha
samos
##fujo
tausi
##bit
##bian
anajibu
seman
sesame
wanavaa
pac
injili
reca
dam
rache
##chez
pona
utajua
coves
nean
nest
##isse
loa
amekuja
rochester
majitu
kupitishwa
mwanamuziki
dijiti
atlea
##tokeza
joa
johor
online
nilikutana
preven
kuumiza
consu
majo
kimono
kusitishwa
kurahisisha
kuhalali
lucy
##nihan
uarabuni
varana
inayosema
amena
puuza
yaliyojadiliwa
discharge
atazidi
##phy
139
grego
appo
clari
needs
spine
quai
quasi
mclaugh
incon
himalaya
voya
##mination
vinavyo
smile
##minster
paralle
parafujo
hillsides
eupho
kukidhi
ibicen
modem
sunlight
karanga
lessons
repro
aksa
comments
skirt
shinde
smokies
augusta
kubashiri
awfully
kisasisho
riverside
subjective
magugu
##ccoli
huhakikisha
witness
periods
battali
galata
wavimbaji
kucheleweshwa
moynihan
emerald
overseer
phenomena
steady
sikhs
trinfan
repercussions
yugoslavia
october
savage
atleast
kuhalalishwa
varanasi
atazidishiwa
dele
elia
gonga
handi
hunga
jone
kendal
ord
sque
uzembe
##tted
##lgar
##over
##mwan
##pine
waje
##anta
naangalia
##have
marin
##tiga
##ento
##mati
##tara
nii
kidu
##dition
##letwa
##hore
hufurahia
##pose
##llon
##bika
kutokubaliana
unashangaa
pad
patch
pardon
inse
wig
wishes
birin
beki
solar
utaenda
##chimbika
kemp
kosha
waliweza
walikataa
walikutana
sharon
undu
##thilia
##cop
joka
joke
vilemba
alpes
malibu
zinasema
gerald
preci
mtafiti
sanctum
kimt
patachimbika
kuvuna
183
##andra
player
##asy
makeup
ninayo
kupunguzwa
mkosoa
wameanza
travel
cites
accu
elche
backing
corro
ikapatikana
loud
kushirikisha
sens
clar
student
lethal
usomi
##lieu
##sasisha
kumuua
##ordina
minaret
museum
kuhukumu
prag
defend
supplier
curved
visit
etienne
kutishia
refre
wajue
kunywea
donaldson
krakew
ndashima
##finya
psychology
equity
vaults
conversation
hypotheses
atuto
history
##romoko
mzabibu
energy
richelieu
education
eoseo
assertions
tamthilia
ductwork
randomized
zingetumwa
subclasses
electronics
anaainisha
kunguru
mclaughlin
kidugi
birinde
dw
fini
gwiji
hongo
msemo
oly
trib
uzee
##lene
##dini
##ggi
##mni
##ccio
wage
wahofu
kuinama
kukhitalifiana
napambana
mashangao
##rized
##mage
##tau
nitaka
kiulizo
hiro
hilt
##kian
##kevu
##sage
##jack
##gore
vic
vista
vivinjari
mista
##mip
##enyekevu
tart
mock
anaanza
##lok
##lock
wanajulikana
page
inlaid
##wika
fadhe
buso
caf
caba
cards
neon
rif
##vert
amesasisha
##ongezwa
imepanda
hoi
uweke
akijaribu
akizungusha
unin
unne
unreal
##dilishano
iliyoha
mabadilishano
chorwa
haiko
matamshi
mashavu
stars
##husiwi
vest
conven
convin
mkavu
kibron
lakeland
kinyo
players
ninaweza
hotels
tumeanza
pump
steam
carbon
yanayohitaji
media
atashinda
kuhifadhiwa
triang
spon
quinti
##maic
flag
flambo
speak
impo
voice
##fungaji
##changi
boyfriend
walking
lesvos
capped
third
mlisho
usemi
mabano
##valuation
grilled
mpasho
rouen
balaaaa
291
revise
niliambiwa
plantation
wajasiriamali
theodore
admiration
tunukiwa
asiyejulikana
insight
lsfo
toxic
absorbers
havija
mzimu
progressives
wooded
12866
jfmip
gravely
leverage
##loaded
ounces
velve
antiquity
tadminster
##mishna
##garten
remarkably
kusevia
intermediate
kimtindo
mistake
fadhela
kibronje
eri
lance
oshwa
vhudi
##vour
##lba
##ogopa
##rl
##mless
##kt
##ean
##brea
##xual
##wara
##washed
wamenia
##anne
kuropo
kuhepa
##kabidhi
magra
katha
##riors
##makho
kick
haho
##rator
##torial
##teer
##mbatisha
##meza
sax
baga
##koaji
michu
miondo
##father
chata
##pao
alifungua
aliwekeza
##semi
moss
analala
weed
iliendelea
##rusha
seas
seley
padri
##riage
##riages
##dhawa
fataki
solici
##mptu
prolife
waliji
tibet
imetoka
shamakho
makutano
shupa
shuttle
diss
akainua
##mlaumu
kusaini
stare
utha
ukamilifu
kunu
exist
conting
conform
amar
admini
##malize
##rished
kinata
mkoro
orrin
overpa
goodman
texti
matrix
167
waliotarajiwa
##kunyanya
##pert
kufufua
kufuzu
fridges
clai
homework
##lenborn
elevated
hauko
wakiimba
akiwasilisha
bwakisa
ubatili
kukopa
lining
mvumilivu
maridhawa
schools
impracti
straits
earned
asikunyanya
##lilishaji
##larly
kusafirishwa
1941
udhalilishaji
producer
godfather
wafugaji
wholesale
agapao
earmarked
michepuko
communi
##metric
erlenborn
uokoaji
processions
pinker
dealers
wauwaji
masultani
bourgeois
inakufanya
amount
whiskey
aisle
inanyesha
kupandikiza
##kimya
alituhudumia
exemptions
constitutes
jesuits
hamburger
thurmond
ottomans
decisionmaking
oasis
subsidi
dilemma
marguerite
salamander
pacifist
battalion
magraribi
miondoko
shamakhokho
asikunyanyase
cc
clau
hund
hundi
ite
kingi
lt
mpu
mfadhili
manii
nd
wino
xvi
##umiwa
##krimu
##cour
kuma
##habari
##tiri
##mazingira
##taf
nist
##sim
##lesura
##topokelewa
##kels
##resa
##koteni
vii
viii
vicen
mie
##doke
##mour
##fananisha
inahifadhi
jui
##shimo
unapanga
##piwa
##locks
repor
anda
daru
soder
cala
##onese
yourse
leu
dogs
##card
##cals
gale
rip
##bot
keros
hakitopokelewa
usisahau
imewa
imechukuliwa
imespi
maswahi
shake
iliyozoeleka
akachukua
##rden
jobs
nilimu
##miliana
umesahau
umesafisha
conso
milipuko
##ktapur
kusita
gil
zilizobaki
shwari
varia
kulaumiwa
cupo
anyone
yanayojumuisha
veronese
kuchaguliwa
1400
kihimiza
##ronto
works
kiasia
triangu
needle
tulivyo
businge
##ilder
intani
highlands
marubani
natafuta
angle
lililofanikiwa
finely
kupuna
uhamishaji
reilly
blanc
running
kiolesura
trela
mvivu
##adhimisha
##roof
resist
twist
derwent
aiskrimu
##ridhika
rationale
bhaktapur
nfllow
ingeliweza
spectator
structured
disappo
ounce
##perienced
crawfish
haghia
alliance
vipepeo
maroon
psychiat
kutegemewa
titanic
amphitheater
lusitania
aristotle
tunatumai
cigars
kichocheo
juanito
euphoria
##changishaji
kuropokwa
yourself
kerosene
imespill
maswahiba
evan
ghe
jingo
kleiman
peni
##tm
##long
##pres
##cut
##19
yatima
kuin
kamishna
##rii
##tapa
##lez
##teleza
##yel
##shauri
##jab
##buru
huitwa
##pool
alimaanisha
tutmosis
inapo
moro
anagawa
anapendekeza
mwangu
##chens
##pigana
wanapokea
pambana
##ort
##riat
##wanya
liver
copd
suzan
##thin
dodo
##sol
gall
##takabari
logi
imetumika
unspo
akaku
chora
nilifurahia
##thetic
armenia
##elles
kukuona
conde
cheti
admin
kamanga
linachanganya
wamejaribu
tray
##ences
guil
dispa
competi
wakusanya
flora
1300
stun
unaotarajiwa
wanaotafuta
##llowed
terry
talmu
1971
buruta
comeback
impul
mexican
lawyers
dante
kilichopo
walcott
obsole
greenberg
##minence
parameta
drink
tanf
hunting
upoto
manager
majembe
mabomba
##fanyike
##dences
kibodi
jerk
laura
catalo
memoir
uchoraji
plot
inexperienced
presiden
swamp
europe
##tails
##culars
kuboeka
utii
lindsay
mnofu
birthdayz
introductions
symbolism
##kkah
glanced
torimwan
cottages
theoretical
continuity
ptolemaic
unanunua
society
fekiiiiiii
glamorous
kinyozi
flamboyant
obsolete
torimwangu
agra
ero
elu
gle
graham
mje
mpanga
mdhamini
oza
okwa
ton
uche
vr
vas
wenzangu
##als
##hthe
##11
##lication
##kar
mafisadi
##ense
##ziba
##zitha
##tories
##kelo
##kov
huang
##moder
jupi
mugaa
anako
##cht
ilianga
pazuri
##chamber
##rials
chunk
dali
birch
ramoo
##chochea
buibu
bolts
cab
cats
cases
dedi
pep
perakia
goe
##ghted
proving
##ckless
kos
walicheza
hakija
felt
feet
lodging
ameteleza
kanya
dil
diver
##comp
enclo
kujifungua
##store
utwe
##inged
africa
rusty
excise
##pendezwa
kuadhimisha
##nier
zilizotofauti
vali
monroe
amun
cumm
dismant
yanayoonekana
parque
ataenda
bonnie
kuchapa
compen
comprise
appe
homer
league
viable
##idhinisha
speed
##quali
mercedes
stiff
ombwe
anayetoka
##riously
grotto
winnie
mapipa
campony
kusafirisha
walkwa
spikes
kuzikunja
flynt
270
visivyo
##scovered
##funikwa
doorway
foreign
massage
alot
upumbavu
punjab
mafumbo
##zingatiwi
##tinent
anaokoa
cocktail
aliiba
isahthe
investment
##smoker
##veloped
embroi
sharply
unywele
elasticities
hypothetical
defensive
##cidentally
mhudumu
hanukkah
decay
containers
wheelcha
millionaire
unbelievable
baghdad
mlalo
bustanini
exhilarating
kujumlisha
bakora
eighties
ninapoeleza
defendant
busokelo
wameniambi
proliferation
mpangazitha
iliangazwa
buibui
isahthesmoker
bree
cleo
ellen
fsis
mdada
nend
uchangishaji
##fty
##cluded
kuend
nawaza
##inery
##rised
##mail
##onne
##dato
##torio
##kit
##wery
##teuliwa
silo
sided
babeli
##komboa
hutibu
kuwawezesha
alibanwa
tambi
inama
anapanga
anakiri
toronto
unaingia
unabii
nyt
##sholojia
injun
instead
reg
bipartisan
sosholojia
cad
##lins
utaka
lile
development
coke
neil
mbawa
propon
gains
teresa
rim
rios
koh
zito
walimw
imesema
unit
ats
maharage
##shinde
tunayo
nilitembea
mtoni
##patient
##uten
##anese
hayakubaliani
watafutaji
abra
ushawahi
##dering
mals
plasta
broccoli
displine
146
142
nyororo
dukakis
spla
harvey
netanya
mention
bobby
kuungana
canadian
moderates
sunba
##wski
seafront
aliwasili
rubber
jerked
##nukuu
misamiati
dryly
kuchukiza
boxer
##phers
maporomoko
leonard
andiko
bazaars
turkey
guide
knox
stanford
lieuten
kisanii
whisky
##mously
amuuza
##graphical
spanning
gutenberg
inventive
strategically
demayi
gambler
itakapoweka
alleyways
briskly
licensees
lorraine
commitment
mckinney
isaac
pseudo
hungaria
nendeni
kuendana
walimwengu
apana
aveni
ajue
egli
essex
ghat
phan
uchu
##fter
##nc
##nya
##nbc
##sl
##pf
##56
##walewe
ward
##lipwa
nae
##iny
##hai
mazito
##kuri
nitakuwa
##balls
##jiandaa
##dam
##zations
##ingoni
simpson
basili
##falls
alice
alivi
##mount
inatawala
anafanana
anapika
tokea
##ourne
sean
sele
paler
inva
anany
jaws
fasc
bean
##choki
boil
somber
pols
potofu
hatabadilisha
utaendelea
liffe
##ributable
coho
coef
cokie
perot
golly
doa
dode
doll
1915
nos
hakiwalewe
ameweka
amefadhili
ameshusha
kannon
unf
unfi
shuger
##star
##yumba
##kiamua
nilijiuliza
kujivunia
##beat
##cists
kukamata
kusaliti
str
stalin
preda
kunuka
vecchio
condo
nuo
watasema
wakatakabari
assa
##keley
kitanga
plat
vamia
inayodoke
inayoadhimisha
pupa
##sessed
169
mwepesi
wasikilizaji
##woman
tooth
humteua
pertinent
##shelevu
ikabidi
norma
sayuni
##mondi
tricky
elele
kurusha
primer
intel
union
intergovernmental
warran
kumbushwa
akome
merry
crest
faranga
surf
grove
marilyn
patco
firm
chapels
walkers
1946
##ibua
freshly
hydro
ufike
daddy
mlimani
playing
garm
cooler
goldsmi
keyne
brute
fluctua
##cency
sweet
kudance
pambazo
badilishwa
wajumbe
utoshelevu
inakusudia
everest
lieberman
attributable
positively
cityel
kusameheana
quarterly
honeymo
inanikumbusha
thoroughfare
rhine
sumaku
florentine
bidders
dividends
beyond
macroeconomics
kathitima
a504
amenazwa
ghetto
jupiter
avenida
eglise
aliviita
liffey
coeffici
hakiwaleweshi
inayodokezewa
650
dream
eis
funda
lenga
nana
nou
smu
udi
utumie
zone
##iser
##lcar
##oma
##ule
##ppa
##plan
##yuni
wamea
kubuniwa
malezi
katz
##ener
##rido
##rico
##tals
kizui
##lare
##tech
##mbara
##unyu
##unts
##repres
sili
hust
huoni
huchapisha
huyuni
mishipa
##misa
##miana
chamisa
alie
juice
##shie
mole
mowing
anai
analogy
anapiga
analalamika
unafurahia
unaskia
ilishindwa
iliandikwa
##nell
pamp
passe
##sum
##oteca
ini
ingiza
rehear
reckless
##pect
kituko
caen
capa
hete
deki
detri
cod
coar
corido
petra
suh
sums
##caa
##carp
fukuza
jee
amejaribu
amekosa
amekubali
roc
rogers
imerudi
kutambuli
enc
alca
geto
arena
likes
##tings
##tingly
hayazingatiwi
majori
wakawa
wales
luu
lure
isis
vases
pupu
acci
actor
mrengo
yaliyoangaziwa
##ckey
carre
carlo
ukifanya
anybody
##mashauri
verdant
edgar
perfu
##ttery
##shuhudia
portable
lilifanyika
charred
gladia
interpre
warriors
1962
espa
driving
pangilia
flexibilities
danny
denia
clos
##ttice
##cticides
obje
optimi
freezing
##andamanaji
desert
##insured
##lationship
jeneza
cooper
plant
clearance
##tarianism
edition
cameron
heroin
hoofer
umewafanya
royko
adobe
kerr
syndrome
robertson
halmashauri
kupandisha
archeologi
fortunate
##roads
kubonyeza
wavivu
durbar
kustawi
flourished
sarufi
skinny
yachts
##fahamika
kipenyo
ethnographic
disadvantages
carthaginians
sfas
originale
chronicles
optimal
refurbished
detached
album
insecticides
sponsor
logistics
unspoiled
ananyonya
kizuizini
kutambulika
adu
avis
efe
egus
gin
iq
ml
mfanya
nlada
tj
ufungaji
##vd
##olo
##uwa
##dly
##dman
##rring
##mvuli
wade
wazawa
kuhani
kukwama
nah
nasser
##inki
##intes
karaha
kafungwa
##mato
haz
hats
##jitokeza
##turing
large
##analy
##humu
##gop
saintes
silly
##kolojia
##fukuji
humani
vilio
##patana
##paste
inazingatia
inaonesha
anatenda
toroka
##pimika
nyc
invali
##dukua
redi
##wizi
##witz
wick
bird
##pez
utahangaika
coch
colli
melo
suez
doctor
mbavu
##tering
##ution
##utive
sikubali
keyes
waliingia
walishinda
lots
rodeo
rodri
shamu
shaking
##puli
hawaelewi
dukes
presu
mapapa
##folio
madei
nimeuliza
maui
uliotumika
yanayopimika
medical
parried
corin
coronel
112
134
kadirika
appara
sprea
subsection
mikuu
madharau
interconne
flashed
cretan
surcharge
antitru
imper
econo
dancers
firth
closet
##quist
obsessed
wapotovu
mwelezi
##ffed
scar
cooling
montreuil
evocative
##pying
kibarani
atoe
entrances
waandaaji
imperative
portfolio
centerpiece
wauguzi
biography
proudly
strokes
issuance
##scriptions
philae
eliminated
inanuka
##unei
vacationers
livingston
signpo
thailand
hamilcar
instructors
temptation
esteem
culturebox
nationalists
vichupo
parcells
shangwe
sepulcher
darasani
coniston
gauntlet
excavations
pulitzer
harper
explain
rajput
coffee
antoinette
oxygen
convince
shupavu
textiles
darubini
unfiled
efeso
antitrust
avo
avia
dresses
esc
htm
ille
kent
kinu
nr
ode
pj
sper
uanze
##ambatisha
##eu
##jin
##wachu
kuchuku
kuonyeshwa
##hamia
mava
malaya
##rabo
##kieni
lav
lar
##hole
saving
sisemi
baking
viza
visc
chaki
aliongoza
aliomba
##inable
themba
##bie
juror
anakua
anasimama
anasubiri
torati
unatakiwa
weis
##standa
sequ
wanavyo
wanapanga
pasta
##suluhi
inherent
##dhibisha
resu
ania
jarabo
##chocha
bump
##cept
bolo
mtumbwi
doo
##gible
##bos
mwenda
##vae
rob
root
##fembeni
alpine
choi
niliendelea
##milike
kujichocha
##cited
dufu
umetx
yanaenda
nyege
outcro
uajemi
linatangaza
vague
chanti
##thor
##yamaza
yaliyotolewa
carriages
version
mishu
##llions
147
116
ikamilike
offer
braque
lotto
clad
showrooms
trick
mashuka
quit
quil
##liest
crow
harmoni
mvuvi
khafifu
palacio
exact
asifembeni
##saire
clothing
##leleza
fanci
plugs
singh
woody
hunanga
kuuawa
reigned
alfonso
books
##worked
chateaux
360
jersey
nanyi
dressing
continua
chenyewe
unesco
renovations
torre
ulingo
filmma
footing
tungependa
uncontro
irregu
souvenirs
mfaidi
canopy
healthy
erected
smarter
omission
ujeuri
washitakiwa
routha
occupying
kudhulumu
kimbilio
footpaths
masada
penati
persuasive
kuwinda
orchids
uumbaji
inateleleza
chronicle
ethio
variability
cohort
coarse
corinthian
apparatus
nrcs
mavaz
jarabosi
umetxha
vaguely
av
buri
egy
gou
gunia
lone
lous
mdau
pand
vp
wini
yende
##fers
##np
##ranga
##ggs
##mwezesha
##canese
##ywe
##14
##wal
yava
##anan
kuhusika
kuganda
kuamka
nakaa
nadhiri
maho
match
##tifa
##riff
nikua
##baugh
##sio
##lade
##tuhumu
##tom
##teen
##keven
##anile
##salimisha
safa
bale
vid
##mil
##mites
##mizes
chali
##papers
aliita
##down
tuongee
##rol
##rola
toy
unakuwa
sefu
##shop
rese
recei
chen
dar
raven
builder
##chemea
##liath
nyuki
depen
superi
sudden
lega
teua
knos
##boy
##chia
makahaba
komaa
##rying
amekataa
usijaribu
churchi
imeamua
holl
##lant
unlv
uninsured
candi
digi
diving
atlas
##stahiki
##hough
ulikua
algeria
haiti
kujikinga
forrest
forfei
gear
affords
ruka
exu
exxon
##sand
cherono
amabo
##stice
gitaa
107
maureen
mnakhi
penrith
##llina
##kimbiaji
##ttering
gracious
135
herman
nyorosha
mitaala
ikieleza
trend
unaomwezesha
##lessness
kuwasilishwa
interstate
downlod
mstaarabu
merca
harrer
breakeven
menu
heaven
sympa
danne
patent
counted
morri
richards
##cusing
cruz
diagno
1939
transi
security
areas
usioidhinishwa
linalotuka
montmart
anatarajia
waajiriwa
normans
##craft
kutibiwa
kisirani
stevens
uneasy
bellini
##rikina
junkyard
pleaz
cloisters
hamilton
hurrican
interiors
ananuka
marketing
concorde
simone
tweak
##psut
lebanoni
pfizer
mihdhar
paralegal
bozda
kukaririwa
fabulous
administers
huntington
cummins
palermo
dodecanese
yavamu
depends
knosses
churchill
mnakhiari
linalotukabili
axis
dna
dre
fia
gondo
mpotevu
ske
ts
tp
xii
zona
##idha
##vida
##lders
##uer
##uts
##lipiwa
nau
kadiri
##riend
##machi
##taine
nianze
kimi
kiss
kidato
##siveness
##jima
##dated
##yamoto
##reka
##rekebi
##bus
##mulation
##hold
bainisha
hufanyika
huajiri
kuwafundisha
##mist
##desi
##mova
##llor
##bishwa
inas
inaeleweka
justus
mut
moon
moshinde
anawaza
unakuja
##chrome
wanakula
waoga
##shonea
##oted
inspi
inscriptions
bize
wanna
wants
cama
ajipendekeza
liber
docto
neg
prop
nova
kota
##verley
ros
rodin
roared
imeachwa
mature
iliyomwa
mboni
ulijua
hawachoki
tunasema
niliyo
kujisalimisha
barts
affi
kukufanya
ukafiri
kunja
itawa
itapatikana
somethin
##malizia
##nick
##olwira
bear
wameona
wamezoea
vase
inayoitwa
inayozuia
inayozuiwa
inglis
orna
accusing
matthe
carville
cubi
cumberland
kurehemu
serra
132
##mberg
beachfront
kuchangan
election
kuruhusiwa
bridge
wakisema
agent
607
609
##stingu
generation
hargarten
kingolwira
videota
earnest
eccent
saladi
isiyotumika
kilogram
morro
mormoni
minamoto
makaayamoto
surprised
mlichimba
1958
bookshops
focusing
falwell
multip
kubainisha
typewriter
mtungia
##henjo
mizimu
picardy
##kandamiza
inavyosisitiza
##writers
aliituhumu
methodological
crane
dolphin
crone
alimuuliza
laptop
##hubuti
gentle
hubbell
gonzo
defenses
palladio
shelves
izmir
lynch
although
texaco
custodial
disappointing
peponi
hakijachunguzwa
honeymoon
fundamen
udikteta
wameamua
rehearsals
lousy
montmartre
moshinderu
iliyomwakika
akan
bt
bp
boni
frana
lord
mund
mungwana
nona
ul
umb
ulia
umama
ucla
uzushi
##ivunja
##zys
##proof
##kko
##windo
waaminifu
##kable
mack
karai
##ennia
niches
kiki
kimba
kichu
##sitions
hack
hiss
##kishe
layo
##iacha
##guano
bada
bald
vidakuzi
mionzi
kuwadhibiti
##mile
chall
alidukua
##gevu
tues
tafiti
inauzwa
inastahili
judging
toss
unachangia
##pied
##pimwa
waovu
pasad
##duze
anc
anzisha
##juaji
rav
rail
##cea
##cero
bori
pointi
comi
meja
ship
pean
##manic
##chup
dolo
gallic
teke
##andamane
kovu
kochi
##vards
lola
amejibu
rom
imewezeshwa
##inking
figo
##grams
unsu
disar
attan
iliyoandikwa
iliyoharibika
##fel
akavi
jolanta
ondoa
enth
altar
tunaivunja
niliandika
kitalii
arl
##angwa
kuipindua
##scend
nimesahau
asy
##usly
gior
##potekeleza
##ousness
##anzilishi
marxist
106
magaduze
aipot
123
telecom
mitigate
##ringly
parc
perkins
144
##inology
##mmetri
worse
malavida
madhubuti
dayton
blocka
glado
brit
cyber
kueka
##ddles
hospitalini
##rishna
bergen
californi
kingono
tafakuri
asidi
asilia
finland
finkels
typical
1927
opini
##ctus
diaspo
awesum
makocha
blankets
1951
colours
kuokolewa
kuwapachika
kibofu
project
endless
milliken
messy
wajamaika
girlf
director
##perushwa
1914
boulevards
##saidieni
huyaambatisha
##hudhuriaji
manageable
##produ
##ggle
adverts
alijifanya
tonight
reinfor
##headed
ambienti
tukaku
terminology
##original
itakapotekeleza
please
epito
cranes
pulga
maxim
alimuangalia
##licit
burnt
specimen
stranger
aliniuliza
interventionists
arnold
graphics
##2001
kusikitika
beseni
cluny
jacques
velvet
overpayments
impulse
embroidered
phantom
assassin
weisberg
mundane
kimbari
tuesday
pasadena
magaduzela
aipotena
malavidavi
finkelstein
alu
aweze
associa
bunda
funi
md
mgu
muni
mchu
obi
swor
uvunja
##ie
##ic
##isho
##fyo
##from
##ulu
##rpe
##17
waandamanaji
##lijua
##lipu
##lithic
kukonda
##has
mabi
maca
kad
##kup
##rizing
kifisadi
##sight
##rabara
##dier
sales
bats
baff
viroba
mitun
##polo
tulizo
tasty
mummy
motive
anabisha
tow
tola
tochi
unatokea
##chre
##lowa
##sud
auctioned
incidentally
repo
retra
redist
relationship
rack
raid
fac
famous
thatcher
pompo
hakum
dev
deplo
comic
mex
shirts
peak
##mpongeza
goliath
leh
galili
##bodi
jeez
piles
ameamua
imepotea
imelowa
sherry
akiendelea
maslaha
##graphers
shuhuda
##puram
kutambaa
##stasy
ulivyo
enca
alma
malizia
malisud
##stor
##thered
##cist
reac
stagge
umekamilika
armi
ukalii
kunene
abba
2008
magnet
203
gibson
##bergh
johns
linatokea
utekaji
congre
inayokua
faradhi
goodness
texoma
matsu
whitewashed
toobin
cement
303
sersa
##swald
juliet
ndoano
workmanship
workpapers
herbal
nyoyo
daycare
hadrian
lettu
freshi
quad
quer
hauss
awatoi
agenda
mboo
kukomboa
##conferencing
calister
##renu
crashing
machinery
berkeley
##gemeo
campanile
densely
kuponi
iraki
kuzitumia
minarets
801
phen
swim
troupe
scalia
classifications
reimbur
collector
1953
alihamia
queens
shooting
owen
puerta
theology
vilivyoboreshwa
augustus
nursery
belgi
usultani
terraced
sexy
polychrome
wolff
isabella
risk
villette
corrige
senator
##oooooo
cathedrals
ombaomba
arcaded
glenn
astronomia
responsible
sarcophagi
confidence
wrestling
maurice
pdfa
kusalimiana
nakuaje
storm
tangawizi
parallel
wageuzi
nitakavyo
mjei
##qualified
nouve
continual
inasongwa
mguso
swords
uvunjaji
afu
cree
fl
ian
ils
mdhibiti
mchapi
mzio
nme
puni
pines
punch
qur
yin
##ure
##mmi
##kon
##jan
##qa
walt
wapon
kukana
kujeruhiwa
kuangazia
nachukua
nativity
male
mabu
masai
kasoro
nikwa
kiamsha
halai
##tum
##mbatia
##bush
sate
sik
signo
##guson
##kose
hukubali
hufunga
hulipa
miec
kuwavutia
##far
##fact
chaza
champ
alifurahia
alihangaika
aliyeni
mutenge
motel
analia
anabadilika
anadanganya
totally
ilisaidia
##rupt
wanakufa
##sue
inzi
invi
revol
darling
baarabara
bien
billion
ratt
##cessi
bosi
pompi
mtumba
lique
dela
mea
petty
levin
thro
near
profi
jiuliza
riley
pigana
pimples
usikose
rogue
imejengwa
unqualified
mahamri
akaamua
envi
chorus
##sant
##santo
upstream
concise
foal
wakamcha
nimekataa
admit
1812
luna
##nica
##joa
inayoendelea
mwanan
uliotolewa
gusta
chagui
veronica
herbert
##lented
kikabuni
mikuki
talent
kuchomwa
kuchochea
cros
msongo
##nery
##irishwa
crags
##ralism
nikakaa
berman
5000
antique
kilichoha
townhouse
fertile
ferguson
northwest
cruiser
kukiuka
snu
irradi
##ritical
makombo
blantely
annex
1959
bastion
ulegevu
tintore
##crafts
salvador
teacher
chancel
direction
resign
boaz
cellar
funding
predict
dhamiri
ashtakiwa
proserous
1789
helleni
mhasibu
lieu
film
wolf
episo
kilgore
extremes
discrepan
skiathos
digrii
automation
kushiba
fairy
echoed
tunic
kiteka
collins
whipmasters
friezes
clarke
unnecessary
triangle
havijakwama
erisa
upotoshaji
kanyagia
alieandaa
hurricanes
challenge
mchapishaji
waponza
nikwambie
halaiki
aliyenitenga
wakamchamngu
tintoretto
812
bles
dsp
ena
hans
lenders
mci
nzi
rana
tunga
ukati
udumu
##ider
##lfa
##zter
##gwe
##yn
wadi
wafuata
kufuta
kuhitimisha
##hall
maple
kadhali
kizembe
hathor
hio
hilton
##yafiki
##yagaa
##wether
##anis
##rell
bab
bafuni
human
huongea
hujulikana
kuwaadhibu
##fahamu
##patra
##power
align
tuki
tujue
##llusi
##bid
muingereza
anafundisha
anayafiki
tolo
mwako
unatoka
nypd
##fitable
##looooooo
secular
pauni
##riars
revaluation
chania
bitch
catal
heston
##lue
meat
member
##ssor
sue
##cam
##cates
##utic
promon
proksi
testo
rivi
rips
mwiko
rome
imebadili
sheep
##rsday
akiingia
akiachwa
button
manyagaa
##cover
akatengeneza
joel
jokes
hawaoni
allah
haijumu
tunatarajia
nilizungumza
nilipanda
##uel
##thes
strings
##mance
wasted
##vutiwa
umefika
##ella
rude
##enos
ajab
##ungia
fora
majangwa
kuambukiza
gizani
##yanne
##wakera
marr
diddy
amvua
kijiko
mafungo
zinazolingana
kenned
114
herring
##kubaliwa
trigger
subtra
elections
wakifanya
kukopesha
intrusi
1963
louisville
vincent
eszter
anayeipenda
asizi
campus
chapelle
angli
ufugaji
1949
##pendent
mbishi
lifestyle
1931
curve
##classi
miniski
blank
villain
pumzika
kulazimishwa
shiny
enthu
chemical
caletta
uthibitishaji
christie
rockets
shrinking
lenin
mioyo
sandwich
casino
##mbuliaji
motifu
venerable
pulpit
jeffrey
metaboli
thursday
mandrakes
attendant
synthesis
angelico
lukas
isola
vichujio
heavywether
watersports
anecdotes
aliushikilia
unprofitable
kumshawishi
colonists
fertiliser
letterman
##simulia
podhore
akitusikiliza
spraw
egidi
charleston
escala
michuano
uthamani
vicente
cleopatra
netanyahu
lieutenant
kusalitiwa
mfanyalooooooo
hatshe
##zyslaw
badae
##mmetrical
girlfriend
tukakusaidieni
mieczyslaw
mwananchi
kilichohairishwa
blessed
dspb
kadhalika
anayafikilia
haijumuishi
kennedys
podhoretz
amb
aone
bino
didi
eul
ebay
hk
ise
ivi
isiwa
osho
obe
spen
ulls
##ille
##gles
##hini
##whi
##yl
##13
kulewa
kumua
masho
malia
##tivated
##rizes
##bashi
##hill
hamna
haps
##latory
##zac
##hem
hippo
hirizi
##kei
##inika
saga
kuwajulisha
##mbishe
chair
alive
alipita
tulare
inad
inapp
juisi
anabainisha
wee
parne
parish
inference
##dufisha
reefs
anson
##wire
jamani
##pange
beck
bulle
buffs
helen
##mbursement
coven
golan
maalok
lem
lewa
throw
nege
negara
neptu
##cast
futari
jelou
##enting
walitu
walisafiri
timbered
fea
imefunga
hollings
unyanya
mando
kutajwa
akafunga
##yumbishe
string
prevalence
jino
kunan
ispt
using
couch
conspi
nuna
folks
newton
##zuili
uwaonye
taabu
##formance
##vency
outlay
guessing
kinaonekana
##ssian
trailer
##thografia
aix
chimbo
penny
bunk
kuishia
##perfect
flower
floppy
vijiwe
aliyekuwa
aliyehusika
aliyeuawa
brake
##fiable
blooms
tulijaribu
kurudufisha
kukomet
##sities
intently
cretans
anayetimiza
crap
nikapata
mental
natamka
philips
clocks
aeo
aerial
raikes
##bank
kinachofuata
slick
phd
##setsa
##heimer
waikiki
agaw
breki
burke
booksta
colgate
kiothografia
cryp
uorodhe
residences
##prene
target
transfer
jennifer
staffers
inanena
empress
determine
vampi
wym
sulfa
kunipa
mandazi
acclima
wordperfect
kushikwa
croaker
dominika
##rysler
biskuti
correspondence
deliberations
averages
speaking
armey
neande
contingency
danneth
lettuce
haussmann
wafuatao
binoculars
isiwayumbishe
ullswater
mashobane
parnell
neptune
jelouse
unyanyapaa
kukometsetsa
uorodheshaji
a2
banga
ey
fci
gm
krishna
pou
pele
swan
szary
urudi
wre
##tse
##io
##zers
##ore
##now
##mhle
##bla
##99
##licop
kuanika
naanza
##inzia
##tiful
karate
katherine
##rita
nirudi
niulize
haida
hamme
hapunguzi
##zimika
##lezea
##tutmosis
##yof
##toshe
##tels
##hukh
sivyo
sidney
basse
huhitaji
huchangia
hubble
vidon
mist
miguna
##miento
##pota
thera
##rook
##sexual
inaelea
anacho
##inese
##riaga
watumaji
rebe
reloaded
##ingizia
behave
sore
catego
helicop
limeta
deb
pere
perak
sumptu
threat
##enei
gaza
rice
ridin
rivas
##cken
piros
##entin
loser
##funge
##rands
akifanikiwa
akivuta
fix
shack
unre
##tokelezea
enci
kusinzia
tunatakiwa
kujiua
kujisomea
armor
##nos
conju
nuksi
asking
204
##andtutmosis
alikuek
103
ninataka
broker
walai
shangilia
beats
##angoja
channya
orn
carlson
##endra
scanda
ceci
floral
sabato
kufumbia
ndoo
msamiati
aliyeshtakiwa
usanii
herz
ikitai
leaf
blame
zogo
newsday
minyoo
wilshire
ubabe
interchange
spear
1961
sakata
nikaenda
berry
winds
frankly
handbook
jumuishi
1942
1943
postmoder
natumai
shikamoo
woodwork
areaandtutmosis
hununua
aliwaambia
sinan
brewery
bursa
##spell
lantau
hawaiians
lynn
swee
attacking
chinwe
dryspell
makhukh
##culously
survivor
punje
bulldo
circle
astro
spotted
polycarp
##uuuu
personal
fantasies
ulinganifu
nicolas
josephine
galleria
petite
melrose
conversely
mughals
fieldwork
passport
watakapo
synthetic
inventories
kuchelewesha
chagall
betsy
valencia
uyoga
sacri
alikamatwa
lombardo
sparsely
akaniambia
rifles
impossible
imerudiwa
ukatishaji
hatshepsut
kunanyesha
fcic
hapunguziwi
vidonda
helicopter
pirosmani
alikuekanga
makhukhuni
05
08
abe
bb
bbc
ego
mratibu
mzalendo
nw
ngi
omu
omondi
staa
smy
tinos
useme
ym
zidi
##tler
##friars
##nin
##numbe
##dinal
##kle
##kena
##ero
##ctable
##22
yatoa
yahoo
wasilisha
kudata
kukemea
kudate
##hali
nipe
##onde
##zikwa
##lett
##zart
##tower
##western
lai
##mbao
##jahan
##ial
sahi
hujenga
huchafu
aliweza
##dodo
##mounted
tuandamane
mold
anaeza
tosho
unafikiri
##inet
nyonga
wanaelewa
wanamazingira
inform
reuni
jaa
buff
cassi
cassette
peperushwa
##mpton
maamzi
##thon
levy
leaned
provi
procu
jikwaa
nostal
##istic
gawa
fuss
knows
pione
##ongola
kopesha
zita
tiberia
loh
amepoteza
shepu
kupikwa
kand
shuti
almond
##ueva
##belly
strea
stallion
##endously
umeda
kuongezwa
kukulia
exi
exclu
itaanza
connor
hayawi
amal
##llation
nimesimama
kuvumiliana
##berna
mawaidha
outnumbe
mkora
wamekubali
vari
tradeo
organi
acres
guru
oversee
124
matini
carl
manenosiri
whitebelly
yanayokuja
kutuliza
misrepres
edmund
##llite
##ciary
mtoko
grace
funera
137
hank
hikima
subclass
quarti
specula
manugu
weekly
harrison
anayefahamika
##ralization
nikam
##minating
campground
nights
thibitisha
kinachohusika
1924
slide
canadians
eugene
switch
garnier
230
##ystem
teatro
systems
deeply
festival
adim
infini
hilarious
matitiless
roofed
asakusa
ponta
jenkins
##ished
##lights
caesa
msibaa
unyenyekevu
shahjahan
greyfriars
battlefield
distress
idiot
civilized
robinson
lucrative
flourish
allergic
mhubiri
ribeira
utilize
overall
brazilians
charisma
anawatakia
depressing
prototy
marauders
negative
kutenganisha
international
ashawahi
orchestra
camx
mahatma
kuinuliwa
gleam
uchelezaji
warranty
outcrop
ethiopia
lehrer
promontory
aeo2001
limetatuliwa
threaten
ymca
huchafuka
tiberias
outnumbered
funerary
340
csa
dsm
fcs
finger
gte
gnp
ix
imba
ihesa
klipu
mpe
owe
orio
sang
usho
##tone
##tangu
##ool
##cratic
wapwa
kubet
mapande
kalia
kwagwa
##rize
nie
kiuli
kihenjo
##laz
##tubi
##hes
##kimbamba
lata
lava
##shaw
##hobe
sard
signi
simova
hupimwa
vilikuwa
milly
alitafuta
##biwe
##bies
inalipa
inatosha
mozart
anashindwa
anafanikiwa
anaruhusiwa
toys
toboa
##chonga
##pishwa
ilikimbamba
wanayo
pads
##enggan
inje
inlet
reserve
witty
rac
##owl
boone
sohobe
potty
ajifunze
hetel
deka
deme
##mbui
members
pede
summe
donna
donkey
korid
zika
walidai
waliuawa
looooo
hadi18
ames
amekua
amefariki
rosen
homes
akifanyiwa
fif
fiction
unsca
dicle
mbel
yorito
haipo
tunaongea
nilipenda
kujihami
barna
strenu
dukani
kitamil
umepita
kutembele
##elder
ukae
excluded
usda
condition
nucle
kishairi
abraham
##keeper
clintons
luther
##night
##nies
outside
marta
martial
##jumuishwa
shri
##ckett
##plex
teleconferencing
scor
percent
float
117
kufatilia
malabar
keeps
print
kindly
stolen
wakifurahia
mbovu
##kerwa
##eee
eagle
kumwamini
sorbon
capri
##hangaiko
##cturing
ipoh
##thiriwa
hazizuili
irrespon
reimbursement
upogo
capitalize
##standing
flush
revisi
tapestry
diners
doorways
slap
1905
nitajaribu
memory
admiral
admiring
##meremeta
makhema
kathleen
utunzaji
kizunguzungu
rhodes
##samehe
tishu
aquatic
reassu
nerv
1492
emplo
perugia
bronzes
prescriptions
irrele
windows
strawberry
kubana
glimp
institutiona
cypress
dread
##ruption
antiquities
mixte
concortion
anthropologists
technology
summaries
marvelous
kuchangamka
deregulation
teenagers
benchmarking
ncpb
reformed
defectors
gregory
refresh
seasonal
dodoso
stunning
silicon
bologna
altarpiece
funicular
raiding
hakumshonea
pompidou
vampires
scandal
ihesabiwe
kwagwaro
kiulizio
sohobese
koridoni
loooooool
hadi1856
unscathed
diclemente
mbeleni
yoritomo
kutembelewa
hazizuiliki
ave
bandika
ebu
ibadili
ift
mhindi
nine
ps
slabu
uru
wendy
zinki
##iwi
##ids
##lent
##rz
##rents
##ela
##bourg
##wen
ways
wacheza
wafuatiliaji
##lich
kupendwa
kujengwa
kuulizwa
kukanusha
maziki
kaeni
kataa
karama
kameha
##richo
##rization
##tability
##tatuliwa
kise
##onywa
##kimo
##yeme
##rels
##golo
battered
##kosuko
huffing
vis
migu
kuwaacha
##mbongela
chambo
alibeba
alishuhudia
##gel
tupe
tambara
##bil
##biting
##shirikina
analeta
anavuta
unakubaliana
unaongozwa
##pian
ilipatikana
wanapo
paste
##shine
##mbos
##mbodia
inver
wishing
chinese
darned
jagged
ramb
betting
##pest
polli
liwe
kunaswa
sucks
uhunzi
##terni
jipiti
##ckle
jericho
kodo
##vit
feds
amerudi
rowe
rosa
roths
hoss
massive
fide
shuman
dio
##rness
##cock
akapiga
nilishangaa
##milikiwa
barrio
zinaa
zinatolewa
##thel
kusaga
stacks
duc
kunyoosha
rushwa
##noji
mtamu
cheer
forest
2009
ukomavu
wakasubiri
madem
kuachwa
##kings
labor
##mwaga
##berry
thousand
##reet
marsh
linatajwa
104
kinaba
tractor
gug
carlton
kijito
##mwona
cup
waliouawa
waliozuiwa
mweisho
ukiona
kumpata
kijanja
msafi
##croix
tulisema
##llora
oldsmo
blum
britan
mintie
hosses
anyways
##flation
ubao
applica
nonde
croses
warlocks
kususia
underwent
berg
menhi
example
agora
##tency
imagination
salsa
muaminifu
plumme
migomo
helena
freshman
##zzles
washambuliaji
woodland
nasaha
supply
beatrix
retrospe
brando
1957
akina
anatakiwa
silks
uganda
trei
booster
sweta
calcula
##lanade
uoto
1898
smoke
##ckie
resistant
misukosuko
gorges
asiyehusika
connection
url
##mnyeme
holyhead
undeveloped
knock
refusha
esplanade
maxwell
cityof
doubtfully
canoeing
hooks
yakiandika
kunyoa
dawson
socialists
nicholas
vimemnyeme
conquerors
steeple
brunelles
synergies
udhia
voyage
wigand
saxton
claimed
galerie
walkway
hazmi
mishumaa
umbria
mandojo
haidaiwi
orioles
ibadilishwe
ifthar
kamehameha
kiserikali
jipitiee
rothschild
applicability
vimemnyemelea
brunelleschi
d9
deno
etoi
ganzi
hing
jini
kmart
mlio
mny
mph
ncaa
ol
osha
oas
omamo
ufanyike
##ffany
##dz
##roned
##gine
##glio
##mungu
##kdale
##widi
##wasifu
##hala
karen
##rically
##tawanya
niweke
hart
##rawe
##wete
lama
##unger
##huela
sites
##gues
##kovu
huwekwa
mikia
kuwajumuisha
##mbane
##migra
##mikia
chari
##dem
alimlaumu
tate
muttered
unatembea
##pige
##inement
##lored
##stling
seth
semhle
wanaji
papi
pathetic
paella
dal
bits
bible
bud
butu
##cest
cambodia
ajitenga
coherent
##luence
peku
pessi
miata
##cating
##cakes
##terdam
notion
##mbed
haliwezi
mwizi
##fikisha
walipenda
waliruhusiwa
##valu
fetus
hadison
unc
unbu
dise
##type
uhamasi
nilivyo
barba
##tually
ukumbini
geth
reality
umetatuliwa
kunjana
rut
mkao
mkamilifu
cheka
chechn
shogun
mchangia
kitchens
##lster
zilizotafsiri
alikuwepo
108
shenz
kinapatikana
majaliwa
mkojo
wameshindwa
tumefika
tracy
monsanto
pumbao
vittorio
motogolo
gupta
##menunua
##sterone
ukianza
frances
kumtumia
kumtazama
atatoka
corso
1100
vikumbusho
worried
changarawe
sensi
starter
unaotokana
##talism
##ssels
##rought
application
impot
eskdale
drill
nyamaza
maombezi
mwangalizi
##fulness
cligno
financial
dorothy
denti
landings
hardwood
fannie
linet
parachu
##guez
sunni
differentia
chungulia
260
branch
eastwood
noxolo
mpake
orihuela
putin
4000
ajanta
queer
wakiyatenda
1860
1863
kisumu
cardinal
mchamungu
contradi
brunei
murcia
insur
modern
rajputs
narayan
9000
catering
particular
advertise
foothi
retrea
parisians
icono
supervisor
sulp
manufactures
comprised
kufufuka
stalacti
entertaining
durga
health
kudhalilisha
##cidental
##xistent
rothko
mkizidisha
fitzsi
schwarz
amsterdam
reflector
aryans
nebbish
snoo
nafkiri
commodore
tribune
seleyman
consolida
guilty
wheelchair
caddesi
perfumes
objectivity
rodriguez
diaspora
mabustani
testosterone
enthusia
ivio
walituuzia
zidisha
barnaba
etoile
ajitengaye
shoguns
mchangiaji
zilizotafsiriwa
shenzhen
clignota
a1
ape
ace
aca
azu
clan
funika
hind
hvy
lb
longa
oc
ovitz
urekebi
##sque
##mson
##kane
##bbly
##jc
##was
wara
kuungu
kuheshimiwa
kufananisha
nax
##hart
kiind
killer
##hira
##rari
##inished
##buh
##mez
siti
balls
battery
huboresha
huonekani
vibali
visasi
mijini
##mbwe
##fax
##derer
##gals
aliny
alivuta
##seen
##sese
tawasifu
inasu
inafanana
inafinya
mul
moor
anakubaliana
##pigia
##pitel
##fire
pasha
widest
chrysler
##vul
##vuza
##peutic
busi
burden
##chechemea
poll
camar
##lias
##jea
lift
meek
melt
mekundu
##chula
legis
dovu
necessary
##cards
proven
protag
##tiated
gallo
teta
keyanne
##vati
titi
till
titus
lore
akikabidhi
##amrisha
shame
mane
canon
attic
iliyosafirishwa
akauliza
kilema
alpha
haileti
kujiga
kujivinjari
kujisumbua
malisho
bart
zinakaa
kukauka
stau
staple
umezidi
##itan
kujaa
yanazidi
condu
ndiovuza
magno
##zuka
uwasome
wachamngu
nimecheka
aspect
gib
##liosis
theresa
mkokoteni
wamesema
##joy
tumekaa
monde
inayotolewa
mnayo
activated
ngya
##pless
##iiiii
backpa
kutusi
kimyakimya
performance
nikotini
kufutwa
msambaza
##rns
grandio
porn
porches
subs
tulipo
mcg
mammoth
terenggan
kukopes
wova
unification
apples
internet
blackpool
immature
403
estuary
anayecheza
repul
##vunjika
implicit
sporades
##gemee
republic
misstate
newsweeklies
##large
towns
bando
banker
##stration
iras
liveliest
wasajiliwa
##pingana
tyler
paramount
hutapata
tanzu
basin
##ctably
##workers
##kinson
kibosnia
quie
smog
slobo
neoclassi
mchoyo
makanga
misuguano
oxford
unex
gasped
insider
cellars
fruit
1889
dyna
dyck
vikao
touching
inavyohitajika
hazijaweza
##ishes
benefi
pakistan
fastbodi
perugino
equival
kutangulia
bhaira
battled
coleman
tempted
exempt
##girls
gifford
##roids
sumatra
justice
##pitiliza
friedman
##kasirisha
buttermere
disguise
sarcophagus
castillo
cherpitel
osman
outsour
fdny
nimekuona
landfills
instincts
dispensaire
ayi3
easier
cabaret
kunusa
cupola
dismantled
splash
unfinished
filmmakers
pandana
digital
association
redistribu
anglican
metabolife
didion
chechnya
sulphur
kiindonesia
inasugua
burdensome
uwasomee
terengganu
kukopesana
neoclassical
06
abo
ars
arifa
atun
bless
cron
ellora
fris
fans
kono
lia
msh
mins
pork
squ
trem
zer
##itical
##vidi
##funika
##use
##rine
##gence
##epolo
##bweka
##hang
##xy
##xtapo
##16
##wafikie
yasser
waanzilishi
wahudhuriaji
##licated
##anon
kums
natoka
##halo
mathe
kasa
kazin
kwakun
kifanya
kimarekani
kiwafikie
##baj
##rability
##dir
##zimisha
##lates
##dah
higa
##aniwa
##inist
##reed
##rett
sai
bamuzi
##furu
hugh
hupita
kuwany
alielezea
##gea
##llus
inaeza
inasikitisha
juxtapo
##erge
momentary
unadd
##chs
##chant
ilipo
seam
wanabweka
pare
paradi
##chacha
inso
intra
##dhisa
resto
recy
jar
bodhisa
powered
campa
camara
lionel
deserved
##mburas
coding
cocker
metho
peters
##onally
suck
lex
lemann
nero
##cat
##caly
##sore
provo
prominence
nomination
halihusiani
andy
tion
tired
tiepolo
imekaa
sheen
akibishana
##onoa
unlo
mwanasai
usaliti
##mbio
dif
##thier
uhara
uhame
ulitaka
tunashukuru
nilichukia
##milisho
kujikimu
##stors
gepha
naniiiiii
umesoma
armo
ukame
exley
nur
newman
nyamburas
##rints
amarillo
##sedonia
allow
vitunguu
kuhamia
uache
##ffin
shanga
inayomilikiwa
chande
##ghada
amtakaye
civic
acou
##ongate
matha
bundi
165
disinte
##genheim
backwater
zinazogongana
kupakwa
serve
vulgar
136
opereta
trianon
sprang
thorn
daim
kurubuni
agreed
denis
scores
scopus
generic
notebook
amrishwa
##rality
boron
undergra
marigot
nikali
##deau
heai
asians
cliente
##vism
slid
freeway
##rejea
milk
censure
summerha
falena
qualifications
ruben
caselas
kudonoa
apocaly
1903
1904
nitawa
zimejaa
1870
tarbaj
accompli
certain
nandy
quantifiable
ioc
atheni
##cultu
snorkel
depressed
##ratively
##seau
ambiguous
nonexistent
waliacha
grassy
grassmarket
janitor
hupungua
espn
indoors
distance
nashville
azua
packaged
antechamber
xavier
photography
jesuitical
sepulchre
##hesabiwa
insistence
withdraw
naturalistic
overesti
seremala
anaepuka
bolshe
farmhouses
##build
reuters
codification
necklace
embar
chowk
mdahalo
squea
precipi
atutoki
dwp
walijiziba
gilbert
invaria
fascination
invalides
##wachuwachu
nikuadhimisha
holland
croseng
hellenistic
discrepancies
herzl
summertime
slapstick
glimpses
cheerlea
kinabalu
guggenheim
oldsmobile
britannia
naxos
##itanbua
atundo
tremendously
kwakunitanbua
unaddressed
campaign
mwanasaikolojia
gephardt
clientele
bls
dvd
essie
llo
mende
mswada
menes
oba
ola
ocho
obli
oig
rhy
tangaza
vans
xint
##nons
##sk
##spu
##gher
##kindu
##cliosis
##hri
##jp
##wage
##wasikia
kushtuka
##kamia
##kaliwa
mayahudi
##tikadi
kate
kaye
kaja
##kumbatia
##maid
##taza
##tard
##tably
##tarian
nimenunua
kiso
kiyama
##rami
##dils
##jirudia
##lati
hidro
##tote
##anized
##yee
##yeux
##shake
bash
batili
bayeux
##kopf
##fumania
hujumu
huwezesha
vila
mickey
kuwatuma
kuwafurahisha
##mism
chale
##rots
##semane
taha
tabu
taxi
inachan
inaajiri
inaruhusiwa
muddy
moyers
unaunga
unabaki
##ruhusiwi
##lots
##lolijua
sewage
##susi
##shungu
##shment
##shour
##riate
##elezwa
daffo
jaume
##wanda
railing
##pel
mtulivu
##linger
lipi
dex
devi
decla
##thand
prow
prospe
jitapa
gakindu
rivera
##chie
kooning
zionism
walipe
##ryn
title
fetsa
lowe
loch
loca
amechukua
usilolijua
imeendelea
file
undo
unfair
manor
akatoa
akalid
uhasama
onof
alban
nilihama
bartho
##andike
stressed
huumia
kitabia
preca
kuipotea
usc
cheche
newshour
##llette
nyarugu
##found
wakakamia
clintoni
labour
##ffen
marsei
kinazuia
amon
ampa
amfumania
acting
121
chit
chikon
carry
cartag
##lliona
vyura
mitsu
##physi
kushukuru
madri
kikasha
portu
tulikua
##logically
cycles
priors
wokovu
##ddled
scotch
immigra
volati
bergman
clip
sample
takayama
kinachoendelea
kiitikadi
##ensible
swift
expedi
moneybox
waafrika
believable
usiohitajika
burungia
wavuma
ramsey
colmar
wachter
drum
kisima
1902
1895
makha
concentrate
practice
michirizi
mafuleka
tonic
2016
2017
wapate
reinvent
ruskin
dotted
catalytic
wakanywe
raptors
kiswidi
flanking
mkunjufu
stonework
neuro
instruction
alitusimamia
specials
nilipowasikia
carson
clinicians
mzaha
broadband
alipamba
bounded
hanuman
savvy
lipstick
salute
misosi
hulainika
charismas
trinity
reyno
acidic
whitney
underestimate
incompet
damning
tartan
elusive
goethe
basilique
coefficients
nanasi
accident
wicklow
scarlet
chantilly
ravenna
kisiranicliosis
camacha
gentleman
kunenepesha
punishment
masaibu
bookstaver
caesarea
irresponsible
retrospective
gethsemane
outsourcing
acoustics
mathayo
nikaliangalia
summerhaye
apocalypse
xintshungu
hidrojeni
inachanua
daffodils
gakinduri
akalidhoofisha
onofrio
nyarugusu
chikondi
cartagena
wakanyweshwa
09
ashi
atoa
ahudhuria
cler
duli
dendera
dnc
eunia
egg
linge
mchi
mdudu
mkimbiaji
oswald
ster
sout
smea
scal
tm
tanzia
veno
ws
##zheimer
##spita
##rone
##grow
##gtiga
##phere
##cter
##jm
wachana
waverley
##lite
##lieni
##litz
##lizes
kulo
nasso
nakara
kadha
katote
##kum
##nabu
nil
nijaribu
kigumu
##sita
haison
##dis
##diplomasia
##larity
##dable
lazi
latifa
##sawa
##sality
##undering
##rera
##related
##mei
##huania
##goja
##gooriginal
satu
balance
vipuli
midi
##mbra
##face
##path
aliunda
##inas
ther
##roma
##bic
anabaki
anagonga
unaitwa
unachunguza
weal
##pishwe
##fiwa
##strom
##strative
seat
wanapigana
wanadiplomasia
pak
paji
padua
inco
insta
respect
##elekwa
chenna
darn
##endea
radia
faru
belf
burea
##chelewa
posti
cart
deto
como
##maniki
yours
gombo
##chupu
lei
doj
neta
profe
protini
jew
ghafi
makataa
kelba
koko
##vars
tickets
fees
feed
rosy
chupu
imefika
imehifadhiwa
akitoka
shaky
shark
##grade
unmet
unpre
##enay
##coa
##starch
haikubali
kujikwaa
barbari
##bec
##bein
forward
stanis
dup
dumuni
##husiki
kitatoweka
umetoweka
prefer
kwwenye
##iting
##bleau
ukamilisho
rudia
conve
cheers
hayaku
maganda
magunia
kifaranga
##dykt
shots
##berti
kiugooriginal
garibal
plazini
ngombe
105
sitamaniki
##ssive
yalianza
push
puddle
umalaya
gul
takeover
carly
carrier
franca
kumdha
##zania
bonding
301
##inski
julie
##karibishwa
kufaidi
madras
stupas
##mbert
blauzi
subver
whore
bluep
haujawahi
flex
terri
political
kukojoa
calif
msnbc
##renti
harmless
understanda
212
mentions
upatani
clive
clippings
mlozi
akuje
glories
longi
oligtiga
1925
##riety
##zzy
singles
##cising
canal
sunshine
akamsimulia
coope
frag
1956
coated
sentimental
niliamini
kibasque
lunchtime
topka
erratic
##boards
entry
akawakagua
yamesitisha
ploti
barney
##bbling
churchyard
academic
oakland
uchanga
snorted
generalization
##enzetu
dickson
fireb
benedykt
federalism
mafundoni
lithuania
fontaine
caravan
genoese
zealots
snipe
minoans
hurghada
pricey
window
##turns
specializing
cornstarch
mishono
instituted
hawk
colonnaded
ribera
hamburgers
connoisse
vipeperushi
merrion
authorizes
wireless
##scribe
adventure
reeves
teeming
identi
hawatakubaliwa
potea
helmet
imenifikisha
fiesta
community
hundred
appeal
strung
denials
rediscovered
pjff
anakuasa
giorgio
opinion
nouveau
revolts
spencer
covenan
bbq
##lazquez
nucleus
sorbonne
insurrection
urekebishaji
slobodan
volatility
reynolds
incompetent
denderah
soutine
venom
nassoro
nakaragua
katoteshimo
haisongi
chennai
professor
chupuchupu
stanislas
garibaldi
understandably
fontainebleau
amia
eco
els
flin
gordan
hrs
icke
msia
pweza
sko
##thu
##tches
##ila
##nga
##sley
##skofu
##mwe
##mwi
##kondo
##ells
##bonga
##culi
##ywea
yames
wafi
##lius
kujumuishwa
##kazama
##inness
mafa
mavu
##tiveness
kay
kala
##enhaus
##naket
kimu
##simo
##simile
##rature
##onyo
##jid
##zak
##heheni
##yas
##tombi
##kill
laden
##sala
##salmer
##jah
##muda
##hubiri
##hora
##hops
sie
hubadilika
viru
miya
mitego
##dell
##poste
alisahau
##uard
tukia
theologi
taman
##birds
muru
murithi
analita
##katikakati
##pies
paso
anten
anania
annu
ankle
rated
maradufu
beg
bekazama
burning
sopr
softer
hexa
##liners
liki
limit
debora
##mbuko
melod
##mption
##rikiwa
youells
##ssos
##chure
maaskofu
lehman
propo
gaz
garama
tempe
rive
jessi
pilla
pitti
pimeni
makambi
walikimbia
##vably
amepokea
amemaliza
rodman
chumaa
akii
mascar
masjid
fiche
manye
canongate
attra
akakimbilia
##yuko
programmers
onja
younger
alzheimer
chotara
tunapata
tunaanza
##mlaani
kukaba
yanapatikana
exo
exten
numbered
military
angamia
shoes
lakers
1850
##rehead
plaques
zilizoandikwa
kulinganishwa
brows
brochure
##mbeleza
cigar
action
acces
guinness
stein
elway
cum
##endt
##llies
perry
kudupi
111
##monia
stucco
porter
tuliyo
mandharimbele
hauja
incre
politely
interse
warming
crescent
mvumbuzi
highland
machines
winston
densities
akutana
kuzika
##minous
240
papacy
1933
recrea
swimmers
yasiyolipiwa
aliwaongoza
troo
agatha
manyunyu
akinto
booklet
aapishwe
pm10
##zimie
kutii
entre
nitakuja
kuporomo
depor
vilivyopo
##ualized
refin
discovery
pyre
tutafute
bowness
##heads
iceberg
tukae
##aaaaaaaa
methodologists
giacome
purpose
modernize
scratch
grunted
nilinywea
engage
jaisalmer
chipsnaket
assignment
clinical
zimathibitishwa
commissions
astronomy
oratory
spurred
lebanon
mintz
yankee
adriana
editorialists
chartres
bloomberg
lutendo
overdose
mameluke
ibicenco
quintiles
kinatagemea
miereka
##buruza
utakaso
kohler
hustler
capacities
majority
facsimile
delacroix
catalonia
wrecks
therapeutic
encirc
leaflet
reunion
cassidy
strenuous
irrelevant
##ternity
rutgers
sitienei
higashi
bolshevi
haikubaliki
upatanifu
msiazimie
yamesheheni
analitathmini
##katikakatika
ananiambia
deborah
melodrama
jessica
chumaaaaaaaaaa
akintola
chipsnaketchup
07
640
ase
ava
amber
awakera
bing
bund
cani
drought
esta
iu
illu
jc
manga
mfia
nume
randi
rssi
sour
slee
tsu
tradi
trial
ubia
uchuku
ujuaji
##tre
##lm
##occu
##frey
##kla
##87
wazushi
kul
##kay
##injili
magi
kalala
##magine
##tathimini
##bala
hamisha
haribi
##ongi
##dates
##ledge
##tui
##yable
##kish
##temala
##sau
##hukumiwa
salinger
sitter
##kos
viuno
##mies
##dean
##gam
##gambo
aliangalia
alishangaa
##dout
taru
inaongezeka
motives
anaomba
unasoma
ilileta
nyika
##sth
wanarika
wanakimbia
padded
##char
aure
##due
##dufishaji
anani
chlor
jars
facts
##vea
caller
ajitoa
defun
coi
cola
colin
colis
cotton
messa
shivered
peo
##mph
maagano
necessi
##cale
1910
gaap
futuri
##chilia
pila
tianan
ameolewa
imepungua
fisa
##grave
unene
unload
manley
cantal
cannons
jodie
ulizi
hawaja
kusanidi
tunapendekeza
nilikua
kujisikia
##cip
gedi
presti
mythical
##els
##itho
affa
kukuuliza
exec
upstate
kuibadili
kuibuka
kuimagine
mkabala
mtazamaji
sands
majini
ranger
ranchers
magne
shoddy
nimemaliza
kuainisha
##fort
kiujumla
plath
uwezeshaji
marce
marley
brosha
congs
mnafiki
accidental
##mentality
jimboomba
aide
chim
steward
franchi
kumsifu
zinazochapishwa
edfu
atakufa
ataidhinisha
##arch
##shead
##mmet
funuliwa
normal
hankinson
ujakaliwa
ujasusi
##step
lilionekana
##lloway
audifax
ningekua
busing
glaring
briefs
mckay
##logies
engeno
politi
hissed
spar
msanidi
vos
esco
stirring
crater
davidson
maombo
##masishwa
kifusi
berger
mexicans
syl
sylph
clift
chaird
postcards
wasambazaji
wasagaji
janina
guam
guatemala
maumbizo
bradshaw
kukatisha
kukatishwa
squat
flynn
hunch
smiths
mliyo
brandi
brands
##coming
linalopigwa
goldman
springer
sonny
lancaster
##zenji
planning
mchepuko
shortfall
kisifa
principa
caltech
augustine
minus
usitawi
inflows
caribs
fungate
1880
tutajaribu
popular
populace
rhoda
twiga
twice
lennon
##untamiento
##licable
archite
redesi
complied
dreary
dodgers
allergy
florentines
colonnade
croatia
anapotathimini
brooke
ruthless
millionaires
informational
pisano
dawkins
morale
rousseau
disburse
bullfights
scrubbers
complement
kisanja
yatasafirishwa
wanamgambo
powerscourt
ayuntamiento
ordination
pragmatic
hirosema
##course
compensa
polsen
adult
##gopeni
chenon
diagnostic
inspiring
peanut
enthroned
bulletin
bangalore
bulldozer
nostalgie
speculators
infinite
urudufishaji
karamadai
fidelity
mcgwire
invariably
lloyd
manyelez
attractive
illustrative
mfiadini
uchukuzi
tiananmen
prestige
bana
bhu
binge
ct
cb
eme
ers
estate
ff
glou
hmm
noni
nyote
tini
tsim
##izidi
##fran
##nski
##ghi
##mnos
##emed
##bred
wars
marne
mabua
kapa
##enjoy
kifi
##bat
##bah
##sikie
hakina
##dare
hic
##tok
##kisi
##kikiwa
laugh
lazy
##tello
##requ
##relli
##meya
##mulate
##gogi
sihusiki
##guin
##koto
hujibu
humble
viso
##mily
chambua
##pambwa
alizidi
##momon
##inagogi
inaua
inakua
inadhani
inacheza
kutoamini
mushu
##shisha
##shier
analima
anashangaa
##kinika
ilikataa
ilibadilika
##fices
##lom
##stled
##nette
wanai
wanafuata
wanakataa
pake
patho
incar
watunga
reis
rehani
cheng
biz
beam
bette
##cester
boeing
soli
pos
polar
lips
limous
cox
##zesha
goal
supre
sussex
leger
dobson
nepi
##gian
gaidi
##bome
##mbeta
##andaio
piet
kopa
##vian
tibuka
amemlaani
imebidi
imerahi
imetosha
hotte
mashe
masinagogi
fier
shabby
sharm
mandir
candle
usat
akaanguka
enor
hairuhusu
##tuaries
##manu
kukuta
kunyamaza
velazquez
kuudhi
conference
mkazo
mkapuuza
##shirikiana
chew
watarajiwa
kibandiko
##mmons
basic
beige
nimeshindwa
pichaaaaa
giving
##rehesha
##lskin
zilizowekwa
bend
102
kinara
inayokuja
inayofanikiwa
carp
cumla
dispat
kumtoa
kumkumbatia
zinazoleta
parvati
##ribes
##gnant
133
aliyepatana
greider
naomi
stuck
porti
##kitiko
##desses
##roux
cyc
prima
awasili
terms
territo
nduthi
flair
vogue
relic
scholarly
impre
##zidiwa
spokes
supermarket
vinatumia
feronica
expression
220
rosewindo
remedies
1935
1938
##ficity
phy
hyde
clues
clutched
kukikandamiza
production
carolyn
tanuri
goddesses
haziku
##tatively
blonde
wagombeaji
linalojirudia
linaloizidi
romance
##ctability
lyrics
celeste
dravidi
boots
madicks
kosovars
mcheke
shining
treasure
theodo
memorials
pinto
starting
startling
##zynski
chapisha
edifices
counterpart
##ggled
##ppies
monopoli
2011
hawakukhitalifiana
solvency
reconquest
mummi
pietro
##bbie
kildare
kutangazwa
amuanika
salem
costner
metaphysi
brooks
savoie
concerned
kugoma
kipigo
specificity
alipatwa
wabakaji
banglade
dividend
lc50
darasky
patricia
phillips
naturalization
hercules
u2mwa
welcome
bryant
landfill
deepest
fanaka
ghirl
ocean
kkr
promulgate
commenta
wellesley
appointe
marino
##breaking
impractical
subsidizing
kumakinika
resistance
talmudi
detrimental
viliomo
doomed
irregular
research
blockade
tradeoff
sardinia
disemba
stalactites
longabaugh
bodhisatt
mitsubishi
barbarian
longitu
tarumbeta
ulizionyesha
gloucester
visopendwa
##momonyo
inadhaniwa
mushumo
imerahishisha
hottest
dispatches
ghirlandaio
amwaga
ble
dl
dine
drey
eyed
grana
hds
hyste
ito
ikika
igna
iishe
mchafu
npr
oke
uvi
wenzetu
##tka
##ija
##lman
##ola
##okoa
##nda
##nent
##rna
##mtu
##mnon
##menal
##kman
##bons
##bouts
##waambia
##lioni
##anyo
kuharibika
nauti
napanga
mahangaiko
maternity
##tians
##tized
kat
kwapa
##kuyu
##rilla
##rique
##rities
kip
kipindu
##bach
##badhi
##sico
##dilly
lamma
ladin
lakim
##unded
sage
sammy
##futwa
hufa
huchochea
viandikisha
mite
mivi
midway
kuwaburuza
##mits
##pala
##pared
aliwahi
##roga
##road
##sequ
inagundua
mutura
mwaga
##chter
iliunda
ilipotea
##strians
semes
wanatembea
wanapiga
padre
##mbonation
austrians
incase
wits
chenga
dalt
jarus
##ingisha
bitty
fame
##urie
maratha
soak
mtupu
lico
debe
coli
##lude
##sson
neal
mbalam
noon
nomn
gabled
rika
##andali
picca
##vall
lowell
ameshikilia
ametulia
usiseme
imeweza
imefunguliwa
imekanyaga
hoa
akienda
akiandika
akihitimisha
mason
fidu
shade
mfuasi
unono
died
##tych
##coco
akasisitiza
mbwe
##tson
enchan
enig
choka
tunapaswa
nilikuja
barque
zinatumika
##rtnery
ducal
preclu
preposte
kwh
exam
expat
##sanyo
upbeat
kuutafsiri
conception
##fuatiliwa
ukingoni
abor
walezi
nimeanza
kuambia
gist
giddy
##liot
##maliraja
##berger
outpatient
zilizoteuliwa
##ersona
marc
bromi
shindano
tumejifunza
##yamazana
kulazwa
guer
steering
bunt
cult
1660
waliobaki
##laumu
indispen
kumsimamia
##quo
##shingly
flow
floyd
corpus
##sheli
grapp
kufaulu
##gns
##shua
aliyeajiri
clare
tulifikiria
daimaliraja
quir
nonpartisan
kuchota
kuchokoza
vintage
harland
anayesimamia
grose
breast
impersona
vinaonekana
tuned
akut
irate
twin
##jelea
##jeledi
westward
roseanne
1921
ipotoke
caroo
akamshauri
inatafuta
trout
tropic
mccartnery
scam
worldclass
mpakana
syabonga
##barua
colour
expose
cheaply
uanahabari
casey
boob
bedrock
whaling
chancellor
1875
manipu
hiphops
##cepti
edith
sitco
generalize
astley
write
technica
fadhili
vikali
skating
nakupenda
adopt
1845
acrosefrom
akimnukuu
menaces
independent
positions
heartless
muncaster
anajisikia
wagonheim
##rthals
quarterbacks
improvi
mahrus
assist
jahangir
impact
phenomenal
palladian
wababe
vesti
najivunia
horsepower
contact
anticipation
complete
effect
haunting
kyc
mwenzie
outfits
rachel
joao
preventable
victimi
iliyohamasishwa
mkorogo
mpumbavu
nilimuuliza
competition
dalila
keynesian
pampu
forfeited
fundamentals
akavimba
episode
meatballs
hippodrome
neanderthals
hammered
sumptuous
menhirs
##valued
retreats
hindsight
alinyong
camargue
daimyo
obama
albany
smeared
covenanters
chlorine
emery
dreyfu
okello
kipindupindu
lakimandali
mivimbonation
semester
jarusinga
mbalamwezi
nomnyamazana
piccadilly
enchanting
enigma
preposterous
daimaliraja2
aru
akua
arufu
adai
atele
afunge
bung
clen
emin
fpas
hin
henders
mzalishaji
nun
nueva
pow
qut
rwa
ridi
randa
staka
twili
uho
vani
##azi
##lwa
##lengwa
##ombwe
##fn
##fly
##rines
##gland
##pwe
##qs
yaku
yakia
yates
wap
kur
kusubu
kuhangaika
kupeana
nakuja
mazinga
##tizing
kainama
kwayo
##enlarge
##rifu
##mashi
nicke
kihere
hacka
##zira
##lery
##yos
##kithiri
##kete
##unting
##rements
##muting
sart
salle
sakinisha
sight
balu
##fukuza
huji
hulipwa
kuwatawanya
cham
##pass
alifu
alionya
alilipa
##gerald
tumble
##seka
##llum
inamaa
inaanguka
inachangia
judea
mutee
mori
moles
anawan
anakula
anaamua
anaheim
anaenlarge
tolls
mwavuli
wed
welling
##pipe
##pierre
##stly
sepa
##chaa
##sholds
##dhakwa
audley
reva
refe
antho
daya
damage
jas
faci
bebana
##chokoza
##chewa
powa
poleni
limo
meso
meal
shit
pear
pepper
lean
lewi
doge
nei
##gile
profound
jitolea
nolan
gaya
hudumu
pil
pity
kofukuji
##vices
walizu
tire
titan
timberland
fei
feats
lower
robi
robes
rococo
chusha
imeundwa
##inky
masculi
shambulizi
shalit
##grapher
makusanyo
mfua
unani
##ongru
divor
kutambuliwa
vitabuni
akaingia
akadhakwa
ndim
zinafanana
umekatikakatika
pree
kukucon
baragumu
kunyesha
ruddy
russian
expan
upele
itabaki
itapendeza
wakorea
constru
mkatoliki
nubian
leopa
cherry
##scon
##script
hayafurahi
abrupt
##minika
2006
ushairi
ushabiki
##mmuni
shower
nimetoka
kijaka
kijamaika
gion
alikuchokoza
##ttoned
kuelezwa
linakuja
wameji
wamezimika
tumeweza
overrated
ukidate
angekua
mpiganaji
kumdanganya
alaaa
seeing
kutupwa
perfe
143
##anganywa
ikaondoka
kidman
hannah
brazen
bracero
fridge
showroom
trilioni
##croft
masihi
lilies
subpri
subordina
subscribe
##tionalists
stores
mcna
mcteer
wakikuyu
incongru
kukoroma
unix
flam
downstream
##ettes
anayeshikilia
surrea
##ralized
borro
khasara
bermuda
strapped
isiyojulikana
kilichobaki
kumwagika
ledford
225
masterpiece
prawns
sawyer
singu
somalia
differential
problems
##ccanism
linalohusiana
centime
##green
burma
sausage
apambane
falcon
airport
balaaaaa
countries
madison
##sitioning
following
shoots
adjudi
apollina
##veraging
psyche
kupora
1874
impetus
plots
chemists
chemistry
mchovu
ekaristi
iogopeni
transport
clou
idle
kamuren
nawapata
##borne
##clope
lsn
bosch
soldier
quarters
maharaa
1490
hopkins
##grown
saletan
unconvin
1707
##wazimu
specific
fujiwara
stalag
ananuna
efcc
bodyguards
fitzgerald
schwartz
yakilengwa
medals
agizwa
spirits
macroeconomic
mjasiriamali
crisp
picnics
thresholds
congera
##lungile
nakalungile
semantics
soderbergh
sikubaliani
avoid
aviation
viscusi
egypt
superior
affida
eccentric
morroccanism
alucam
pomposity
reactionary
armistice
swordsman
staarab
prototyping
pedestal
fifties
nervously
huffington
chariot
parachute
foothills
bhairav
zercher
cockermouth
ickes
mafaili
message
futuristic
ateleze
henderson
qutb
rwabe
randall
stakabadhi
twilight
yakiashiria
kusubua
mazingaombwe
sartre
inamaabisha
muteechaa
anawanyoosha
mesopota
profoundly
robespierre
kukuconnent
hayafurahishi
subprime
schwartzkopf
equest
evolved
fc
kla
kwi
linga
ment
mania
mzinga
nta
nra
olewa
ooo
pini
sms
sword
tua
v8
vous
zeni
##ima
##vou
##zko
##gho
##mmo
##mandi
##mins
##ption
##bya
##bwe
##wc
##yun
##80
wabaki
watte
wakiamua
##anji
kuhiti
kukanyaga
nago
##kawi
masedonia
kadhibisha
##mally
##tam
nima
killed
##bad
##bakia
haut
##rard
##onzo
##disha
##ziwa
##zishwa
##jitolea
##lafiana
##laaniwa
##damon
##hehe
hipaa
latitu
##teo
##yeti
##unty
saf
##gura
bagu
huongezeka
vifua
##mity
##deka
##gated
alizikwa
tufani
##bise
juta
kutojali
musta
mustan
mort
anakimbia
anapambana
tope
wezesha
##changanyikiwa
ilitaf
iliibua
selana
palmer
##riam
##mbot
aurang
iner
injury
rekebisha
repea
anjou
wielder
biscu
fado
faul
##vez
##vels
bezi
begi
bembe
wannis
##chopo
##peye
budda
bukit
botto
bowel
bottice
pochi
postu
popeye
catali
caution
hewn
limbu
litali
ligge
defa
coma
copied
##luted
mee
meze
##zel
##manishwa
suspen
##through
neigh
##cases
##sori
galli
kni
pitisha
keba
kell
walichukua
walifika
walishindwa
timiza
tiffany
locker
usipo
fidel
unner
mante
##stable
vitamin
##rdless
kileleni
chop
nilisimama
nilipoteza
madalali
duchy
dumped
umetolewa
umevaa
rules
##read
##reabouts
thasos
nyau
abdi
aber
##fold
wakaamua
1830
kuhakikiwa
outf
kupanuka
##ffle
##cute
marry
wamefika
uliokithiri
##yamazishwa
cima
##iden
chilly
steak
cardamon
elbow
kureform
utupu
alaka
##quer
zeal
mishemi
byron
kupatwa
flocked
normandi
aliyerabu
brain
adap
blois
##mony
trimmed
portra
ilivyojiandaa
redgrave
tulikaa
##ensky
eileen
prix
awards
unimp
intermar
enjoyable
##gany
stitch
skoni
marion
marigu
soubise
menor
heady
eagles
handshake
##onomics
##ririshaji
denu
walsh
imaginable
kuzipata
firsthand
##handed
mbioni
phrase
eusta
produci
tanzania
defensible
smithy
currents
##ctives
ineffe
collection
ushujaa
michelle
movement
uzalendo
kukamilishwa
##thamini
mahubiri
breakthrough
remode
gaudy
evokes
prepayment
##boxes
treks
shanty
muuwaji
zimebaki
neolithic
belts
hilary
murderer
respa
roof
##hydra
promenades
cocktails
extracur
##written
elimisha
kerensky
gangster
consider
alimtazama
716
obviously
lindsey
software
##kataza
1857
snider
mandarin
narrow
barrens
histoire
##elessly
exercising
gentler
sculptu
jails
kusasishwa
digenova
kimoda
langkawi
commission
overseers
bleach
honestly
medali
withdrawa
patrician
statisti
yakaanza
scripts
mikoba
inautumia
atawakusanya
patikana
angelenos
wapewe
madola
incoming
salimbot
identical
timothy
gestured
benedictine
handicrafts
sensua
triangulation
goldsmith
choicers
tpc
kichujio
sikkim
liqueurs
miniskirts
escalator
negev
imefungamanishwa
stringent
toshogu
kujigawia
declare
wsj
belfry
soprano
asechopo
escorial
enormously
mchekeshaji
longitudinal
##quoise
akutchula
sitcoms
ridiculously
masculine
mfuatano
divorce
equestrian
swordfish
zenith
watteau
kuhitilafiana
ilitafta
aurangze
wanniski
botticelli
catalina
limbukeni
litalipwa
liggett
mishemishe
normandie
aliyerabuliwa
extracurri
aan
arid
ashiria
amos
brew
embo
hp
kg
mongo
mmomonyo
ndala
pina
plen
pfei
tanda
tones
ubo
ujana
wra
wong
##ads
##apolis
##ion
##udi
##ude
##usho
##rton
##rently
##epu
##bstan
##cm
##cene
yap
yapi
waving
##lites
kuh
kuzungu
kuthibiti
kujeni
nakuta
##infeld
machungu
##rius
##nac
nipp
kiyo
##sik
##hiyo
haswa
##ziwi
##heiro
##yesi
##salama
##anao
##meles
##goo
##gofya
saturn
hupima
vibo
mitter
alishtuka
alimpenda
##dog
##dolph
##rows
tarajia
tambaa
talented
inakataa
inaimarisha
inaashiria
jules
moist
anasumbuliwa
unasu
unakuta
unaita
unasafiri
##cheni
##piro
##ruta
wanawa
ingeni
innings
rex
retain
dalma
jako
jackie
ral
rahman
fala
fasb
marathon
beta
beer
kitunda
cashier
utakatifu
utachechemea
deam
cos
##luck
shir
##rikia
##judi
maafali
##cap
##cada
mbabe
##angalie
novice
##borough
halija
##andamaa
koplo
##valevu
lobos
amekula
imeshika
imepangwa
shells
akita
##lanzi
shapiro
##mbiri
disi
ditka
mahab
sawasawa
uchaga
yoga
alungwa
tunatekeleza
niliwaambia
##thelot
geared
stream
umetumia
umejaribu
umeenea
prejudi
mysore
afriti
mapakisha
rudy
rudolph
##not
kuipata
convo
sance
chekho
kishamba
##scribes
abongi
maidan
shosh
1840
giant
gillette
kinyesi
lucki
kiusalama
##tumike
##wning
kuorodhe
righty
ikolojia
109
akilimoni
1540
bearings
vat
vasari
##boratory
orsay
guita
yaliyoandikwa
cardo
elcla
whin
##plete
commer
committee
franks
kumsajili
kumzika
mitigating
cerac
majuu
kuchat
perver
kenny
truth
##phren
aliyeika
workings
kiazi
clarence
grands
madawati
hukuza
substitu
eleph
hauling
kasich
viability
apprenti
calib
watengenezaji
specter
##laim
##elimisha
panhand
berthelot
salary
##tented
vinavalevu
##zingua
delirium
lands
kwera
guadale
paying
minneapolis
hujaza
tympan
helps
lifeguards
lifelong
groundbreaking
dryer
colombia
causality
1937
##tonic
transitioning
##nism
tropez
##engere
visionary
waivers
inefficiencies
manabii
linaloendelea
linalofuata
ujifunze
##mentioned
injinia
nikitext
balaaa
gateways
drake
salvameles
ungefanya
shotgun
amida
contrasting
gopnik
misalaba
1894
yaisaidia
##tarily
crosethe
absorption
##culture
princesses
resent
punctua
kupindukia
idpa
alitoswa
1885
weighted
proserity
1805
ibn
ponderous
rowlett
lenzi
elijah
kisengere
flanks
1793
triptych
1755
positive
gypsu
regardless
shopkeepers
sultana
goose
character
presorting
ananunua
akajirusha
journa
inanifanya
bassen
1814
moyoni
parcel
shanghai
glancing
##kasirika
shawwal
torchlight
disgusting
informative
eastern
##ssociates
kufungia
investments
wajifunze
fanatic
complacency
cartoon
taulo
search
suitcase
1279
nonsmo
lacquer
majoka
corrobora
vestments
ndwele
gallant
enclosures
rubbers
alcazar
madeiran
uncontrollable
mahogany
vidonge
exuber
negril
kuchanganua
eszterhas
postmodern
reassuring
kuungua
unlocked
thornton
kisogo
marseilles
wealthier
darnley
hayakuratibiwa
francaise
topkape
giacometti
cantaloupe
maombolezo
ikikauka
expatriate
vestiges
uholanzi
nagoya
latitudo
biscuits
buddah
aurangzeb
extracurricular
aanandamaa
brewing
mmomonyoko
viboko
kuorodhesha
elclasico
ceracz
aliyeikata
panhandle
guadalest
tympanum
gypsum
aanandamaayeti
atoto
abiri
azindua
alum
achez
bred
cun
cmw
egre
furi
fonda
hkta
ide
jje
mdo
omni
ringa
tende
##oc
##oza
##ffords
##ui
##uville
##stes
##kind
##bino
##cce
wasia
wafanye
##lian
##income
##hardt
mapp
maced
kathy
kwambiri
##kud
##mates
killing
kihole
##sized
##sijeni
##hibitisha
hada
hallo
##rago
##racy
##jiandikisha
##zable
hilli
hitumike
##kiwe
##kizwa
##kiuka
##kitini
laut
##tembee
##saini
##repa
##buy
##anaga
bah
batiki
vive
miba
##mbstones
chat
chafya
alilala
alimpa
##dophi
##dogs
##idity
tuendelee
yehuda
##seum
tafauti
##bikwa
##bihini
inapiga
##ercise
mumbled
mussels
molo
anach
anashinda
anasisitiza
anathiriwa
totoka
tombstones
unam
unakubali
##chani
##pitishwa
##rubu
##oul
selango
pachu
##champ
##dhiwa
repe
chandra
biologist
ramona
bede
##chos
##pedo
buo
##ungule
bode
pokhara
cave
cabo
cages
utazamaji
decom
deflation
coda
cobra
cosmo
##luhu
meg
meri
shima
shiva
##maniye
##onale
##juta
suluhu
negli
##cately
donj
donge
##gious
##sock
prou
prosta
profusion
##tiative
gazu
tesa
ries
futures
jeffords
pishi
makafiri
kettle
tick
tibe
ameishi
amethibitisha
shell
majiji
matupu
akijikita
fiti
unfore
untou
manuals
cancer
athe
athibitisha
mbanaga
##rdin
jodh
jokofu
ulisha
ulikataa
idas
alter
chokaa
haitakuwa
kujilinda
matakatifu
zinaendelea
##cit
gem
reale
reared
status
mtindi
umesimama
arbois
msikitini
expert
##enot
ishu
kuuma
kuibiwa
conner
##llad
##llah
2075
mapera
mallio
malenge
##beru
luminous
##rising
##tumitse
kuota
benny
sitampongeza
wapihiyo
aisee
##tested
ellis
disrepa
kumtetea
oksijeni
zinazofanana
##quin
mbugani
atafte
msabihini
##gnano
kidron
norton
##psing
herb
adapt
leaped
stump
kufuatana
portland
##lethorpe
israfu
stoi
quinte
fleming
awafariji
politics
##ddin
buruken
voting
drift
atirc
craps
bertha
ratios
215
##minally
heretics
campers
tunes
delicately
counsel
mastercard
smiling
pray
##riello
kupuuzwa
slips
slides
operation
hutaweza
leastways
sunburn
272
trois
baux
irri
irving
worldcom
reigns
gritty
linalosomeka
golfers
fluffy
uanaharakati
nazionale
ndiyeza
projector
1869
1907
cleverly
deauville
nurseries
electro
electric
kubatili
##harth
jazzercise
feelings
cloned
biographical
schwe
experimentation
##gettable
windsock
elaborately
written
fighting
musalia
kunyonywa
ponte
suite
butiful
slump
inavyotakiwa
businesslike
macdonald
##uujm
aliichapa
torpedo
amorti
magnificently
wallpaper
cascade
587
nicola
confirmez
veneto
empty
kilungule
modernized
edokko
alec
##geneous
monastic
neuharth
compound
kambodia
crews
##tetemeka
improba
akajizuilia
cypresses
esth
connolly
sandals
anthropologia
##monacho
torii
buffaloes
disbursing
herculane
beginnings
unforgettable
inquisition
bryan
tribunal
bolstered
##building
oilskin
heian
hugubikwa
emanuela
revolu
levada
pangoni
leuchter
morocco
dispatch
anakomeya
sunbathing
selective
initiative
gladiators
mwendawazimu
gondola
kimipango
mackbook
lunar
irradiation
romeo
sulfates
##tubisho
demeanor
unbuttoned
provencal
protagonist
conduit
equivalents
lexus
chitwan
makhaini
lazimishwa
saturated
kumdharau
entryway
firebrands
hawkshead
virutubisho
rosewindow
hysteria
fiduciary
mbweha
manipulating
clenched
##glandin
wellington
leopards
kebap
disillusi
bassenthwaite
exuberant
abiriga
cmws
jjeuujm
mapplethorpe
kiholela
hilliker
hitumikemonacho
anachroni
selangor
prostaglandin
unforeseen
untoucha
mbanagatumitse
disrepair
burukenge
herculaneum
jjeuujmks
320
dyes
emulate
fong
hr
ia
iwa
ivan
ios
journe
kanga
konya
oyo
pent
pinsky
ryo
tango
tengeneza
ukwa
udai
uendelee
zungu
##ated
##twika
##lfo
##lous
##lons
##zze
##flo
##rr
##gri
##glia
##kn
##esha
##cina
##jour
##wallis
wamen
waanze
wartime
##limua
##lions
##lichacha
kumalizia
nast
nasikia
nakisi
##kamili
##hammer
mafi
madhaa
mazza
maonyo
kafanana
##kule
##mat
##tating
##taries
kicking
##sica
##sisten
hak
##raho
##lapi
##leg
##inian
##rel
##resting
salini
samoth
sic
baru
ballets
##kor
huria
huamini
vija
vifuniko
mitch
##mbhu
##mith
##mitt
alio
alipanga
alichapisha
aliulizwa
##dozi
##dogne
##geza
tuchuku
tumpan
thern
##sef
taver
jura
jubi
kutoridhika
muweza
anam
anajaa
anamsu
unauliza
unameremeta
##chon
##pipes
ilitaka
ilipigwa
ililichacha
##fichi
##figer
severa
seminal
##nesia
wanaku
wanalalamika
patro
inha
rees
kilabika
bibli
bishop
rabbi
##vere
##verish
beet
cactus
hed
utapita
destina
##mbula
comart
kunaenda
medina
##onewa
peck
##juraho
sus
sumi
sued
sufuri
sudan
sufficien
##thro
newa
jiang
nodding
testing
knit
funa
##boh
ghadhabu
kedah
##vities
ameuliza
amesaini
sheriff
akipinga
maslin
mastaa
butt
ungo
unski
uninte
manchu
dicta
dilapi
iliyofuatiliwa
##rnemouth
##stasubuhi
endo
ency
haired
tunalipa
##waliwa
##thex
mashauri
##cierge
reasse
stint
wasingizia
umekosea
prep
kuteseka
arky
arresting
##elcher
##angka
havel
rui
rupert
uphea
itaisha
##utro
confede
concierge
##aney
##shirikisha
chelezo
##genic
mags
maghala
allure
maid
pataki
gidina
gott
lust
plate
plainti
##ffles
linaitwa
vyoo
baharia
kinafanyika
beacon
beaune
wamelimua
var
valle
trailing
171
motorized
guts
curators
dissi
dismounted
##quel
kutushu
misdeme
bonnard
##mmering
hasidi
##phin
##rondera
##voir
brave
clara
blocked
##kwerondera
masikitiko
blazing
porta
portion
hukuruhusu
tvg
kuchin
fret
freud
glare
intelli
bournemouth
watani
crochet
##serva
surge
kifuti
schoelcher
upau
kumuu
campsite
lawsons
germanic
tenge
denby
katamba
tunee
prague
lines
crush
taslimu
parakee
dial
secre
horloge
##linas
curtain
irfa
irca
##ddaw
mariamu
brevis
aarp
removal
gauguin
revises
limefungwa
wachtler
kuwashambula
upishi
skiddaw
errol
apology
1865
doorstep
1909
contracted
quirt
1897
theorists
yamepata
1872
boating
kisukari
##brava
hamlets
1913
1918
relax
infes
infrequ
pizzas
applebome
survival
counterculture
punde
vipodozi
predictably
nawapenda
niliishia
plastics
abakwerondera
##heated
dickens
inakumbana
##corn
##nesday
louisian
swings
persona
##forcement
aliyejitwika
##licate
fooling
archie
717
kuvimba
neuf
mustang
creative
siegel
narthex
build
greatest
khalif
drawbacks
slva
kudharau
lovingly
strangers
honshu
concurrent
interventionist
kleinman
grimly
shawls
individua
bidtini
braziliye
characterize
signature
kunyolea
brahma
overe
cherno
kusikitishwa
royale
kisanduku
pharmacy
hilfiger
address
##enyenye
threes
mosle
levitt
emanuel
scorecard
foreclosed
dordogne
nonsense
rachelle
reproductions
undugu
steaming
reporter
psychiatrists
presidentas
foreigners
proponent
spreading
html
##teenth
dreus
videotape
asymmetrical
mitungo
ranas
inadvert
exclusive
denominations
hinges
pessimist
warahisi
busily
pollsters
misstatements
dynastic
dexter
filegate
comoros
carlyle
fragmented
caravanse
akiipa
haujakamilika
mummification
bungeni
wednesday
flamingo
stalagmites
##ghostasubuhi
meeting
mantegna
kuhonga
negligible
donjon
penthouse
madhaalimu
mazzariello
##sistencies
tuchukulie
tumpandie
anajaalia
anamsukuma
ililichachafya
sufficiency
dilapidated
arkyboh
gidinaghostasubuhi
kutushushia
a5
ascent
acheni
bingo
cm
ceno
eradi
eutro
ist
ish
izin
ianze
kh
mse
mone
oge
orang
pant
rer
rene
sme
srina
uly
vod
wen
wry
##adamu
##achilia
##itishwa
##llia
##zuela
##ukwa
##dend
##dkey
##rb
##grou
##gongwa
##pru
##pso
##cini
##coteca
##yres
##88
wards
##ligu
##limwa
##anged
kufanyiwa
kuzaa
nadhi
natembea
##inunua
##encies
##kumwa
##ritte
##naga
##tati
##taph
##tario
nitoke
niweze
nimpa
##sic
##sizwa
haba
hates
hafai
hastahiki
##diently
zapru
##lette
##tue
hier
##wering
##wept
lard
##tem
##kerehesha
##rely
##iambie
##mela
##muka
##hodhiwa
sacre
sides
batch
huamua
vill
viche
##mill
##gain
##post
alishukuru
##dodend
theban
##shikili
mount
morali
morant
anajali
topo
wes
weba
wekundu
##piana
##pist
##rut
##oui
nyenyenye
##figu
##loo
##lors
##neys
##duous
##dhiha
watumie
rehn
rethy
dared
jacu
##wang
racially
favo
bep
beye
burook
bose
castration
sisimizi
heb
hataweza
utakuja
lille
lifers
deba
delu
decon
depar
##ributes
cosimo
shimmering
pee
##mpia
yousef
mkufunzi
mkufuru
suwak
doe
umen
rivoli
zimen
##varo
ties
fee
lojack
usiri
romana
rohan
imefanikiwa
akiwika
maskhara
shawn
butandisi
uniambie
mang
manet
##ongano
diwan
dimin
##angushie
##copia
##cological
##fea
akaanzisha
akashusha
mbilikimo
hawapewa
tunaweka
##cil
geta
dumisha
arriaga
kununa
excru
kuumuka
kuihusu
concep
numbers
santana
foals
##rinsic
ranked
##llaume
astu
aspi
advice
206
kindani
kuliwa
kuelekeza
linasema
brodkey
beatings
wamesimama
##mbelezwa
inayohodhiwa
##zungumzaji
citi
1715
penchant
matone
within
##ckety
steroids
cube
1650
##fikapo
##pled
yup
utuangushie
zinazotolewa
versa
cere
kutupiana
parsis
##irment
##hanie
corne
corsica
vikuku
workers
compani
louder
aliyepaa
aliyepigwa
kialfa
bray
lotta
sponge
porphy
hatuta
unaoongezeka
unaokerehesha
subtle
siafu
##seful
prio
wakienda
minded
##liese
browning
ubashiri
woga
unify
liner
flavour
intangi
intrica
loopho
merdeka
esque
stipu
anayeweza
kusukumwa
nikachukua
nikapima
streets
placebo
wakazikataa
philan
finance
clothes
banked
wonderfully
hardkno
mgongano
westin
lililojaa
lililolimwa
guar
tyson
cruel
##minant
sunken
milken
seafa
tailor
kiroja
currie
linalohudumia
332
anneliese
mgombeaji
capitalized
mainsta
##remka
brutality
##rdial
gladys
celestin
##graphs
crimson
exploiting
entrant
quite
nitarudi
sloping
ploy
correggio
addict
contributes
voters
uchinga
heading
masumbuko
monoli
windfall
unyevu
flick
flight
utoe
quantitatively
alfabeti
rhododend
rowing
guillaume
flashy
deranged
fantasy
maharagwe
1821
reasoned
motorway
akimshangaa
closeout
dunlap
utitiri
utiririshaji
ubecho
amused
hopelessly
kichokozi
ingeweza
palheiro
mildly
phoenicians
mundell
##gliani
seminary
distribu
1519
kichawi
viollet
russell
gravestones
haijatele
nightclub
modigliani
entertainment
gonza
1453
moulin
haukuitishwa
impairment
bodyguard
haikufanikiwa
stephanie
uzongoa
##tously
merrill
saluti
misokoto
brahmins
linganisha
castile
kudhurika
footpath
southern
whipmaster
sleeping
kubembelezwa
liberated
dispensary
totalitarianism
congested
shearer
mamelukes
donatello
inconsistencies
katharine
ccls
claude
ltcm
juicy
imewaachilia
evange
catalogs
escort
sympathi
libertarians
matthew
franaois
encased
inapplicable
conspira
swans
ornitho
windswept
nikamjibu
institutionalize
nineties
pollitt
msafii
papiii
clancy
##llionaire
identify
troopers
brandishing
principally
nautical
groseor
tropicana
balustra
anthology
lsnj
pinacoteca
plentiful
kuzungukwa
patrona
cenotaph
izinsizwa
mseto
ulysses
vodka
nadhifu
nimpambanaji
zapruder
vicheko
rethymnon
jacuzzi
zimenyooka
diminutive
excrucia
hardknott
haijatelemka
04
aly
abaki
brin
bled
ffa
fondo
gow
gno
ghuri
lun
lingu
mct
nandi
ntoni
oda
oye
osoro
oggi
ple
pletho
wer
wins
xo
yen
##ah
##tche
##ttes
##lwood
##uss
##urial
##sme
##dg
##deni
##rlich
##gone
##gly
##gny
##br
##bour
##cena
##celess
##xins
##waa
##wazito
wazungumzaji
kuhariri
kukina
##kamata
##haha
mafua
masaki
magic
kachukia
##mad
##mamisha
##tains
nilikosa
nigeria
nimalize
##bage
hashi
##ravou
##onane
##diment
##lais
##dache
##yoka
##heu
##hera
##heed
hick
hitch
hidea
##yati
##tops
##teh
##jamaa
##buko
##buck
##hoku
##good
savers
saloon
sipping
##guza
vigele
vishindo
kuwaelimisha
##mbing
##mizu
##mignano
chavez
##gator
##dote
ambako
tuonane
inauza
judean
##shikwa
modu
anausi
anapingana
towing
tohoku
mwamvuli
mwaija
unatoa
unasahau
##chman
ililaaniwa
##stles
sei
seinfeld
wanati
wanadamu
wanasubiri
wanaruhusiwa
pam
pamela
##englass
ino
inuka
recep
wifi
wimp
witt
##eleze
changan
jamala
bites
##endeka
rava
racket
falu
falla
beberu
soci
sojou
posse
cated
carefu
hakujiandikisha
hein
hectic
utafanya
lion
lido
libra
delle
depart
coe
##lutu
pew
petri
pedophi
##mper
goli
gora
sudani
sullen
##thriti
lebuh
leveraging
docu
dobrava
##000
promo
jihadhari
jitahidi
noe
noec
nowada
##tiality
gad
gamba
##bound
jelly
##mbeea
keats
##enthal
amepatikana
shee
kupikia
kanusho
uns
unli
uncom
unpredi
shukuru
mwanadamu
mwanariadha
kutamka
mahabara
vitambi
joint
joshua
ulipitia
alta
tunatambua
##andiki
##thetically
geisha
wasdale
mtv
umekua
umeongea
arthriti
mycena
vero
kuumbwa
##zungukia
wakora
##odle
sans
cheering
##scle
whatnot
kimungu
wakarimu
walesa
shor
lakeside
mchwa
adsl
gimignano
kinyumba
ufanikiwe
kiujamaa
kuogofya
benz
broderick
1566
wamelala
vastly
kulaani
puff
pulau
accade
text
carmel
bunrakia
yorkshire
ukiukwa
wasitani
angesitisha
##lfth
yanayovunja
backfi
zebaki
parent
parker
atali
1450
malaria
mategemeo
##psy
hanni
braun
##ronies
blot
ikifanya
ikifungwa
ikiongozwa
haraga
showgirls
trivia
splin
trla
lilizungukia
wanaozaliwa
subtly
##sively
awaana
##burgs
incine
mbofyo
boules
bougain
nonme
##kumbushe
intran
cracking
designbuild
khajuraho
gross
groaned
undercover
mario
antiqua
antidote
soul
##riding
##zidisheni
headache
isiyofunikwa
gerry
dentist
##manage
kuponda
musings
bande
##quita
neega
kwema
umbay
shukran
northwestern
crushing
wagombeea
colossi
cauravou
mteule
hangings
napoleonic
waambie
weathered
visiting
ugavi
cashmere
collectors
eastward
mailstream
engineers
burg
ulete
akhera
elaine
mallor
flatly
bruhman
lowincome
booty
alipokuwa
druka
wajawazito
1866
1861
1901
checkbook
deposed
##ualty
decide
assures
pitfalls
hippie
edime
contin
##mulates
northerners
590
foodstu
hoover
cutlery
turquoise
leninist
amewasili
christened
hatfield
tourisme
1822
films
casualty
scrutini
kuhojiwa
pursu
##stroms
coldly
heartland
##pasua
##dulous
battleground
blinking
blinked
atunabu
attendants
assort
lobbyist
hubris
frustrated
idiotic
lockheed
civil
ugesa
##government
moody
kustahiki
alligator
duel
smartest
nikuulize
vauban
ehrlich
hostess
fiscal
sandalwood
kudhania
stallone
twelfth
yachting
spirited
nicholson
##dhirifu
foolproof
nicolette
##2000
anticipating
paralegals
whitman
vimbada
conquests
decidedly
impressionist
competency
preventative
appointing
sensual
reportable
akakuzidisheni
dedicate
proponents
nuovo
eisner
hetero
##suluhisha
crowned
safaris
doctorate
baldwin
mchugh
signoria
enact
obediently
kumuabudu
##preneurial
pelee
##tosheleza
sacristy
conditioner
migurudumu
nondescript
iconocla
fitzsimon
ocg
grandiose
taharuki
portugal
blueprint
miyajima
entrepreneurial
vosges
disbursements
##sequential
guerrilla
refectory
jasper
mesopotamia
pfeiffer
nakutakia
landsburg
journalists
alumni
halloween
alterman
atircm
iwasaki
villena
webare
rehnquist
patronage
plethora
kukinaisha
vigelegele
anausifu
changanyika
faludi
fallacy
sociologist
catedral
careful
nowadays
mahabarat
accademia
ukiukwaji
atunabudi
assortment
440
deng
dwar
ethos
gane
gwen
hend
iru
lus
ors
pida
rd
rwanda
sind
udhani
ughai
uchumba
vun
zenu
##tane
##ip
##zena
##rred
##ganga
##grant
##mmes
##bono
##bbe
##brow
##cz
##cson
##hren
##wd
##wendo
##28
##71
##74
##waelezea
wacho
wamalize
##aneni
##ancia
##kai
kasuku
kwares
##kupata
##take
nisite
kiwe
kiini
kichi
kits
##historia
hape
haunted
##lain
##lage
##lative
##heit
hides
higher
##toe
##wesha
lamba
latch
##sador
##shaws
##anashati
##gona
##going
##gogne
sadi
sally
babies
##fuse
viral
vigan
##mbling
##michezo
##zoga
alihubiri
##dour
ambasador
##inage
##inard
tupange
tucson
taco
tail
tambaza
inavutia
muislamu
muendelezo
momba
mobile
anawekeza
anarejea
tol
wey
weza
weir
weak
welding
##china
##pitisha
ilitua
iliweka
ilini
##rukwa
##lomera
wanachukua
wanatarajia
parose
pambiwa
paints
##challan
##orgi
##dhamba
inhi
infan
inner
infir
##bwaya
reengine
resc
retor
replete
ancho
anita
##with
willian
chung
jaiden
billable
rams
raged
fariki
fahren
bessette
bura
pops
cambio
hakufanya
hef
hes
hep
libya
dehydra
##lub
shiko
petting
miamvuli
suspi
suckers
dohani
nefer
nephe
##terfield
##sols
jio
noir
gast
gaping
##ldron
##bomo
jetty
jerome
zitage
tikiti
lose
amebaki
amehariri
usiok
chuko
imebeba
imeboreshwa
imetengenezwa
sheba
kane
akitabasamu
##lange
##mbira
distingu
maharaja
vitambulisho
akabaki
mbya
kuskia
altea
tunaita
nilikula
nilizaliwa
kujitambua
barka
##andisiwa
##bellows
##thera
##cid
gezira
kukalia
stations
stationary
##mante
dudu
mtanashati
umeisha
arendt
msifanye
yanaanza
mapagoda
excited
upsta
islets
ajami
sanchez
chee
watapambwa
##rinsky
angalizi
##folk
allusi
uwakumbushe
wachafu
nimeamua
##punguza
timeless
##reds
##yarisha
mtaabisha
bendhamba
kamwendo
linaendelea
linafanikiwa
1066
maury
153
wamekua
wamejaa
wameshinda
wamechukia
conglomera
mons
mondi
magauni
inayotoa
wapishi
kulainisha
purp
accept
overpri
chile
yaliyowekwa
kuondokana
compi
kumfuata
medic
scrs
##ticism
parte
perennia
305
##smiths
graced
##fundishe
changamwe
louise
materia
aliyezindua
kiajabu
madden
wanaoaminika
##talized
tulitembea
glas
quotes
quentin
haukuwa
##logique
##logiston
priori
minnow
iifu
intera
##lieb
talbot
woj
##ddon
maweeeee
interpo
warring
blackjack
404
pants
palatial
wateule
##minator
patna
townspe
ufufu
ferra
ferris
houseboats
##banks
guardian
##pingwa
crust
emile
abiding
abilene
slip
freedom
cauca
phlogiston
productions
products
sunset
akamtazama
##cery
aliwakasirisha
curry
mabbwaya
usiofaa
eerie
##ystems
anatarajiwa
commons
kambale
yardley
ajegun
upitie
popcorn
329
bibilia
choose
santorum
##mplified
contracep
akawaashiria
edwards
nitapata
bourgogne
yamerukwa
deciview
expressway
clement
sloth
josep
mpg
radicals
sarnath
strike
schonga
capitoli
fungal
1886
dyson
pearinsky
bowsher
reincar
reinforcement
tissue
mhenga
extrapo
utahandisiwa
wildflo
analytic
hatreds
1824
isayana
rising
risorgi
mzizi
equivo
unapoendelea
breathless
monarchi
przy
paperback
copypaste
statuettes
anajilutu
rickshaws
##eeeeee
speciality
asschallan
cornwallis
1763
orientalism
##kuzwaye
recolle
langdale
commision
clockwise
utilization
individual
graphic
brownell
##teleke
kathie
royals
pkk
tenements
naacp
ghiberti
marauding
nebbishes
underestimated
oim
complain
cynic
nafta
contemplating
arudishwa
lutterfield
alternatives
fiestas
akinigusa
undulating
convention
mkorofi
soderstrom
needlework
inapowaelezea
toothpaste
optimistic
komaaaa
ornamented
uliamua
layoffs
abbaye
afukuzwaye
kandanda
scorsese
uhamasishaji
mathews
kuwanywesha
disintegra
railings
lingerie
temperature
sleeve
territorial
uvimbe
bromide
technicalities
incongruous
##soriented
withdrawals
ingenious
luckily
thernstroms
beetle
encyclope
gottlieb
kuchinjwa
hebron
linguist
ravages
ganesh
udhanifu
ughaibuni
vunja
kwaresma
nisiteteleke
farikianeni
fahrenheit
suspiciously
nephew
zitagetuka
usiokwisha
distinguishes
maweeeeeeeeeee
townspeople
ajegunle
wildflowers
risorgimento
anajilutubisha
asschallange
630
apen
aman
afici
bmw
blen
bjp
dena
dcs
eyes
fpa
gong
iweze
mchaka
om
omo
pint
rin
squi
swaya
stony
tte
umber
vou
##age
##tc
##try
##ttal
##teness
##vs
##utoa
##sua
##seni
##rano
##glo
##ggers
##manda
##ccer
##yons
##xx
##xam
waone
kush
kukwe
kuroll
kuguna
kuhesabiwa
nav
##kavu
##hak
maanga
mavi
##tius
karo
kasti
kadem
##enta
##kuthi
##kupunguzi
##mayun
##hida
hap
hamas
##disi
##dicta
##letea
##tushwa
##yosa
lack
##tegemee
##mbazo
##revu
##shambulia
##goers
##gorating
sacra
simbe
barizi
hug
hutumiwa
humayun
mile
miling
chait
##dela
##dels
##gamum
alielewa
alifafanua
alimeza
##geot
##gellation
##mori
##mose
tureen
##bians
inajaribu
inakosa
inasitisha
inaunganisha
##shitushwa
mota
motels
anabeba
anapoteza
anaficha
anaondoa
unafe
unawaza
weiss
##pig
ilikemea
nyan
##nels
wanaiba
wanamichezo
pater
paume
paros
##suru
##dham
##oteuliwa
aura
ink
ingra
inroads
reson
reanaly
##wish
##widhi
jassie
rapped
raquel
beya
belu
becker
boh
bore
sobe
soccer
pola
utadhani
utakwisha
debu
defer
deference
coles
coppo
##zewski
peda
pelo
##judu
leen
##giously
proc
prozac
gare
teller
jedi
halipo
makamanda
##vided
hakiondo
feverish
amea
ameoa
rox
imeten
homb
kanchi
akilia
akimwambia
fiel
unra
unzen
shutters
mwanaadamu
mwanahistoria
##thirika
kutamani
##rney
akabadilisha
akautoa
##shwar
mabavu
mabalozi
##tons
##tonin
alber
chore
niliku
barra
matalin
formu
gerard
reagents
stambazo
##mango
umeonyesha
arbi
mysti
rule
mkasema
##ungana
newport
##rino
ukinunua
kibenga
magritte
meaning
##mmond
##ondoke
nyef
shoga
nimeli
nimekubali
kuvumbua
mchongo
kuapishwa
##ussa
207
kinsey
##badilishana
##gonia
##ands
uashe
##ttened
marmara
ninavyo
ninaamini
brothel
kinaitwa
wamekataa
##job
tumepokea
tumeire
travol
monso
mwanya
oversi
chilling
chianti
goods
carrey
elvis
disen
mwerevu
anytime
indian
wasikupunguzi
##plets
##wool
yanayofanyika
##endlath
verdi
vernon
seeded
scree
kutusaidia
atapokea
pergamum
cornu
##anganyeni
msambazaji
gram
compul
##rondi
aliyepingwa
aliyeshitushwa
kiasili
nyoa
##daiji
##pangishaji
ikikupata
masimango
stocked
longstanding
kuchan
##llos
##aaat
georgebush
ufikio
aggra
agonized
##vingly
ubadhirifu
kukosea
interlo
denise
spaced
watendlath
flagellation
flattened
croix
downturn
intrinsic
figurines
blackmail
immor
fupisha
##fikiriwa
crepe
anayea
underpin
nikamwambia
berga
berlitz
antipa
menta
superstar
sydney
walengwa
postmaster
smiley
kuhubiri
##herently
1928
freezer
diaries
steelwool
swiss
##rching
mabhida
realist
playboy
reite
centi
goldwater
brewer
deritu
fitness
privacy
babysi
##sudiwa
exposures
vieille
limetokea
abbeys
plane
indust
criminal
quebec
kutimia
clearest
apostasy
wharton
whaaaat
slashing
edwardian
1899
kupotosha
pitted
mpweke
relati
transplan
mursik
schla
retiro
privateers
monoga
insiders
circ
expectancy
1888
385
openness
mhakiki
1848
itakaseni
motivation
parisian
cobblestone
signs
przeko
##ctual
struts
esteemed
buick
mfawidhi
tableclo
effort
hagga
recover
listening
haukuletwa
dueling
emeralds
oaxa
concurred
concurrently
ifill
1688
geography
domingo
circuitry
contests
saucepan
overarching
dahmer
omissions
unbelievably
maroons
phillies
theoretically
inquiringly
kuweni
orchid
tenet
paneling
alrighty
transmittal
lombards
approve
approxi
smoothed
emotionally
seedy
thrift
frenchman
pangkor
paddies
cafr
convento
insightful
toxicant
impractica
mpuuzi
anakosoa
gainsborough
espagne
cochin
cochran
collision
econometric
##suluhishwa
result
fancied
receivable
mercado
railroads
reinforces
mabishano
deployment
querry
belgique
riviyre
blankly
hapsburg
nwina
employee
impotence
dentists
quieted
kajashi
madrilello
sterling
flint
mavuzi
extension
smithsonian
nonimmi
spokeswoman
indispensable
dreyfus
hackath
dayak
walizusha
mitterrand
unasukuma
halijasuluhishwa
##kudanganyeni
vivero
##kamilisha
infested
favorite
companies
hatutatuma
intricately
loopholes
rhododendrons
##wdry
purple
perennially
schongauer
apenn
aficiona
mchakataji
swayambhu
kukwepa
kastilia
simbel
milinganyo
coppola
hakiondoi
kibengali
uasherati
tumeirekebisha
travolta
wasikupunguzieni
cornucopia
015
410
aunty
bena
cis
echi
gna
honge
hdz
igre
ikondo
ifikapo
jorge
kou
lume
ming
mtoaji
mdaku
mfn
owa
ocha
ott
ponia
sane
skele
sphin
twa
tong
tant
ufika
wren
##aching
##tanisha
##trip
##lta
##fra
##flu
##fters
##ng
##dance
##gingi
##mvu
##mned
##yen
##ymour
##jelewa
yawe
waendao
wameni
waungwana
##lik
kufunza
naty
nakula
naple
malu
mateja
maths
kastro
##mahon
##taz
##tama
##taste
kitoto
##siku
halla
habana
##rauliwa
##dike
zaka
##dase
##level
##yot
hips
##yat
##towski
##terous
##yela
##yeur
##unced
##meters
##mulus
##hukuru
##how
##hoff
##gous
sail
##gulamu
basha
babur
##kota
hushu
hutembea
vip
vision
mies
##mizo
##mier
##migian
chase
##pardy
##deon
##posing
alithibitisha
##dol
inashangaza
kutoboa
##shiki
mol
anasta
anamaanisha
anacheka
tome
unain
unashindwa
unakera
ilitumwa
##lope
sever
segal
seymour
wanaeza
waombo
pashu
##suliwa
##shri
##shore
intima
##duano
regal
return
##anova
davi
jadili
bib
bian
bionomics
rames
ragged
rambira
##veigh
burne
bois
bodh
bomoa
##onization
heat
hemis
##linqu
utaelewa
utachagua
detail
decency
deuts
##lutions
med
pedd
##onarola
##jushri
ledge
lefti
dolma
##caville
donnell
##giwa
jionyesha
##ising
gals
##lysis
sikujua
knum
futa
fuller
jetti
ghazali
##chim
pipe
pills
kemal
##vira
zion
zitue
walikua
walikunywa
##takasa
tito
tipper
tighter
tiered
loya
##rants
sheh
holi
holder
akija
##dhana
butche
##graded
makuburi
unsa
unse
manjushri
##mbila
atm
iliyotumwa
mahavira
jogoo
hawafanyi
ndilo
altru
haibu
haipendele
hairuhusiwi
tunatafuta
nilifika
barro
barth
barco
barrett
zinavyo
mashambulio
geved
duf
umejaa
umepoteza
prefa
precin
prelude
kuteken
ark
army
afore
expen
isti
italinda
milita
##scre
##scurity
majeneza
ranchi
maiden
meantime
##maaa
nimefurahia
1815
kisamvu
##msky
platea
##ttan
kuelekezwa
##cuous
utembee
vacaville
tumeenda
tumeongea
traste
trailed
inayosubiri
mwanana
uliokadiriwa
ciu
motokaa
oversta
overgrown
penney
yaliyofanyika
##cketed
carpa
##rph
cursing
waliohudhuria
disin
distur
##genous
wasipige
comrade
yanayotoa
meditation
zinazosifu
veranda
seeor
misdi
edwin
parmigian
##leysu
flood
cortes
mkeka
mitz
malai
norquist
janaba
niache
kiafrika
herrera
ushinde
##views
pointcast
porridge
hatuku
uwanda
tulihama
kuchanika
##llot
##dhuli
mcmahon
mcveigh
fleets
pride
agde
aliahidi
##sasishwa
immate
sticks
paneled
borne
winz
watekaji
ujina
##minaries
stratos
strauss
ecp
language
gertis
ufumi
evening
tamaaaaa
obscurity
seriousness
idealistic
salons
kinachotokea
plush
emilia
cityhall
kufidia
dubliners
watershed
parades
##ferry
transcend
euphe
kennewick
horned
##myrdin
hazipatikani
mliendelea
useless
visigo
playlist
columned
awesome
saladin
333
dieu
juno
[...]
